#version: 0.2
Ġ Ġ
ĠĠ ĠĠ
ĠĠ Ġ
ĠĠĠĠ ĠĠĠĠ
s e
i n
ĠĠĠĠ ĠĠĠ
r e
o n
t e
Ċ ĠĠĠĠĠĠĠ
Ċ ĠĠĠĠĠĠĠĠ
o r
s t
d e
Ċ ĠĠĠ
t h
l e
Ġ =
l f
se lf
m e
a l
t i
e r
Ġ a
Ġ '
Ġ i
a r
Ġ c
e n
ĊĠĠĠĠĠĠĠĠ ĠĠĠ
Ġ f
a n
Ġ self
a t
r o
Ġ th
' ,
Ġ re
ti on
Ġ p
Ġ "
c e
u r
Ġ n
g e
) :
a s
Ġ t
- -
Ġ s
# #
u e
m p
a me
Ġ o
in g
Ġth e
Ġ in
l i
de f
c t
l o
a te
r i
p e
u n
Ġ e
ĊĠĠĠĠĠĠĠĠ ĠĠĠĠĠĠĠĠ
Ġ #
d i
c o
f i
Ġ b
se r
Ġ (
m o
c h
u t
Ġ w
s i
Ċ ĊĠĠĠ
Ġi f
" "
( )
n t
r a
i d
c k
Ġ def
u l
ur n
a d
te r
e l
t urn
ĊĠĠĠĠĠĠĠĠ ĠĠĠĠĠĠĠ
n ame
m a
o t
' :
' )
( '
Ġ [
or t
ge t
_ _
Ġi s
Ġ d
Ġf or
on e
t y
Ġt o
a b
0 0
Ġre turn
i s
Ġ v
Ġ T
Ġa n
Ġ 0
-- --
e d
## ##
i l
u p
e t
s s
p a
c on
= =
i t
) ,
q u
o l
Ġ h
te st
e s
Ġ u
x t
Ċ ĊĠĠĠĠĠĠĠ
" ,
N one
al ue
Ġc on
Ġ 1
Ġo f
as s
Ġ" ""
ser t
Ġ st
se t
mp ort
o p
c tion
' ]
k e
l a
ro m
at a
ĠĠĠĠ Ġ
v er
Ċ Ċ
. _
Ġ m
d u
a tion
h e
de r
ul t
c l
Ġ S
r ue
) )
v i
v e
: :
me nt
Ġ +
Ġ A
Ġan d
si on
Ġn ot
in t
i le
Ġ C
Ġ %
Ġ -
Ġe x
e ct
r or
i th
[ '
t r
al l
el d
u m
u b
a p
g s
a m
an d
b u
ĊĠĠĠĠĠĠĠĠĠĠĠĠĠĠĠĠ ĠĠĠĠĠĠĠĠ
Ġa s
ab le
p ar
Ġc o
Ġ {
l in
ty pe
b j
] ,
t o
l s
Ġ I
re s
a ge
te d
Ġ mo
e x
du le
Ġ de
( "
Ġ F
as sert
a se
en t
Ġ _
Ġ 2
Ġ g
Ġ L
Ġ None
Ġ di
ĊĠĠĠĠĠĠĠĠĠĠĠĠĠĠĠĠ ĠĠĠ
st r
Ġi mport
p ro
Ċ ĠĠĠĠĠ
R e
p tion
fi le
t a
en d
f rom
te xt
ke y
Ġ or
Ċ ĉ
Ġ= =
Ġ P
f or
Ġb e
Ġ test
/ /
o d
li st
y pe
h t
#### ####
pa th
o de
ad d
Ġ r
ti me
h o
p ut
Ġ :
Ċ Ġ
i g
u s
Ġre s
---- ----
p er
i c
== ==
cl ass
" )
al se
= '
Ġn ame
E R
qu al
p t
E r
f o
q ue
Ġw ith
T rue
e w
Ġ se
Ġ *
Er ror
o ut
bj ect
an ce
le n
s c
i eld
n s
Ġp ro
p o
Ġ lo
c i
a ult
a ck
f f
te m
Ġ me
] )
i z
o ur
I N
m at
mo dule
Ġ D
Ġf ile
d ata
i se
mp le
Ġv alue
" :
Ġ ma
Ġe l
Ġp ar
ap p
w or
y s
d o
th od
v alue
Ġel se
m m
ch e
Ġ O
u re
fi g
e st
l y
t ri
E qual
co de
ar gs
d ate
Ġa r
Ġ G
Ġ M
m b
lin e
li c
ĠĠĠĠĠĠĠĠ ĠĠĠĠĠĠĠĠ
I n
st ance
re d
Ġ y
O N
s h
n o
d d
que st
our ce
an g
ct or
re ate
an ge
"" "
ar t
Ġst r
Ġ un
0 1
A T
= "
Ġth at
assert Equal
* *
ur l
i st
mo de
') ,
par am
a g
Ġ __
Ġ l
v al
ĊĠĠĠĠĠĠĠĠĠĠĠĠĠĠĠĠ ĠĠ
un ction
Ġ 3
f a
re nt
Ġ N
Ġ on
I T
p y
E S
un t
i mport
Ġ( '
Ġ W
p re
Ġth is
Ġ en
a c
Ġ E
r y
Ġi t
Ġd o
Ġ ra
Ġ get
Ġd ata
Ġ set
Ġ x
ce ss
r int
Ġ <
b o
il d
lo w
t p
Ġn s
s p
a der
ro up
en se
Ġu se
c a
Ġ `
Ġc h
A R
n e
) .
Ġ >
p on
Ġf rom
fi eld
at ch
d b
Ġ ĊĠĠĠĠĠĠĠĠĠĠĠĠĠĠĠĠĠĠ
ar y
Ġp a
i f
Ġ B
di r
Ġas sert
Ċĉ ĉ
E N
m s
er ror
i p
C on
Ġb y
Ġw h
at or
' ):
ss age
vi ce
ĠT rue
ĊĠĠĠĠĠĠĠĠĠĠĠĠĠĠĠĠ ĠĠĠĠĠĠĠ
3 2
ĠT he
te n
ce pt
. .
pe c
O R
p ort
1 0
__ (
i r
en er
sc ri
1 2
Ġt ype
Ġa t
th er
Ġ U
un d
Ġo ut
pon se
j o
app end
A L
re ad
de x
Ġ al
bu te
Ġra ise
o m
re ss
o s
w a
o k
Ġo s
ri te
ĠĠĠĠ ĠĠ
######## ########
l ate
me thod
u ser
ĠF alse
m l
Ġres ult
u ment
co l
u th
==== ====
p p
E T
li b
v ent
te nt
Ġ @
T est
ar i
Ġ{ '
ti c
ing s
Ġ )
de d
( [
d s
wor k
Ġ list
f e
Ġw e
tri bute
6 4
il l
m in
qu i
Ġs o
he ck
Ġf unction
Ġ }
F alse
o bject
ra y
Ġa re
an s
Ġ Re
lo g
F ield
iz e
ic ense
Ġ 4
T ype
Ġv er
-------- --------
w n
in fo
Ġ key
a ve
Ġc ls
ce s
z e
Ġ R
la y
o u
di ct
st ri
b er
ce ption
n et
as k
ĊĊ Ġ
te mp
Ġ len
in it
Ġ V
Ġ k
Ġ[ '
e c
Ġmo de
2 5
u st
le r
re e
S T
re n
in stance
e xt
Ġc l
p h
lo ck
( ):
s on
in d
j ang
Ġ+ =
g er
ĠL icense
Ġdef ault
jang o
f t
co unt
b le
tion s
ar get
9 9
D e
li f
Ġmo dule
ul d
an t
. __
c al
co mp
1 1
Ġt ry
mm and
li ent
Ġp rint
ti ve
Ġ ro
Ġ H
de n
a mple
up date
A N
ĊĠĠĠĠĠĠĠĠ Ġ
h is
se s
Ġex cept
str ing
Ġn o
Ġp re
u te
ter s
C o
ta in
' '
um ber
con fig
Ġ ##
ab el
Ġc an
L E
S E
R E
def ault
00 00
Ġ time
at us
Ġn ew
b ack
th on
si ze
Ġlo g
c ur
: //
st ate
tr y
Ġf ield
k en
for mat
p en
jo in
g n
// //
l l
Ġo bject
g ht
ĊĠĠĠĠĠĠĠĠĠĠĠĠĠĠĠĠĠĠĠĠĠĠĠĠ ĠĠĠĠĠĠĠĠ
P ro
Ġe lif
lo ad
o g
d ing
g roup
U T
Ġcon st
pe ci
Ġw ill
S t
[ "
a pe
E x
op y
Ġu ser
Ġ 5
co m
st art
u ti
Ġs ho
Ġpa th
n ode
str u
Ġp o
field s
ma ge
se d
d a
Ġ[ ]
I C
Ċ ĊĠĠĠĠĠĠĠĠĠĠĠ
" ]
u g
u me
le ment
s o
s ub
mb er
j ect
for m
Ġo ption
Ġh e
at tr
ma x
Ġh as
ĠT his
fi x
Ġ[ ],
w rite
scri ption
w args
' }
ma in
Ġn p
ar g
c reate
1 6
Ġs ys
g ra
ate d
ser ver
ht tp
'] ,
te s
mode ls
in e
N ame
Ġp ass
G et
I D
2 0
c or
ul l
co re
ĠI f
ti al
g th
c ation
Ġ \
i v
Ġ line
b y
on g
w w
j son
t s
er y
Ġs ub
ĠI n
Ġco mp
Ġn ode
n d
Ġver sion
Ġ all
e e
ver sion
cl u
1 3
() )
Ġar g
ri ght
ari able
Ġ- >
vi r
or m
lin k
pec ted
i m
i me
Ġs up
u c
wor d
Ġ le
p i
ar ch
Ġs h
Ġ* *
Ġcl ass
ĊĠĠĠĠĠĠĠĠĠĠĠĠĠĠĠĠĠĠĠĠĠĠĠĠ ĠĠĠĠĠĠĠĠĠĠĠĠĠĠĠĠ
č ĊĠĠĠĠĠĠĠ
Ġ{ }
C h
ar d
w ith
in ter
. """
s ing
Ġa dd
I ON
ar n
i tem
o und
Ġc ol
a il
] .
() ,
che ck
u al
wa re
Ġcon text
Ġstr ing
Ġre quest
un c
o re
m d
D E
ctor y
Ġout put
Ġb u
si gn
li t
ig ht
re quest
val id
S et
Ġsho uld
re am
Ġa c
la ce
R O
in dex
or y
1 5
me mber
con text
0 4
le d
2 2
Ġc heck
r un
'] )
Ġc ur
res ult
C T
Ġh o
č ĊĠĠĠ
ck et
ig n
b ase
V alue
qui red
Ġcon fig
ho st
Ġme thod
v el
lo at
1 8
Ġ !
Ġin t
A dd
re f
w e
c s
re turn
t le
ne ction
3 3
1 4
Ġs peci
Ġ error
m it
ar k
` `
as h
par se
Ġp er
ĉ ĉ
' t
T ER
ar ray
p s
< /
Ġ la
Ġ! =
Ġp y
\ \
o bj
ul ti
2 4
i x
re g
> >
se nt
qu ery
pa ce
** **
a k
E D
' s
v o
Ġv al
K e
t ings
p l
A M
Ġa pp
d jango
3 4
ĊĠĠĠĠĠĠĠĠĠĠĠĠĠĠĠĠĠĠĠĠĠĠĠĠ ĠĠĠ
A S
ro w
net work
u le
mp ty
u se
Ġ /
si ble
temp late
an n
Ġst ate
Ġ url
1 9
6 6
i ch
a uth
mo ve
Ġh ave
I L
re p
Ġo ther
IN G
me ssage
1 7
ma p
Ġres ponse
i te
3 0
r ame
all y
Ġpar am
ma il
F ile
param s
ti tle
k wargs
ro ot
out put
in put
uti ls
Ġ &
u d
re ct
lo b
a v
A B
ter n
st atus
Ġ` `
st a
C H
8 0
Ġ li
Ke y
r c
n ew
U R
a x
Ġb o
Ġuse d
er s
and ler
i ty
y n
Ġ |
Ġco de
Ġ 6
b e
t ra
tr ing
s g
name s
Ġc reate
c lo
Ġis instance
and om
u f
ub lic
Ġme ssage
Ġdi ct
Ġh t
mode l
m an
a ction
Ġin stance
Ġar gs
() .
a ch
5 5
c all
Ġc all
t able
Ġi tem
A P
con st
c lient
ĠA N
č Ċ
P ar
I G
A t
ap i
ff er
Ġr un
len gth
Ġre g
le an
lin es
s ys
a y
8 8
le ct
Ġan y
bu g
Ġy ou
ut o
le te
U L
per ty
clu de
7 7
" ),
I S
stri bu
fi l
l abel
======== ========
Ġn e
I d
Ġ end
ĠE x
EN T
m is
he ader
ation s
sp lit
r an
Ġb ase
type s
p v
0 2
ra p
or g
') )
con tent
fi ed
E n
Ġi d
s k
L ist
Ġ text
Ġ z
Ġ> >>
R es
t ing
Ġm atch
res ponse
Ġ .
Ġw or
( (
U n
ser vice
Ġn umber
Ġ X
Ġv i
Ġb ut
vi ew
Ġwh ich
ft ware
r ans
Ġun der
' \
Ġst art
Ġc opy
ms g
0 3
Ġin put
od y
Ġvalue s
M e
Ġ j
p rint
c re
um n
sion s
Ġs ource
t in
Ċ ĠĠĠĠ
T ime
8 6
v ed
A G
de nt
p ri
D i
ht ml
up le
fa ce
el p
s ource
', '
Ġde scription
5 0
O T
################ ################
Ġt arget
5 6
M ode
Ġ one
ĠT est
stru ctor
T o
do c
' .
f y
or ted
ri al
is ter
t arget
7 4
it s
t ro
sh ape
n ot
or s
8 4
P o
co mm
v ar
C O
Ġwh en
Ġ Q
me n
ise s
U S
b in
e vent
po int
Ġex pected
5 9
pro cess
ti es
Ġdo c
Ġ' ''
Ġcon tain
c ri
Ġma x
L o
M o
2 9
i tial
3 6
.. .
to ken
N U
Ġd ate
Ġmode l
mat ch
op tions
c ate
Ġf a
in al
Ġhe ader
Ġco mmand
3 9
//// ////
ta g
ame ters
ur se
fo o
Add ress
Ġre quired
ĠRe turn
e qual
E X
ti fi
Ġarg ument
ch ange
o o
Ġr ange
ol s
at ure
ĊĠĠĠĠĠĠĠĠ ĠĠĠĠ
AN T
l d
A C
and le
p r
ag er
ĠC on
Ġcur rent
5 4
pa ck
ĠD e
Ġht tp
Ġfor mat
a a
Ġ 7
Ġma y
id th
Ġt ra
er r
Ġon ly
At tribute
D ata
op tion
8 9
op en
ĠG ener
b lock
L O
te ger
Ġm ust
Ġto ken
ir st
ment s
st d
value s
I M
ad ata
3 7
00 0
object s
] [
} ,
---------------- ----------------
co ding
u res
Ġ Y
id s
P E
c ted
bu f
2 7
c y
tr ans
S er
tro l
vir on
file name
Ġm sg
Ġa d
n um
a re
i es
P O
fe ren
re ctory
l an
n er
u mp
Ġin dex
le ction
iv en
S e
bu ild
Ġ1 0
qu en
Ġdi stribu
D o
2 6
lob al
H T
f unc
ta il
Ġch ar
[ :
mo d
A D
add ress
ET TER
R a
Ġfield s
e p
fil ter
co mmand
( _
do w
Ġg ener
ĠL ETTER
Ġoption s
Ġ' \
u a
Ġ up
i code
ch ar
B ase
g ing
C ase
p ass
S tring
ĠO R
la gs
in dow
b s
Ġe vent
i mage
Ġo pen
ww w
ur ation
Ġg roup
Ġo bj
o me
Ġ' %
c r
op s
u id
IT H
Ġname s
py thon
ns or
u int
Ġ --
s or
} )
= [
Ġcon tent
pa ge
Ġch ange
si tion
d f
co py
ĊĠĠĠĠĠĠĠĠ ĠĠĠĠĠ
Ġho st
Ġd b
cor d
clo se
Ġ te
ri c
t ual
Ġ ]
a in
du ct
th e
scri pt
Ġs ize
8 7
'} ),
Ġat tribute
ĠV alue
Ġe xt
ca che
ES S
s te
n p
Ġfile s
Ġa ction
ĠI N
5 7
o f
Ġar ray
f unction
Ch ar
Ġex p
mb da
Ġre ad
i li
ex ten
Ġ' ,
Ġsup er
Ġmo ck
fa il
Ċĉĉ ĉ
ut f
A r
key s
ex ec
0 9
T P
ol ume
f ind
f loat
2 3
x ml
Ġin ter
con n
vo id
D O
Ġp l
Ġd jango
Ġdo es
Mode l
O bject
M P
an y
Ġ server
ĠO F
s pec
ĠW ITH
H E
ĠP y
i on
a th
Ġg iven
Ġf irst
ĠA n
e mpty
I pv
4 4
ann el
F F
st ream
Ġp ack
Ġ update
ĠG NU
Ġc a
ma tion
ĠS ee
M L
Ġ} ,
T R
" .
cri pt
id get
Ġro ot
he re
Ġval id
N ode
ist s
ile d
lic ense
Ġmo re
or der
lo t
f low
st ore
2 8
m ary
č ĊĠĠĠĠĠĠĠĠĠĠĠ
fo re
ĠP ublic
i mple
di tion
ti ty
Ġ J
t adata
ug in
~ ~
Ġ 8
Ġpa rent
B u
ri d
a ke
x y
Ġf ol
ĠGener al
i ter
Ġ( "
U p
b ar
po s
el l
pro ject
re ak
u age
m ark
se arch
ĠValue Error
0 6
Ġmode ls
ith er
ang uage
AL L
Ġi mp
ĊĠĠĠĠĠĠĠĠ ĠĠ
Ġpro vi
ses sion
q l
)) )
0 5
Ġh elp
o te
ot al
pa rent
ES T
file s
ra tion
U N
I P
ĠC o
Ġ 9
iz ed
mo ck
Ġl abel
Ġwor k
Test Case
w er
item s
: `
Ġo p
di t
le ase
s y
set tings
de bug
ch ild
{ '
opy right
C heck
Ex ception
f ter
c md
to col
Ġf il
ol d
y le
gra m
Ġm in
" >
con structor
fi r
ra w
un k
Ġ" \
de vice
pe ct
Re turn
Ġt rans
it test
ch ed
N ot
Ġ K
Ġpar ser
late d
fi c
Ġu id
a st
Ġe lement
ex p
c p
arn ing
orm al
que ue
ĊĠĠĠĠĠĠĠĠĠĠĠĠĠĠĠĠĠĠĠĠĠĠĠĠ ĠĠĠĠĠĠĠ
tin ue
Ġb ack
ĠReturn s
Ġ2 01
I s
Ġv ariable
Ġ q
Ġi mage
3 5
feren ce
2 01
Ġo ver
Ġo per
Ġs y
et a
de lete
o us
cur rent
Ġfile name
Ġp ort
t ask
) ),
Ra ises
Ċ ĠĠ
Ġa uth
yn c
) ]
Ġu sing
Ġfor m
pro perty
en v
lo cal
ĠAN Y
* -
rep lace
ame ter
ĠC ON
0 7
al led
pre fix
on t
i e
Ġwh ile
r ate
s um
Ġt able
F or
de scription
sp lay
C ON
x a
t on
f ault
stru ct
O UT
Ġn et
iz er
assert True
Ġa g
Ġ query
r ange
i b
ma ke
lic ation
m y
Ġdistribu ted
la g
assert Raises
2 00
Ġma ke
n ing
x e
pre sent
o ther
v en
**** ****
co pe
D I
ver t
Ġparam s
Ġ- *-
le vel
able d
f ul
Ġat tr
on ent
Ġt ag
li ed
u i
T ag
c c
Ġor der
T ext
Ġ link
3 8
AT IN
g o
x b
F a
Ġb lock
ĠC opyright
ĠL ATIN
sign ed
6 7
s with
AT E
Ġco mm
o ver
Ġe ither
N o
li sh
ample s
IT Y
ĠU n
for mation
res ource
Ġf ound
AR R
C l
tri b
po st
a le
i ce
pe d
stri p
cl s
Ġin to
Ġex ception
') ])
p op
Ġbu ild
Ġne ed
Ġ' /
lay er
at s
i ve
at ab
f rame
Ġ lib
lic y
as ses
ri ver
6 9
Ġwith out
1 00
F I
Ġf e
ĠA r
Ġe ach
ex ception
ri x
ĠS t
O P
U ser
Ġ2 00
Ġse e
Ġc lient
p lace
at tribute
vir tual
Ġc ase
Ġcon nection
ĠS o
T he
res sion
atab ase
ra ph
n umber
a tive
do wn
2 1
Ġro w
ho w
s up
quen ce
lo cation
ra ct
ĊĠĠĠĠĠĠĠĠ ĠĠĠĠĠĠ
C ol
[ -
og le
Ġn um
v ariable
h as
M A
ub le
ĊĠĠĠĠĠĠĠĠĠĠĠĠĠĠĠĠ ĠĠĠĠĠ
Ġc or
ri es
Ġy ield
bo x
at ing
C L
st all
Ġ template
AM E
sta tic
Ġcon tinue
ili ty
in ed
A c
Ġp ri
x c
Ġch ild
Ċĉĉ ĉĉ
. ,
lan k
Ġ' .
comp ile
Ġw as
o id
ump y
el per
i fi
4 9
la st
7 9
') .
r ary
uc cess
mo te
Ġt uple
Ġmo di
w o
uti l
4 8
ARR ANT
H e
I O
Ġso me
le ss
ĠW ARRANT
tail s
m t
Re quest
Ġ ter
m on
me ta
Ġst atus
ex pected
Con fig
p k
date time
ad min
m al
F A
ust om
g ener
Ġso ftware
P tr
Ġp age
Ġfol low
b ody
Ġ json
ĠPy thon
ĊĠĠĠĠĠĠĠĠĠĠĠĠĠĠĠĠĠĠĠĠĠĠĠĠ Ġ
Ġk wargs
ig h
ut ure
Ġs ame
co urse
if y
Ġal low
i que
i ck
o ff
Ġl ong
c er
ĠY ou
ĊĠĠĠĠĠĠĠĠĠĠĠĠĠĠĠĠ Ġ
Ġlog ging
ver se
w idth
or age
5 8
T Y
Ġ" %
Ġresult s
Ġf loat
P ath
Ġres ource
Ġla st
I tem
T H
u ct
iz ation
e mp
ail able
Ġc md
Ġspeci fied
Ġs ign
Ġ' '
pass word
res h
e lement
con d
Ġb reak
Ġpro cess
x f
0 8
Ġth en
ab s
p atch
arg ument
I B
s ave
ff e
par t
Ġdi rectory
e mail
th ing
V ER
no wn
ub lish
Ġp os
ĊĠĠĠĠĠĠĠĠĠĠĠĠĠĠĠĠ ĠĠĠĠ
ulti p
re q
per ties
par ser
at ures
C E
us h
con nection
t rue
se n
" ))
ĠF or
Ċ ĠĠĠĠĠĠ
che ma
at form
Ġ[ "
on ly
ne xt
g in
ĠP ro
Ġbo ol
Ġ ],
t op
Ġd type
Ġde st
Ġdi s
lo c
se rial
ĠW e
ge x
at tern
ch o
con f
5 3
7 6
c f
re move
U P
Ġ qu
ac count
B y
Ġreturn ed
er sion
tern al
Ġreg ister
en code
Ġre t
a ti
St ate
Char Field
no w
C all
Ġde l
r ule
N S
E lement
Ġpro ject
Ġm an
bo se
ca le
u ch
header s
ĠM o
ĠEx ception
Ġset tings
w h
Ġt ask
ab ric
i as
X X
Ġdate time
i o
si te
4 0
ol der
Ġa x
Ġex ten
Ġn ext
] :
Ġ err
de o
Ġex ec
u k
c an
UL T
sys tem
P ack
( *
Ġy our
or d
O L
O ut
si t
Ġex ist
Ċ ĊĠĠĠĠĠĠĠĠĠĠĠĠĠĠĠ
Ġpar t
f n
Ġr andom
ate g
qui re
ction ary
ri de
bo ol
Ġv oid
Ġpar se
di s
P I
h andler
u tion
Ġw rite
V i
do main
ul ar
Ġdoc ument
Ġlo cal
. "
s rc
vi sion
( ?
in k
t d
ĠH T
fir st
- \
no re
c le
ĊĠĠĠĠ ĊĠĠĠ
ĠP ar
Ġa b
'] .
ex it
Di ct
read y
g en
test s
la tion
Ġpro gram
po ol
e ar
Ġn on
Ġin fo
AR T
F T
me tadata
p orted
s a
ti l
ok up
ig inal
b it
op er
ĠI S
n g
t x
Ġs p
di rect
h ash
se nd
conn ect
mis sion
': '
L og
de l
B o
6 0
ĠT O
der r
Me ssage
S S
IL ITY
Ġsh ape
Ġr ule
st ack
Ġlo ad
0000 00
Ġ{ "
Ċ ĊĊĠĠĠ
ĠSo ftware
Ġ ),
d type
v es
i ces
t ree
si s
ĠS M
di a
) ):
In fo
tain er
z er
(' /
'' '
Ġle vel
7 5
Q U
Ġtest s
EN S
Ġc ho
N s
y p
Ġsup port
tic le
Ġse s
pa che
Ġw ri
Ġo ld
as ter
x x
en try
Ġde vice
comm on
p c
rap per
Ġobject s
Ġ ...
3 1
ce iv
Ġa v
Res ponse
Ġco unt
Ġadd ress
en viron
Co mp
um ns
E vent
n ull
ĠT HE
Ġhe re
ant s
f er
Ġli mit
low er
ĠAN D
ro und
N AME
f s
" ):
Ġst d
ate s
` .
T ra
Ġg lobal
6 5
method s
mp l
7 8
Ġthe re
Ġm ark
us ter
25 5
S ize
" ],
f l
Ġpy thon
set s
ur i
Ġin clude
Ġheader s
Ġb ody
", "
m i
Ġ> =
st op
jo b
4 2
Ġa fter
col or
Ġs k
Ġpre fix
4 5
Ġw here
Ġen try
pen den
sta mp
] ]
de v
K E
Ġ lines
Co unt
Ġte nsor
P re
G roup
r andom
f in
col umn
M an
license s
ing le
6 8
Ġext ra
re lated
b b
Ġf ind
Ġo pt
f lags
Ġc lo
Ġ service
ĠG et
Ġargument s
ĠF OR
Ġ' -
x d
Ġit s
wa it
Ġ temp
ĠSM ALL
Ġpo int
Mo dule
ĊĠĠĠĠĠĠĠĠĠĠĠĠĠĠĠĠĠĠĠĠĠĠĠĠĠĠĠĠĠĠĠĠĠĠĠĠĠĠĠĠ ĠĠĠĠĠĠĠĠ
v ate
A ll
s how
4 7
t xt
Ġfil ter
Ġ ge
h a
st yle
ĊĠĠĠĠĠĠĠĠĠĠĠĠĠĠĠĠ ĠĠĠĠĠĠ
Q u
N et
ex ists
by tes
ĠWITH OUT
se lect
Ġla mbda
Ġf ail
De vice
a ct
Ġses sion
Ġ right
EX T
Ġth an
we b
Ġof f
U B
re quired
pack age
Ġde tails
Ġa ct
is h
al s
ect or
s l
f uture
Ġco m
auth or
et ch
ra g
si de
ut ton
start swith
//////// ////////
Ġma in
A l
Type Id
ction s
'] ['
Ġth read
{ }
den tifi
b a
R L
Ġcon n
ci mal
change d
ĊĠĠĠĠĠĠĠĠĠĠĠĠĠĠĠĠĠĠĠĠĠĠĠĠ ĠĠ
v olume
ceiv ed
ate r
Cl ass
C reate
node s
ĠS et
= %
ĊĠĠĠĠĠĠĠĠĠĠĠĠĠĠĠĠĠĠĠĠĠĠĠĠ ĠĠĠĠ
Ġi mple
AB ILITY
V E
C K
ĠT ype
c en
Ġimp lied
b lank
Ġspeci fic
ight s
da y
D ate
T O
as ic
Ġlog ger
H andler
================ ================
Ġpack age
'] ],
9 8
user name
al og
Ġca che
Ġ title
F rom
men ted
ser ved
4 6
Ġf in
http s
Ġin itial
gra ph
pro duct
ĊĠĠĠĠĠĠĠĠĠĠĠĠĠĠĠĠĠĠĠĠĠĠĠĠĠĠĠĠĠĠĠĠ ĠĠĠ
Ġst ream
u x
Ġm at
a uto
Ġget attr
Ġb in
AT ION
Ġbe fore
m ory
u uid
ome try
9 7
o w
Ġf unc
G L
al id
di st
Ġ' _
Ġvi ew
k er
pp ing
R un
5 2
ultip le
Ġen v
Ġpass word
Ġin di
I ES
Ġc r
P L
me r
p ol
Ġ $
Ġ ..
In ter
, '
exec ute
AP IT
') ],
time out
m ask
Ġreturn s
D es
w it
to ols
Ġ' __
f d
Ġerror s
ver y
] ))
Ġhas h
Ġco urse
de p
error s
'] :
un signed
Ġfollow ing
e val
s pace
OR T
as si
Ġen coding
u ter
P RO
APIT AL
Ġdi r
o c
h andle
ĠC APITAL
ex cept
ĊĊ ĠĠĠĠĠ
us r
n ap
Pack et
g r
Ġin formation
Ġre q
UR L
result s
Ġt rue
arn ings
re c
mis sions
Ġh andle
9 6
Ġlen gth
Ġsys tem
P er
Ġst a
Ġ Key
Ġg o
Ġn umpy
g g
Ġo b
Ġl anguage
w ise
ro p
Ġa uto
Ġf ull
8 5
Ġtime out
AB LE
A A
c ase
Ġal so
O ption
Ġ& ',
L e
r on
M O
ĠC heck
v m
R A
man ager
S h
o st
Ġma p
F OR
S ub
( {
Ġdi ctionary
in clude
Ġ' <
U M
co der
de st
th read
= (
ĠF ound
add r
Ġde p
group s
ĠAn sible
i de
De fault
. ')
ĊĠĠĠĠĠĠĠĠ ĊĠĠĠĠĠĠĠ
Ġun icode
'} ,
ac tive
Ġal ready
č ĊĠĠĠĠĠĠĠĠĠĠĠĠĠĠĠ
ch annel
r t
ore ign
reg ister
du ce
w in
ĠS tring
(' \
Ġhas attr
im um
9 0
mb ol
i al
Ġ< =
He ader
u ite
_ (
Ġ% (
as on
s cope
de code
ca use
ic al
z one
TY PE
A pp
% (
Ġa ss
] ['
set up
ĠA dd
Ġ" _
h er
co mple
] ),
la mbda
. ")
k w
C P
Ġstr uct
ter ator
Par ser
mo unt
Ġpar ameters
ci es
dition al
8 2
In teger
V ariable
pro to
le t
ter min
Ġi g
Ġin st
S I
li mit
Ġf abric
Re f
-- -
7 0
S o
L IC
c ap
Ġs ample
A d
9 4
Ġprovi ded
N O
] ],
T h
std out
9 5
du mp
IG HT
Ġu s
p lay
ac cess
L I
Ġf l
Ġv ar
c li
n el
ĊĊ ĉ
Ġpar ameter
al y
Ġe mpty
in itial
g ine
Ġnet work
a f
in i
P y
) ;
Ġ ,
A n
ex ample
ĠN ame
FA ULT
ĠFound ation
con ds
pl ugin
AT A
A uth
sk ip
Ġpo st
Ġchar ac
s v
S tr
Ġe ven
Ġoption al
6 3
8 3
as sed
] +
ol ute
Ġre cord
P AT
Ġcreate d
Call back
p lot
E M
Con tent
Ġse arch
Ġbe en
) [
Ġdo main
In dex
Ġso cket
c d
. *
Ġ utf
t mp
bu ffer
) /
Ġa p
Ġd on
bo ok
t k
ION S
Ġt f
Con text
( -
con trol
Vi ew
Ġx ml
ĠN OT
con trib
Ġre move
ĠI t
ĠC reate
off set
ex c
te p
: %
Ġco ding
mo st
Ġa bs
Ġto p
Ġdi ffe
Ġc alled
e f
un ittest
rep r
Ġp ublish
Ġsho w
assertEqual s
HT TP
Ġmodi fy
). __
ĊĠĠĠĠĠĠĠĠĠĠĠĠĠĠĠĠĠĠĠĠĠĠĠĠ ĠĠĠĠĠ
pro file
ator s
a it
T his
lin en
en sor
O M
Ġcomm on
Fa ctory
; ":
ca st
4 3
Ġav ailable
di o
> <
T EST
ro ll
~~ ~~
ok ie
A s
Ġli ke
h y
ĠN ot
ĠA t
) "
Ġcol umn
AG E
ext ra
Ġi ds
Ġco mple
sh ot
ok en
Ġf ree
Ġf rame
e b
Ġdi st
ĠF ree
D is
E L
exten d
B U
a red
EN SE
ĠC h
le cted
ĠU RL
Check er
pro t
Ġter ms
wa ys
Ġc re
Ġs cript
uf fix
. ',
S ource
tra in
C R
c b
Ġun ittest
7 3
ste p
7 2
) \
':' *
6 2
Ġs ingle
ER R
ĠI D
dentifi er
en tic
, -
Res ult
Ġby tes
Out put
F orm
in ce
el se
Ġ' --
Ġt wo
D B
ĠA ll
b atch
IN T
Ġre n
le s
d river
ĠU ser
b ot
t ab
Ġex ample
( \
g or
Ġ1 00
ph a
l ong
C lient
O r
t otal
se ction
Ġac cess
Test s
Ġb et
ct s
cl asses
Ġconfig uration
log ger
ĠĠĠĠĠĠĠĠĠĠĠĠĠĠĠĠ ĠĠĠĠĠĠĠĠĠĠĠĠĠĠĠĠ
and ard
di splay
pre ss
5 1
Ġs a
ic s
Ġvariable s
G ET
Ġw ant
Ġdi splay
W AR
Ġchange d
n on
b ility
var s
Ġkey s
: ]
ti m
Ġsta tic
en coding
Ġre present
vi ous
Ġlo cation
Q L
Ġl ater
u sed
bin ary
Ġj ust
viron ment
8 1
DI R
ti ls
I mple
li ke
( ['
f ull
f c
oreign Key
Ġ Z
= ['
s peci
9 2
Man ager
t uple
Ġh andler
Ġattribute s
re cord
Ġ --------
vi der
te ra
id d
ma c
arg v
Ġbe cause
/ >
he ad
Ġse rial
Ġu int
Ġre f
w d
l ing
id x
Ġra w
W ith
g lobal
Re g
ta gs
wn er
ys tem
Ġm y
ĠWARRANT IES
M ap
Ġa pi
Ġt ree
fa ke
v a
op t
Ġtype s
Ġcontain ing
Ġuse ful
emp late
čĊ čĊĠĠĠ
attribute s
čĊ č
Ġthe y
Ġitem s
Ġt a
u ff
ĠL o
6 1
Ġn ull
log in
ĠAr gs
c ul
N ESS
Ġp assed
CON F
ST R
Ġg ra
idd le
4 1
de red
Ġs rc
la tive
un icode
re al
i str
Ġre ceived
le ft
UL AR
m ulti
ta ch
c ent
si tive
M US
le x
so cket
Ġac count
do uble
re port
p id
ran ch
z ip
ĊĠĠĠĠĠĠĠĠĠĠĠĠĠĠĠĠĠĠĠĠĠĠĠĠ ĠĠĠĠĠĠ
h en
Ġs um
s ql
te red
Ġin teger
S imple
'} )
ĠN o
ax is
KE Y
ĠF IT
Ġres p
ug h
MUS G
st derr
C ode
he ther
ER CH
Ser ver
################################ ################################
ERCH ANT
c lean
S H
E nd
ĠP ART
PO SE
di ff
Ġs pec
Ġd atabase
if t
L ine
Ġe mail
ment ation
Ġ[ ])
M S
Ġi pv
g it
to m
inter face
Ġthe m
ste ad
go ogle
di v
ut able
module s
ĠFIT NESS
Co mmand
nt ax
Ġ" "
AC K
lic it
call back
ĠP UR
il der
Ġde bug
po sition
del ta
ĠPUR POSE
ge d
IC ULAR
a ded
o ci
Ġf alse
ĠPART ICULAR
wit ch
nap shot
ĠM ERCHANT
__ ,
Ġno w
" ])
v s
A CT
P R
L ay
O S
Ġ' ',
script or
Ġinter face
9 3
we en
Ġt otal
ENS MUSG
t f
co un
F oreignKey
w i
Ġax is
L en
ĠI mport
Ġde lete
pro perties
ĠHT TP
sp ort
/ %
c ry
in sert
St art
F rame
Ġmethod s
s ort
ĠType Error
comp onent
) '
ra int
li ce
w ar
IN D
te nsor
Ġex c
i mp
Ġin stead
Ser vice
k nown
G ener
st ats
# !
stri bute
Ġcol or
in stall
St ream
ĠMERCHANT ABILITY
Ġ1 2
child ren
p u
g ate
ĠO ption
par ameters
Ġal ong
= {
op ts
Ġdoes n
po licy
di tions
Ġ2 0
ent ries
Ġ< /
in ation
ĠD E
ĠIn c
Ġattr s
******** ********
u ally
fi t
Ġs uccess
F L
Ġdo wn
end s
V AL
Ġ1 6
Ġset up
re lease
pl atform
ti fy
ĠS e
de sc
lo y
s ure
le ctor
Ġc al
pre c
I nt
re t
Ġcor rect
IG N
'] [
Bu ffer
fe atures
wor ds
ĠM e
B lock
C S
) ',
T rans
ro ugh
un ique
N umber
> \
ge st
indow s
in valid
W idget
ĠTO DO
ol ve
PAT H
Ġm is
In put
Con nection
ĠA PI
pri mary
- %
Ġt ri
> </
un it
ab c
7 1
end ing
attr s
di stribu
F O
C C
w ard
ĠĠĠĠĠĠĠĠ ĠĠĠĠ
Ġcol lection
Ġs ure
den tial
s m
ĠO pen
Ġtra ce
dir s
A uto
Ġcall back
ann ot
ad ded
Ġver bose
Ġan sible
Ġwe b
T able
In stance
n ormal
wa y
o lean
d ot
ol ution
ke ep
s ample
ase s
Ġ> ',
S ER
Ġcon trol
Ġ% }
o se
y load
el lo
Ġs ave
D S
i od
Ġoff set
comp ute
T oken
Ġpublish ed
o b
M eta
Ġexten sion
p b
g ress
Ġpro duct
se e
Ġnames pace
Ġstr ings
A ction
g t
Re ad
O n
s ue
al low
) *
com ment
for ms
Ġbu ffer
me tri
t tp
Ġre place
se c
j a
b r
Ġtensor flow
99 99
ren der
qui res
Qu ery
assert False
Ġdef ined
Ġnode s
Ġn ormal
Ġs orted
Ġob tain
Ġme tadata
In valid
Ġf lags
ĊĠĠĠĠĠĠĠĠĠĠĠĠĠĠĠĠĠĠĠĠĠĠĠĠĠĠĠĠĠĠĠĠ Ġ
istr y
b row
b l
Ġsk ip
w s
he ight
P age
Ġcho ices
cur ity
Ġ" /
Ġin clu
A nd
names pace
U D
ĠR un
Ġg raph
w idget
W rite
ti tion
( {'
Ġre al
ol y
ure d
9 1
C A
Ġ ti
#! /
label s
pro xy
C lo
ile r
H ER
Ġor iginal
Ġre di
Ġpo sition
Mo ck
de s
st orage
Ġbin ary
p ublic
Ġc er
H ash
Ġbet ween
ĠAt tribute
linen o
V ersion
sc ale
Ġm on
ĠL O
Ġfa iled
Ġfunction s
Po int
Ġpro perty
! !
tic al
tr an
bo ve
ue ue
H O
ĠN ote
assert Is
Ġ2 8
Ġ ):
exten sion
penden cies
es ca
Ġdiffe rent
ĠV ersion
A Y
__ )
s ted
cp u
sh ip
ĠWARRANT Y
S ON
re en
() [
col umns
_ ,
c at
nt ry
Bu ild
ble m
Ġexist ing
point s
tra ce
re po
Ġz ip
Ġuser name
Ġf lag
Ġa bove
Return s
ateg ory
" \
b ind
j s
Ġst ack
Ġs imple
a e
Pro cess
s amples
ari es
ve lo
lo ader
Ġoper ation
Ġw ar
s core
valid ate
Ġma th
I terator
Ġme ta
") .
cate g
DE FAULT
er o
ct ype
p attern
fi cation
O F
Ġv olume
Ġse quence
: \
F unction
Ġact ual
Ġ" '
ub e
Ġch annel
tifi cate
li p
Ġpre sent
re l
For mat
dir name
Ġw idth
I mage
Ġi p
( __
Ġse ction
ĊĠĠĠĠĠĠĠĠĠĠĠĠĠĠĠĠĠĠĠĠĠĠĠĠĠĠĠĠĠĠĠĠ ĠĠ
Ġi ter
IM E
FOR M
ex pr
Ġdis able
di m
si ve
Ġse cond
ERR OR
Ġad ded
M ac
Do wn
Value Error
Ġht ml
con tainer
s q
h elp
il ter
an k
serial ize
message s
O per
cal led
{ %
Ġper missions
Ġfor ce
ck er
il y
ĠI P
Ġpack et
oo lean
O f
ĠCo mp
Ġthe se
O K
ro le
ix ed
Pro tocol
ĠĠĠĠĠĠĠĠ ĠĠĠ
Ġse lect
F e
ĊĠĠĠĠĠĠĠĠĠĠĠĠĠĠĠĠĠĠĠĠĠĠĠĠĠĠĠĠĠĠĠĠ ĠĠĠĠĠĠĠ
Ġex ists
me d
Ġse nd
to ol
ma th
V alid
Ġi m
Ġlib rary
ĠP er
Ġal ways
gor ith
Ġlabel s
Ġm ulti
ĠImport Error
il tin
iddle ware
Bo x
ci ty
ĠP O
M M
Ġp atch
S ta
ĠB ase
doc ument
qu ote
id den
le ted
(' -
Ġm ask
Ġst yle
Ġc lean
h i
Ġapp lic
Ch ild
mo ved
Ġ[ [
Imple mented
T EXT
cle ar
h elper
ver age
Ġc ustom
r s
") ;
g ument
Ġw ait
y ear
sa fe
c m
ĠD O
sc ape
" }
ĠS O
(' %
mb ed
lo op
man y
Ġe val
Ġw arnings
Ġcontain s
comm it
ot o
al ias
le ep
ĠR es
S ET
Ġt mp
app lication
Ġgener ate
P ORT
. \
in st
ĠP RO
bo ard
> '
pa ces
` ,
ab ility
Ġb atch
st ract
ĠA uth
Ġset Up
Ser ial
Ġab out
n a
ĠD i
Ġs tep
in dent
me an
IN E
z y
C I
ti ce
ra ises
che me
ĠE X
W N
Ġmat rix
ct x
Ġst op
port s
categ ory
Ġmo d
Ġredi stribute
we ight
ur ls
Ġtra in
fa ctory
Ġlo ok
Ġwri ting
ro id
d t
T E
. '
Ġle ft
= _
Ġcon structor
e ff
mo di
s chema
se q
S D
sh ort
le m
R ES
load s
(" %
C a
in s
u de
w ri
me di
ER S
in di
Ġcon f
di rectory
AP I
l anguage
col lection
Ġp k
AS S
AN G
es ted
FI LE
s ume
n one
ĠU se
Ġ} }
/ ',
av a
Ġho pe
esca pe
in es
Ġabs olute
es sion
mat rix
Pro perty
li ance
ĠD o
den tity
ĠA s
f etch
') ),
re st
ING S
B e
m ul
WAR E
gn u
] *
Ġg over
D ir
{ {
v as
k i
Ġu tils
class method
ĠA pache
Con trol
#### ##
i mat
x ff
R andom
ci sion
Z E
ge s
prec ated
-------------------------------- --------------------------------
si ty
s w
ĠĠĠĠĠĠĠĠ Ġ
R o
Ġ" .
vi deo
Ġ_ ("
Ġm ultiple
Ġwar ran
F ound
] ',
__ ':
St atus
Ġfin ally
ĠE n
Ġig nore
Ġta gs
action s
d c
ra ise
Ġcom ment
Ġcon ditions
AN D
E CT
e dit
Ġ( (
L ink
00 01
De le
Ġ[ (
Ġpl ugin
Ġme mber
Ġen ume
Tra ce
Ġch unk
V ector
bo und
variable s
So cket
Ġen code
ro ss
Ġw hether
L icense
val s
Ġfe ature
Ġwarran ty
p ng
Ġen vironment
Attribute Value
Ġse n
di ent
l int
= {'
dential s
tifi cation
( **
Ġp ick
or iginal
input s
r and
Y R
Ġ' #
Do c
w arning
en abled
u dent
Ġcommand s
Ġmessage s
V er
RO M
Ġre po
Type s
ver bose
ĠF ile
a u
ist ory
Ġre ference
pro tocol
IN TER
Ġbe ing
ho ok
Ġstd out
b utton
ix in
Ġren der
ĠDe fault
st at
Ġsup ported
tem s
re gex
Ġs ix
a pache
ĠL I
la v
P l
ĠS er
ĊĠĠĠĠĠĠĠĠĠĠĠĠĠĠĠĠĠĠĠĠĠĠĠĠĠĠĠĠĠĠĠĠĠĠĠĠĠĠĠĠ ĠĠĠĠĠĠĠĠĠĠĠĠĠĠĠĠ
ĠC ol
Ġge ometry
s uccess
Ġcon ver
cor ds
row s
OR D
user s
ol ver
Q ueue
oper ator
Ġpath s
m k
us age
ĠNot Implemented
Me thod
C ur
; \
fi er
RA W
w rap
LE CT
b c
w indow
Ġre verse
US ER
Ġun ique
en gine
con vert
Ġcomp onent
di sk
cf g
r f
re ed
Ġf oo
so le
sent ry
M ulti
Ġdocument ation
UL L
EN D
cre t
Ġp attern
ĠL ist
ho uld
ĠK IND
FL AG
Ġby te
D IT
so me
Ġ job
or ity
Ġc tx
pa ir
ir tual
or ter
Ġar ch
gorith m
path s
fe ed
g h
ro ute
at ter
ĠPar ameters
CO L
ra tions
Ġ} )
Ġfa ke
re mote
M et
ti vi
b d
re r
W arning
Ġre lative
0000 0000
ĠĠĠĠĠĠĠĠ ĠĠ
'] ),
Ġin valid
Ġw o
g rid
res pon
add ing
st o
Ġg en
Ġm ig
c la
f older
T ree
Ġbo th
Ac cess
) ])
Ġre mote
Ġst ore
h s
ance l
Ġrun ning
v ing
ma tic
tain s
Ġ" -
' re
Ġp i
= ',
g round
Ġd f
Ġcur sor
Col or
Ġenume rate
P UT
Ġclo se
g l
Ġre port
pro vider
I f
exception s
Ġin stall
Ġsub process
l ang
re set
th is
ĠR a
ĠLicense d
Ar ray
v ari
D ATA
li ght
I X
cur sor
Ġs ql
ic ro
Ġelement s
Ġre p
Ġsp lit
if est
' [
S ystem
Ġopt s
ĠQ t
sy m
Ġor ig
Ġc ap
ĊĠĠĠĠĠĠĠĠĠĠĠĠĠĠĠĠĠĠĠĠĠĠĠĠĠĠĠĠĠĠĠĠ ĠĠĠĠ
ĠG o
ci i
Ġthe ir
U RE
lo okup
f g
] ])
s ten
Date Time
Par am
Ġ" ,
Ġbu f
f alse
Ġcan not
re ction
he et
25 3
MP L
E ntry
p ing
ck s
I R
as ync
Ġapplic able
G R
for ce
Con tainer
create d
ag ent
te x
g y
################################################################ ########
' "
Ġcl asses
LIC ENSE
t z
Ġwo uld
S ION
w arn
Ġ" <
part ner
PO ST
Ġmark er
s d
c ss
([ [
() ),
ac y
Ġ ::
([ ])
[: ,
Ġ' ')
Ġw ho
Integer Field
in ja
ren cy
Ġcon vert
UT H
xt ure
ĠD ata
Ġth rough
M ET
Ch ange
i ases
ĠT o
T ensor
b ad
ith ub
() ))
g reg
Ġun it
vo ice
FT WARE
Ġw idget
le ar
Ġurl lib
und le
P AR
time stamp
B oolean
Ġs ince
Ġv m
const ant
am l
= -
Ġo k
u ation
Ġpos sible
Ġvi deo
si g
Ġwh at
ur ing
age ment
cre ment
Ġpro tocol
LO G
Ġbase d
Ġag ain
se quence
F C
p g
Par se
our se
Ġpo ol
c ing
Ġe very
pa re
m ig
V IC
) ",
t ten
cl uster
Ġst o
ĠO n
Ġass oci
Ġdistribu tion
H elper
Ġgener ated
12 7
ri tems
ap ter
Inter face
Ġb ound
feren ces
Ġmo ve
Ġsh ort
ord in
Ġex press
AC E
Ġ ----
ĠM ake
it or
Ġexp ression
P C
Ġh and
Ġ queue
ce ll
ee ded
Res ource
ut or
Ġe st
Ġdi ff
ĠG L
ume ric
sp an
f p
ĠKey Error
25 6
ĠW hen
ĊĠĠĠĠĠĠĠĠĠĠĠĠĠĠĠĠĠĠĠĠĠĠĠĠĠĠĠĠĠĠĠĠ ĠĠĠĠĠ
Ġinput s
F ilter
cript or
X ML
M any
ĠHT ML
end swith
Ġauth or
he x
en able
Ġ1 1
Ġpre vious
Ġs ort
ĠA R
Ġo ur
Ġ layer
Ġ-------- --
, )
Ġst ri
Ġcontent s
Up date
Ġme r
č Ċĉ
le g
A SE
Ref Count
( %
Ġs uch
t c
assert In
OR S
Ġ1 5
MA X
Net Device
si mple
Ġlo c
T emplate
e q
g ger
RE CT
ĠSO FTWARE
fa ces
ho me
Ġrequest s
Ġpro to
> ',
Ġvalid ate
Ġcontain er
ĠT H
Ġdi rect
ss l
Ġ3 0
po se
de scriptor
la in
cen ter
en ter
c ustom
s pa
Ġcharac ters
f lag
rag ment
ĠA S
ĠB AS
l t
li m
Ġv ari
Ġset ting
url lib
Ġs cope
ex port
up per
Ġcomp liance
or ig
m aster
ĠCon fig
Ġre lated
dump s
gener ate
D F
Simple RefCount
B O
ĠUn less
P RE
ched u
Ġ license
Ġhttp s
. %
si x
DIT IONS
view s
Ġpa ir
zer os
event s
d n
v ation
Ġla w
def ined
block s
Ġ_ ('
Ġdo uble
Ġ join
Ġf inal
Ġ[ ('
Ġag reed
Ġpar ts
Ġmis sing
S y
Ġin it
ig nore
"] .
S O
pri vate
Ġlimit ations
Ġgover ning
entic ation
ĠBAS IS
par ts
G e
f ont
Ġse par
clo ud
ĠCON DITIONS
U E
12 8
inter val
se p
lav or
Ġp h
ve ctor
Ġid x
fo und
Ġno tice
G ui
lay out
Des criptor
d ar
ch ine
W S
D ES
Ġcopy right
down load
P T
Auto Field
ĠAttribute Error
+ +
I E
W ifi
e lif
BU G
Ġ keep
Ġpl atform
Ġover ride
re w
ffer o
ĠA ffero
ĠS T
P ort
M B
mb ols
Q t
re quire
h older
ST AT
W indow
ak es
tivi ty
P a
Ġd one
L L
B utton
Ġs c
b i
Ġ> >
Ġe d
M ixin
Ġp lace
fil ters
res ses
ip v
Ġspeci fy
lo ss
Ġother wise
12 34
Ġf n
b asic
Ġap pro
IP T
host name
Ġlo okup
Dele ter
fe ature
' ^
rule s
M ax
ar ge
up lic
b f
pe ed
E G
l ass
ini tion
ĠP o
Ġ1 4
Fa iled
//////////////// ////////////////
ĠO S
__ .
Ġpy lint
ute s
Ġoper ator
Ġapp lication
ĠNotImplemented Error
, \
r pc
Ġs chema
Ġdefault s
Ġf p
i ver
CL UD
Ġco uld
a fter
L abel
is o
penden cy
Ġwor d
Ġdi sc
Ġkey word
sp atch
Ġex pect
Ġin dent
Ġname d
u ted
Ġcl uster
al most
ĠO r
O ne
Ġme tri
P ER
ee k
ch ain
in teger
Ġallow ed
CR IPT
DE L
Ġcor respon
Ġcol umns
ish ed
Ġo c
Ġn eeded
00 1
co me
Ġo ps
indi ces
im g
i tes
S A
ctor ies
UT E
Ġre quire
> "
po inter
Ġlo op
88 59
Ġ3 2
Ġdi men
a z
option al
ro t
ta ct
Ġp id
Ġchange s
SI ZE
Ġr v
ne ss
Ġs im
cho ices
ten ant
fi ci
an ti
=' ',
en tity
d one
' ",
r l
O pen
um b
CH E
lib rary
12 3
res p
p an
Ġex it
lay ers
Ġ( %
) ],
M ENT
zer o
Ġ" --
ĊĊ Ċ
av ed
content s
output s
ĠB O
Ex ten
Ġs m
_ .
CLUD ING
inter n
n n
IM IT
T arget
Ġh ref
ces sed
yn am
ĠS H
men u
I mpl
Ġe q
one s
ĠT ext
Ġw ay
as cii
mon th
se curity
re ference
LO CK
ĠMo ck
Ġpl t
g ative
Ġma c
r type
time s
ĠO TH
ch unk
\ .
AR Y
l at
command s
ener p
Ġb ar
link s
D R
un ct
ä ¸
Ġmatch es
Ġevent s
Ġk er
s parse
Net work
resource s
over ride
ĠGo ogle
Ġde sc
n an
W rapper
li ter
Ġf i
Ġ" __
čĊ čĊĠĠĠĠĠĠĠ
(' --
e a
ha vi
Log ger
f ree
ĠCON TR
default s
Ġright s
ĠQ gs
P Y
o wner
$ ',
Ġtoken s
s uffix
Ġse ss
ĠF ROM
n umpy
cre en
par ticle
ĠĠĠĠĠĠĠĠ ĠĠĠĠĠĠĠ
se cond
w here
fi ll
IT E
vent ory
Ġre tri
mit ted
imat or
Ġgener ator
d at
re verse
Ġme mory
ĊĠĠĠĠĠĠĠĠĠĠĠĠĠĠĠĠĠĠĠĠĠĠĠĠĠĠĠĠĠĠĠĠ ĠĠĠĠĠĠ
resh old
s leep
Ġus age
ĠA d
Ġd t
Ġwith in
Ġuse s
no red
Ġma pping
P S
IN FO
Ġ Error
me mory
gra de
Ġpro perties
ĠM A
se conds
ex ist
Ġconst ant
Ġspeci al
[: -
cor rect
me dia
\ '
py test
Ġw indow
Ġfor ms
" '
r p
`` .
te cted
M atch
ĠA l
ĠA c
Ġinstance s
V ENT
S ession
mark er
do cs
E C
token s
Ca che
(" \
Type Error
Ġst derr
pk g
om ment
Ġuser s
pe line
z z
Ġst andard
Ġupdate d
vir t
ra m
Ġcharac ter
Ġp ublic
Ġimple mentation
so ft
U SE
co ls
Ġre ason
Ġe qual
ang le
ti o
ser tion
C ho
al t
M E
W or
um my
que sted
Th read
on s
Ġco un
Col umn
Ġt ran
Ġpro xy
al pha
, ),
Pre fix
av ailable
image s
Ġcomp ute
Ġs pace
cer t
igh b
N OT
a mount
do m
n orm
Ġfe atures
co res
pi ck
-------- ----
Ġ[' _
her it
Ġcall able
sign al
M in
Ġde termin
Ġre lease
N ew
lo aded
si bility
Ġpar sed
ar s
DateTime Field
Ġc ategory
ynam ic
S Y
ar is
ne cted
Ġw in
lo ur
######################################################################## ######
ach ed
st ant
le arn
back end
Ġassoci ated
brow se
Ġp op
Ġme an
i a
Ġpo licy
i fied
E mpty
ĊĠĠĠĠĠĠĠĠĠĠĠĠĠĠĠĠĠĠĠĠĠĠĠĠĠĠĠĠĠĠĠĠĠĠĠĠĠĠĠĠ ĠĠĠ
ist ration
Ġpoint s
sup er
pro c
w ifi
Ġpre di
ate rial
Ġpro file
d atabase
Ġre direct
bu cket
Ġle t
B ack
Ġfil ters
un ded
Ġin te
inter net
Ġr c
Ġb it
bo ot
state s
pro p
Ġad min
, "
Un it
Ġre served
Ġt r
Ġro le
stru ction
Ġto ol
static method
dep th
Ġoutput s
+ '
ite ritems
Option s
Attribute Checker
Len gth
intern al
ti tem
ĠV alid
ĠC OP
ĠT h
I F
ut ing
VER SION
Ġdi vision
Ġsign al
Ġmodule s
Ġrule s
S QL
un ch
Ġse conds
ĠA pp
comp any
P ri
Ġgroup s
g ment
lo ts
Ġfe ed
Ġho w
Ġpy test
ma pping
Ġac cept
ran k
Ġan other
O O
RE E
N e
ĠX ML
, ))
by te
g le
quest ion
Ġen tity
ĠRe g
Ad min
al le
T ask
Ġs cale
( ('
__ __
ĠT ime
Ġ ])
[ ^
Ġhe ight
ĠLO G
Co re
Ġto o
Py thon
gener ator
d rop
Ġlog in
x n
Ġre pr
cri ption
ĠM an
assert All
G raph
cl ar
Ġh igh
source s
sum mary
component s
ra ys
ren ce
ug c
fa cts
Le vel
f b
t ty
g ments
ĠE N
di c
F ail
Ġrow s
ĠH ttp
R ule
] ):
By te
S L
stri ct
O p
se cs
(' <
assert Not
Ġac tive
la p
Default Deleter
Clo se
. ",
mis sing
g its
ĠS ub
Ġlo ck
Not Found
Ġre l
n b
Ġe scape
Ġhe ad
F E
u ate
Ġad ditional
Ġde code
Ġg ot
e ve
trans form
p tr
G E
Ex p
Ġ entries
no te
Ġtarget s
ĠM ode
cs v
as is
/> .
L ib
f r
ro uter
Ġb lank
am ma
Ġz ero
Ġc fg
name d
chedu ler
ati ble
cli ck
Ġdata set
Ġmo st
p ublish
b reak
comple te
r ong
i con
Ġd river
ver ify
sing le
UB LE
frame work
Pro xy
T IME
ĠL og
reg ion
Po licy
rap pe
SE LECT
sc al
def ine
Ġback end
S ec
Ġdi sk
test ing
Ġvi a
ĠU SE
se cret
Ġ 64
sup port
Ġmatch ing
an sible
da ys
Ġp e
Ġst orage
y es
Ġreg ion
am ily
Ġre moved
fa ctor
config uration
war ds
M IN
j ust
log ging
Ġneed s
Ġf ont
ĠN umber
s n
ĠOption al
ge ther
mp y
E dit
ĠĠĠĠĠĠĠĠ ĠĠĠĠĠ
po ch
up load
sit ory
: '
Pro ject
Lay out
Ġen able
FLAG S
at ten
Ġk w
Ġ' $
Ġinst alled
Ġen sure
Ġs uffix
tra ck
ĠB u
p ure
Random Variable
R ange
Ġauto matic
r q
Or der
/ '
Ġs ite
Ġse nt
__ ()
Ġwe ights
Re ference
Str uct
ti st
ra ft
can vas
abs path
Ġw rap
~~~~ ~~~~
ĠN O
argument s
ad o
ĠN ode
Ġme ans
( """
(" /
ON E
al k
cul ate
Ġde v
re direct
I AL
mp t
Ġen um
ĠD RAW
Ġb ad
ro s
atter ns
Ġ1 3
target s
ĠBO X
ro ad
ĠJ SON
il t
S to
app s
ĠB y
fa iled
Ġc op
os v
Ġcall s
S V
be fore
c v
Ġ' [
ro y
base name
C opy
ĠDRAW INGS
Ġst ats
FORM AT
du ction
re ctories
Ġcomple te
pri ce
Ġapp ly
ker nel
.. ..
' d
| '
Ex ec
_ )
Ġchild ren
distribu tion
} }
urn al
ĠRe quest
Ġ- =
Ġ5 0
fer red
p n
en um
Ġconn ect
as ure
ĠU p
a ctor
at tach
so ck
Ċ ĊĠĠĠĠĠĠĠĠĠĠĠĠĠĠĠĠĠĠĠ
r b
ur al
Ġg yp
Ġoc cur
ext ract
log y
. )
S up
\ "
M ask
Ġw rapper
ar ted
b ranch
(? :
sh ift
de tails
Ġtra ck
* .
Ġwe re
or ary
Ġver ify
ser ve
sup ported
bo olean
si d
Ġpro b
task s
pa yload
an aly
Ġindi ces
) (
v ol
g a
Ġse lected
Ġal pha
w rapper
Ġi tera
en ce
U ID
as sign
Ġc ell
v id
Ġper mission
Ġtime stamp
ĠS IGN
Ġper son
ĠOTH ER
s napshot
I SE
me m
we ights
ĠR E
g ithub
mb o
Ġsy mbol
`` ,
h ello
ca ched
_ %
Ġsign ature
Ġis sue
Met adata
E xt
g ame
Ġal ias
Ġout file
Ġx range
Ġ ))
} \
ou gh
Ġo prot
pol y
n u
f inal
ĠM y
App lication
č ĊĠĠĠĠĠĠĠĠĠĠĠĠĠĠĠĠĠĠĠ
__ .__
ĊĠĠĠĠĠĠĠĠĠĠĠĠĠĠĠĠĠĠĠĠĠĠĠĠĠĠĠĠĠĠĠĠĠĠĠĠĠĠĠĠ Ġ
Ġraise d
on y
'] ]],
t t
Ġu til
mo ves
H ost
1 01
Ġa wait
medi ate
HT ML
Ġ{} )
s ync
sh a
ĠI MP
Co mm
ex ternal
Ġpre v
re pe
Ġp lot
g b
Ġsup p
Boolean Field
f mt
LI ST
P ass
b al
Ġm any
Ġt ar
Ġex pr
T L
() ):
d r
En um
'] ))
Ġin ternal
Ġfol der
Sta ck
sub net
Ġre st
ti ties
ĠL IC
Ġwork s
Ġexception s
Par ameter
di us
Y PE
f abric
in f
w is
g p
and roid
v is
Ċĉĉĉĉ ĉ
Ġ jo
Ġexp licit
on ce
F IL
Re gex
FI X
S ign
; ':
ĠI O
i um
T F
k ip
Ġd st
33 33
= ""
Ø §
Ġ6 0
ex pect
S C
b ig
Ġcollection s
Ġ2 55
F low
app ly
Ġ- .
Ġsh ell
ed ge
p ted
fl ush
S G
Ġbo olean
Ġt x
ex er
cho ice
exp and
Ġc li
Ġ" #
VIC E
Ġk ind
Ġ mp
Ġbe low
Ġman ager
co s
h ass
t ar
ue st
ĠLIC ENSE
Ġre quires
u it
() ]
Ġinclu ded
reg istry
di date
unk nown
at rix
sq rt
OR Y
B ar
Ġlo ader
us ing
DE BUG
at om
res sed
I Z
R ou
host s
sy mbol
u dio
Ġper form
s ur
Ġ< <
OL D
Ġop enerp
M D
S p
ter m
Ġc pu
d l
OP T
S pec
package s
Ġ //
li ty
Ġst ill
Ġan s
Ġin s
ĠL IMIT
d st
ĠF ield
SS L
z en
Ð °
Ġs parse
trans late
Ġas ync
+ "
in x
Ġprovi der
Ġe p
Ġbe havi
ce ive
i er
Ġsa fe
fici ent
Ġpri mary
Ġre gex
4 04
.. /
ET E
I VE
cur rency
lin ux
Ġn d
ĠString IO
len dar
ĠD AM
call s
co okie
To ol
get text
Ġen abled
Se lect
be gin
Ġdown load
RE QU
ĠD I
sg i
Ġun til
1 000
data set
AT TR
comple x
metri c
Ġker nel
Ġbe gin
(' .
Ġpa yload
ann er
AN S
Ġth ose
- >
Set tings
clu ded
Ġas sign
un ic
r up
STR ING
Ġp ut
Ġpro blem
per i
re v
Ġ1 000
CO DE
Ar gument
Ġ ĊĠĠĠĠĠĠĠ
te ct
ar r
Ġtrace back
ot a
Lay er
i ti
ist ri
time Error
lo cale
Ġf ix
ĠN et
resh ape
In formation
Ġ[ -
Ġs l
Ġ{} ,
re quen
ĠO N
per iod
e m
Ġcorrespon ding
)) .
') ]
la ck
Ġconst ants
Ġsh util
Ġ uri
Ġp lay
fail ure
h and
Ġb ranch
k ind
Ġre set
in ner
ces ses
Ġsupport s
Ġ' )
B B
([ "
Lo cal
CT ION
ites pace
i i
con dition
56 7
cess ary
Ġi prot
Ch annel
po wer
Ġy ear
ation Error
k es
LE D
un i
ma g
ĠCol umn
Ġm aster
sl ug
f name
k s
W ri
Se arch
ateg y
( ',
is sue
pl an
Ġle ast
Ġe dit
Ġi dentifier
w arnings
assi fier
in ary
Ġs cal
ĠD is
LI ED
HE AD
cry pt
ĠIMP LIED
Ġsy m
} '.
di stance
Ġat temp
g ation
wis ted
l on
it ation
Ġwri tten
update d
Ġs ig
sign ature
exten sions
tran sport
ac ti
plugin s
ĠDO UBLE
m c
all back
Ġsub ject
se ed
RO OT
Ġtime s
HER E
C UM
rid ge
en ch
ex clude
ir d
Ġ' {
A V
str ings
li te
Ġc lear
i ed
Ġd uring
HO ST
ler t
O ff
greg ate
ĊĠĠĠĠĠĠĠĠ ĊĠĠĠ
D U
Ġt ab
A UTH
Ġco mb
Pl ugin
ĠDe cimal
CO MM
Ġc types
ĠG e
L IB
is tered
Re move
O bj
Ġex port
Ġpk g
D ATE
ĠB o
Ġset attr
Ġsource s
handler s
ac c
d p
CONF IG
Ġvi sit
row ser
ff ff
) ?
Ġt ake
r aries
un pack
ĠD oc
Ġv ol
s r
:` .
t or
Ġd ay
tp g
XX XX
Doc ument
Ġf etch
V ID
Ġre cur
par ameter
M AP
road cast
me th
P rint
ad ing
Ġf it
Ġbu cket
ĠV er
Ġtest ing
un its
ER T
sh ared
Ġs uite
Po ol
ili ties
scri be
Ġde ri
Access or
Ġse q
99 9
W ORD
re vision
Ġversion s
ĠB UT
M ake
u do
/ {
Ġ---- ---
Ġon ce
Ġexten sions
vi sit
W E
AG ES
coun ter
ho ur
F lag
di ms
Ġexec ute
C re
Ġs core
R en
ar m
p df
Ð ¾
s witch
i dentifier
} ".
ul ate
Ġal iases
ĠĠĠĠĠĠĠĠ ĠĠĠĠĠĠ
D C
se ries
Ġaction s
De lete
Ġwe ight
b its
ĠO ther
con v
F R
ut ron
p ush
ĠT emplate
aris on
? ]',
Ġe tc
re es
ex pi
Y ou
Ġ" {
r m
Ġs ide
Ġdirect ly
bu iltin
0000 0
Ġde pendencies
ĠLIMIT ED
Ġnumber s
Ġw x
Ġco okie
Ġop tim
Ġter min
Ġbut ton
Ġadd r
Ġa void
Ġoper ations
app en
par tition
ched ule
ss h
ĠS y
"} ),
Ġ' "
Ġass ume
Ġig nored
: "
or iz
ĠEx ample
F N
te ration
19 2
ĠMode l
Ġde cor
Ġ2 4
environ ment
b eta
ĠG roup
element s
istri bu
Ġs q
m as
ĠC ode
Ġlo wer
66 66
p x
Ġp r
ĠS peci
f time
ĠS QL
Ġ_ ,
Ġmer ge
Ġ1 7
sume r
j e
IB UT
cor ding
B it
u ses
ar ds
h idden
Ġu uid
S cript
wi ki
st ub
as y
per son
ĠW indows
reate r
Ġde leted
F loat
td c
Ġf ill
ac cept
ĠH e
sc reen
Ġbo x
function s
Ġin v
bu s
Ġw ell
i dent
ok ies
er ies
d raw
i mpl
en u
ĠP re
Ġcase s
t n
s lice
uplic ate
par k
} .
PR ESS
Po sition
AR K
5 00
set default
A b
Ġin sert
Ġstate ment
h istory
i an
Ġsto red
Ġv ector
Ġcomm it
de lay
Ġtemp file
By tes
Cur rent
av ing
d uration
modi fied
N um
re ader
an ization
Ġval s
Ġv irtual
in te
RE AD
Ġext ract
Ġm ight
F oo
si red
Lo ader
i dentity
ar ange
sh ell
Ġstruct ure
a cl
Param s
Oper ation
ĊĠĠĠĠĠĠĠĠĠĠĠĠĠĠĠĠĠĠĠĠĠĠĠĠĠĠĠĠĠĠĠĠĠĠĠĠĠĠĠĠ ĠĠ
ĠC ourse
Ġb asis
Ġ4 2
ul ation
Ġlo ss
Un less
D D
Ġno te
Ġlo cale
const raint
trans action
Ġ ĊĠĠĠ
ar Down
ĠRe ad
el s
Ġw arning
ä »
distribu tions
Di alog
al ign
Ġd ump
CH AR
get Logger
see k
M y
l ab
qu are
ff ect
OR E
2 34
t wo
control ler
ĠT e
Ġal gorithm
Ġsub class
vi de
Ġcon dition
ĠLI ABILITY
velo per
m iddleware
Ġ ?
ab sent
che my
Ġreg ular
wri ter
si m
Ġho me
Ġk now
se lected
Ġcurrent ly
de tail
a mp
il ing
n ail
re duce
pen dent
L A
s hould
Ġex clude
ĠIn dex
li er
L exer
yn ch
Ġdep th
c ard
Ġp ol
ta x
Ġ 80
Ġsh ared
Des cription
Ġprovi de
J o
Ġmon th
Ġ ----------------------------------------------------------------
Ġapp end
Ġblock s
ĠL E
Ġ lineno
Sto re
ri s
pri ate
z h
VAL ID
RE G
limit s
den ce
server s
Ġbe st
Re cord
H ttp
O B
ĠD jango
P ACE
File s
in voice
ti d
======== ====
Ġo wner
in v
## #
Ġpro per
v n
Ġb asic
In itial
ĠN e
ce l
Ġo wn
pro gress
: ])
f ol
i ted
li sten
Ġc y
Ġimage s
run ning
Ġb ind
compile r
fi gs
umb nail
C F
ĠS E
__ ":
ci rc
eff ect
Be gin
vel y
V ar
DE F
Ġap pe
Ġlist s
re ason
e gg
s in
qui v
Config uration
ĠS ource
per mission
L IN
Ġre main
R el
const ants
iter ator
ex e
Ġmax imum
YR IGHT
Ġ2 5
ĠO UT
ĠS U
ĠMo dule
Ġsy mpy
4 00
ĠS h
A g
ĠRe served
Ġg lob
ur ity
Ġdel ta
m ar
Ġdef inition
Ġ" ",
Ċĉĉĉĉ ĉĉ
MA IN
Ġis n
Ġ1 8
fix ed
pre v
j or
LO W
q ty
fi xture
CON T
exp ression
C RE
f req
Ġdi stance
d ns
e k
Ġs w
Re ader
at um
s age
c mp
po sed
Ġro uter
ĠAr gument
fi es
å ı
Ġs napshot
s cheme
Ġp ur
Ġs pa
O ver
Ġb its
dis able
fir m
te ction
clo sed
Ġencode d
Ġb ot
Ġdef ine
ĠTH IS
oper ation
P h
') [
ĠThe se
l v
p red
it le
mer ge
" },
is ode
M T
s heet
requen cy
J ECT
g is
Ġst at
Auth or
Attribute s
Ġs cheme
N ext
Ġ* ',
ĠQ u
bu ilder
Ġimple ment
Ġno va
ut c
G B
================================ ================================
get attr
c ut
comp at
out file
ĠCo mmand
Ġex act
Ġup load
Ġdest ination
sto ck
IC AL
service s
j ava
* (
pre di
t b
| \
S R
page s
ls o
ĊĠĠĠĠĠĠĠĠĠĠĠĠĠĠĠĠĠĠĠĠĠĠĠĠĠĠĠĠĠĠĠĠĠĠĠĠĠĠĠĠ ĠĠĠĠĠĠĠ
Ġok ay
LO C
ful ly
Ġp oly
Name s
o ted
ri ve
in der
Ġne cessary
di gest
se mb
Ġi o
ab ilities
V AR
M is
Ġappro priate
Ġun known
sub process
o ols
ĠRe move
s orted
Ġwor ds
Pro file
ro zen
able s
du mm
Co lour
k t
ON T
a i
Ġthread ing
co ver
c pp
ĠX XX
Ġre quested
ati bility
=" %
e Error
â Ģ
ti t
Ġma il
Ġme dia
g ui
Se quence
Ġ1 9
Ġautomatic ally
h n
) ')
Ġpri vate
ĠQt Gui
no tes
change s
se l
3 00
Ġpart ner
W eb
=[ ],
Ġex pi
instance s
ĠCOP YRIGHT
ns ors
Ġcheck s
g i
Ġde scriptor
Ġcode cs
st udent
Ġconst raint
de rer
B ASE
Ġtrans action
Un known
A F
R Y
Ġs sl
Ġd rop
Ġact ually
Ġinclu ding
Ġex ternal
return s
C an
top ic
liter als
On ly
d types
template s
se lection
Ġcon trib
ra ce
ĊĠĠĠĠĠĠĠĠĠĠĠĠĠĠĠĠĠĠĠĠĠĠĠĠĠĠĠĠĠĠĠĠĠĠĠĠĠĠĠĠ ĠĠĠĠ
l n
Ġ( -
Ġsub net
ĠS imple
exist ing
de pendencies
g u
la tions
Ġfail ure
comp are
Ġf ig
Ġo uch
abs olute
a ys
k o
ip s
ĠOn ly
ĠL e
ast ype
Ġresource s
age d
W e
Ġh elper
ĠI mage
s uite
exec utable
Ac count
v t
ĠIO Error
ynch ron
N ING
'] "}),
" })
ĠC lo
Ġg it
ĠR ights
ĠDE FAULT
Ġt z
se ss
**************** ****************
gra d
": "
>> >
de ps
set ting
ĠT ensor
Ġs amples
Ġa mount
Ġde precated
Ġcomp iler
ut down
ust ome
Ġpick le
ul ator
z ed
or ds
brow ser
g on
h igh
P H
e lem
bo sity
( ""
di men
sub ject
ĠN ULL
DI RECT
r u
> ')
ed s
ĠW H
ĠA nd
Ġz one
Ġro und
Ġrepresent ation
per missions
Ġsome thing
la ces
coun try
set Up
St orage
Ġi terator
Ġan aly
y aml
code s
Ġn ative
Ġcer tificate
ct ure
ans wer
Ġho ok
ty le
ĠS ystem
Pro duct
Ġh appen
PI PE
' %
Ġy et
p ub
Fe ature
ĠT rans
M enu
do ctype
== =
Ġch ain
local host
or ies
app ing
IT S
r ing
run ner
ste ps
R ow
version s
Ġre cords
bl ue
Ġ4 0
p to
ĠEx amples
D IS
di spatch
re lation
S U
L Y
ĠD ate
speci fic
!! !!
Ġco ordin
[: ]
place holder
sis tent
Un able
Ġmodi fied
RO L
k it
' ',
dumm y
Ġ( )
ĠThe re
pa cket
t ure
ĠPar se
Ġa ut
B ad
R I
Ġtrans form
Ġ201 2
Par ameters
de leted
ra c
Ġre lation
ĠIn itial
Ġset s
Ġpackage s
(_ ("
Ġde n
ĠWe b
Ġs ci
is dir
Ġen viron
ĠUn icode
Ġn ested
r as
De cimal
ĠRun timeError
ĠE lement
ra ction
Ġun its
Ġf d
"] :
Ġbehavi or
si tions
Ġde cimal
pa city
'] ",
b ed
sh are
Ġchar set
Di rectory
channel s
char set
aa aa
Ġg rid
ĠCON F
Ġcomple x
Ġ' =',
' m
Ġ3 9
Text Field
L ast
Ġt yp
Ġserial ized
te ps
G ra
Ð µ
Ġ ~
an e
si an
Ġpar sing
Ġde le
Ġend point
ĠHttp Response
STAT US
f lavor
Comp onent
Ġ# :
ĠKey word
H andle
Ġk nown
/ ')
Ġco re
peri ment
S peci
Ġh ass
ĠUp date
table s
Ġb oto
Ġlink s
Ġfile names
ns ure
ĠW HERE
Ġtrain ing
m ultiple
il la
Ġt akes
pro b
la ime
(" -
Ġl on
man ifest
Ġrepresent ing
50 9
Ġmetri c
Ġcre dentials
U se
al th
process ing
W idth
Ġe lem
te ri
REE K
S UB
is instance
Ġf low
ale nt
D river
z A
TEXT NS
to gether
Element s
arg in
ve c
valid ation
Ġallow s
U I
c itation
T ran
1 10
Ġorig in
sub class
Ġ201 3
pre vious
de cimal
p layer
st it
se par
for med
m ut
e ded
Ġdimen sion
Ġ( _
ir c
quen ces
Lo ck
IC T
ec ted
EN CE
Exten sion
Ġor d
De f
Ġor g
ro me
ĠC F
ue ss
Ġmig rations
speci al
back up
re lative
Serial ize
Ġd ot
ph y
Ġcer t
Ġp adding
Ar gs
Ġre c
T op
Pass word
d k
g yp
Ġf ixed
i re
Ġagain st
com ments
script s
v ance
ĠA lso
di an
process or
N ormal
ax es
UN D
b undle
orig in
DES CRIPT
ĠB SD
Ġl ang
) ")
Ġsum mary
di sc
Ġstate s
H ello
ĠRa ises
m g
re a
) +
ab stract
ĠB E
Ġstri p
Ġs ur
p ad
Ġs lice
res sions
Ġim g
Ġe mbed
ĠG REEK
S M
Wri ter
L ANG
xx xx
s al
Ġm d
Lo ad
); \
g pu
' (
PRE FIX
Con st
ĠV i
Ġper iod
ĠAn y
Ð ¸
A IL
lo cate
n ative
Ġl ate
w sgi
in line
B C
w eek
Ġsk learn
arch ive
Ġi den
Ġitera ble
K et
o auth
pl t
Ke ys
e mbed
c ancel
ĠC H
read line
ĠLE FT
q s
ba z
h ref
Ġqu ote
Ġindi c
/ *
li ve
ĠO ut
En able
Ġa tom
T emp
16 8
Ġpro p
quiv alent
con tains
ĠOS Error
T e
x F
ĊĠĠĠĠĠĠĠĠĠĠĠĠĠĠĠĠĠĠĠĠĠĠĠĠĠĠĠĠĠĠĠĠĠĠĠĠĠĠĠĠ ĠĠĠĠĠ
11 11
ys ql
ong o
"" ")
], [
St op
IS O
c n
ĠIn valid
Ġbu ilt
Ġb ug
IL LIC
Ġc at
YR ILLIC
M sg
ĠM eta
( ':
Ġgo ogle
es ser
h at
ag tail
crement al
L INE
str ftime
Ġhost name
I mport
me s
Ġre pe
Ġn orm
tri es
N E
Ġvalid ation
sc an
RO UP
ĠC YRILLIC
I p
Ġin side
device s
ge titem
Ġc ached
h r
Ġsy ntax
pro j
W R
pa y
ustome r
N t
vari ance
in c
Ġse curity
({ "
ci pi
ĠD B
:` ~
iz ers
Ġf uture
m u
(' _
e di
} /
Ar g
ĠTest s
N C
Ġde pendency
loc ator
T C
Ġs witch
Ġtuple s
iz ard
end point
alle l
an tity
pre pare
Ġimple mented
String IO
ĠL esser
D atum
F tdc
I ST
al g
o tes
: ',
AT OR
Ġlo w
laime r
1 12
V olume
t ol
Co uld
cipi ent
Ġd at
D AT
Ġar rays
J SON
UT F
ation al
us ters
Ġinter val
h int
lo or
S uite
act ual
ac ter
request s
Ġsy mbols
Ro ot
) **
is file
ĠAuth or
Ġr xn
Ġs imp
re quires
Ġle x
Ġal ign
Ġat tach
Ġme nu
W OR
Ġ" )
ma chine
Ġs aved
con ver
ch ase
allow ed
l b
Ġd types
ci p
comp ress
Ġd s
format s
ĠA C
no tify
M AN
Ġs creen
ĠPO INTER
er gy
Ġcall ing
Ġwork ing
check er
Lo cation
Ġq s
Ġit self
state ment
p ending
ut ors
Ex ist
ul k
de precated
Trace Source
Ġc la
', ),
M ark
ce iver
ĠB e
member s
: -
istribu tion
IBUT ORS
Ġdisc laimer
d m
de g
Ġfa ctor
] '
Ġ' *
Ġarch ive
an a
la zy
ĠW or
IN CLUDING
Ġ qual
G ER
Ġc m
En abled
Ġ' '.
ĠBu ild
Ġin ner
he el
ĠR o
Ġins pect
Ġse ries
Po st
Con tains
ĠC all
pl us
Ġinter pre
cl one
Re action
Ġcre ating
tab stop
p lain
Ġs n
25 2
################ ########
ST ATE
: ``
Ġpair s
trans lation
ri ft
Ġcomp are
tra ct
ĠC omment
> %
Ġ10 24
pre cation
Bu ilder
AA AA
re cords
Ġ' \\
201 0
rew all
de cor
a fe
C lean
ten ded
vi sible
H as
k b
/ "
l ue
Ġpar tition
n or
Ġ## #
J ob
ĠB Y
ĠCONTR IBUTORS
Off set
Ġed ge
+ ',
ntax Error
Ġno thing
C al
Ġlo aded
Time out
.* ?
Ġfa ctory
L EN
c wd
Result s
Pro vider
u da
Ġc v
æ ľ
ĠW rite
Ġp ix
plot lib
sen Colour
Ġnd array
Ġcorrect ly
si b
Ġter m
11 1
un ity
t l
op tim
Ù Ħ
Ġr ate
vi e
ĠE VENT
find all
co mb
en e
? ',
CL ASS
et ail
initial izer
Ġn or
Ġm aterial
pre dict
ĠIn ter
> ,
M ain
ĠCon tent
ate way
i ent
Node s
B inary
Fail ure
pro blem
n ested
R ate
Ġma de
ĠOther wise
"] ["
ten ce
in herit
]) .
ĠMe ssage
/ \
Ġraise s
are a
Ġag ent
Do es
Ġprovi des
str ument
ĊĊ ĉĉ
C UR
S end
u ce
Ġd raw
ct xt
it al
Ġpage s
Ġexp and
Ġse ed
13 7
Value s
n umeric
pri ority
g lob
std in
v lan
En coder
Ġauth entication
Ġdi rectories
loy ee
Ġ2 3
M on
comp atible
ĠR IGHT
ĊĠĠĠĠĠĠĠĠĠĠĠĠĠĠĠĠĠĠĠĠĠĠĠĠĠĠĠĠĠĠĠĠĠĠĠĠĠĠĠĠ ĠĠĠĠĠĠ
char s
Ġle ss
li es
Get TypeId
N ET
L D
ph ase
Ġpro c
C annot
Ġvi sibility
meta class
al ity
v l
SER VER
V M
c tive
M iddleware
par tial
ge o
E P
ĠIP v
Ġdb se
Reaction Datum
Ġtask s
m icro
pro g
A v
Ġli sten
Ġma chine
Ġa st
b lob
ĠU N
iz es
Ġconver ted
tic ular
k ing
ĠE vent
w b
Ġwor ld
REQU EST
Ġdb instance
Ġse c
Ġvar s
Ġprocess ing
ge om
e v
ĠS ome
thread s
U rl
Ġpro gress
line ar
CO MP
FI EL
Ġv im
Ġstart ing
Co mple
Ġse en
ĠF unction
. +
Ġindi cate
jo bs
Ġde sired
Ġ/ >
se lector
ig ration
pro tected
at trib
ly ing
P hy
IG IT
$ (
p ur
Ġm ime
B E
ref resh
work er
Ġp d
wh ile
Ġbu ilder
Ġexec ution
sub scription
ĠAuth ors
d ash
wh en
Ġf rappe
6 00
NU M
al chemy
Ġt s
Ġcomp ile
ĠC O
ĠDAM AGES
sk b
L C
-------------------------------- ----------------
Ġte arDown
Ġg l
co gn
To Many
Ġtri gger
Ġtable s
base d
te am
Ġre vision
and s
r d
12 0
r x
} '
Rou te
R et
k a
Ġf name
Ġcom ments
r v
vo ke
Ġclo sed
I V
g mail
Ġdetermin e
ĠM ulti
Ġhost s
Ġlo st
OR IZ
mon itor
Ġc s
Ġm s
F ont
list s
Ġc lf
dis abled
1 99
Ġ qui
rup t
Ġpri or
') },
gener ic
in ing
ĠNOT E
wh ich
ĠA le
config ure
ĠI s
Ġac ti
sc roll
ag ic
201 3
) }
ench mark
C ESS
567 89
trace back
match es
ur ations
e g
order ing
T ri
w atch
" ',
Ġst udent
Re p
TE MPL
Ġ" +
project s
ĠS ign
Ġgra dient
cer tificate
pre cision
Ex pected
con sole
or ation
ĠMo ved
me sh
Ġh ex
Ġcal cul
M atrix
Ġ2 1
p end
Ġbu iltin
Con n
S tyle
Ġsci py
Ð ½
" %
Trans form
ly ph
ari o
pa gation
Ġle g
re cur
Ġscal ar
Ġa round
ER P
c ar
ĠW hy
le v
Ġp ush
read only
xt ures
Ġgo od
metri cs
il ar
di f
- +
or ing
st andard
P os
Me mber
f amily
key word
Ġpar ticular
l st
g d
ĠI tem
ĠRe distributions
sm all
Ġen gine
': {'
Con s
Ġconnection s
Ġw rong
Ġc pp
UR CE
cre dentials
== '
Ġso ck
et c
T uple
DEL ETE
mo x
ci al
N ECT
Ġcop ies
Ġe c
Ġdis abled
sy ntax
mo us
v c
Ġans wer
co very
pro gram
[ \
Ġpo wer
Ġupdate s
no tification
Ġno tification
g z
r strip
C ap
Pa rent
Ġf o
VID ED
ale s
roll ment
ĠT Type
Ge ometry
e poch
ĠC an
F lags
D el
f un
no va
VAL UE
: ",
z illa
Ġt b
Ġtime delta
a ut
Ã ©
ĠNet work
t v
Ġre v
ten d
T itle
Y Y
mo re
Ġd ns
Ġo uter
IL D
ĠIN CLUDING
Ġme m
c nt
ab ly
= ["
ĠP ath
D V
di ag
Ġ lin
at t
Ex it
ET HER
Ġfail s
par sed
sp li
T AG
Ġs teps
Ġr ank
sc all
uff le
ĠC lient
([ ^
end or
Ġread only
p m
(_ ('
COL OR
E mail
Ġany thing
n l
Ġ" ")
pi x
sta ff
00 2
ĠS ER
co st
ho use
Sh ape
Ġ2 6
n i
'] ]
N AM
ep copy
Po sitive
T A
(" <
Ġ201 5
B R
Ġview s
ch or
P ASS
ra tio
Ġsupp lied
ist ic
ĠU P
Ġdist utils
scal ar
dest ination
im ate
ou ch
IS ING
l r
si z
s cores
Ġde lay
ser v
' ll
as set
O FF
Ġc sv
mo ving
Option al
ĠSH ALL
w x
uc ce
Ġh our
S chema
Ġ201 4
ĠS ta
B asic
Ġ ^
di gits
LO AD
ĠS up
res olve
gate way
g f
ĊĊ ĊĊ
C ourse
Ġ3 7
Ġd ue
Po wer
ĠLI ABLE
ĠAnsible Module
Q gs
ä º
Ġ' +
Ġreg istry
Ġan not
Ġ" (
Ġac c
Ġre ader
L im
Ġwri ter
ĠAR ISING
Ġ2 2
ĠO per
Ġthread s
z Ket
ag ing
fl at
in ux
Ġ2 7
Ġapp lied
Ġ201 0
Ġp ad
di ffe
fol low
Ġcho ice
Ġde scri
ĠT ORT
ex act
or n
ch an
ToMany Field
ĠWH ETHER
_ {
con tinue
" />
Change d
AN CE
ĠF ind
Ġ5 00
con nected
AT OM
ĠPRO VIDED
Ġne ver
assertIs Instance
to o
ĠCONTR ACT
S im
(" --
' +
de li
Ġre try
Ñ Ĥ
L S
G P
av es
Ġbase string
Ġtemplate s
Ġ ĊĠĠĠĠĠĠĠĠĠĠĠĠĠĠĠ
Ġn one
Ġre ferences
s peed
time zone
Ġformat s
x E
ĠO bject
pol l
al len
ĠCh ar
Ġl arge
12 5
sub mit
Ġb rowser
inter faces
ĠD IGIT
TY P
n x
Ġmetri cs
S c
Tag List
tri p
Ġ3 1
MO DE
10 4
er red
clar ation
count s
b ra
IB LE
') ))
eval uate
cate gor
Ġpar tial
Ġcomponent s
Ġ ur
ĠC or
ĠL ine
DO MAIN
DESCRIPT OR
Ġin d
De serialize
P i
ĠN E
W ISE
Ġcoun ter
sertion Error
Ġro ute
ĠPro ject
Ġb ro
ĠCo mm
w ant
Ġi con
De bug
Ġ ).
Ġre duce
ĠN ew
B ACK
pro ps
ec tive
li ct
Ġcomp atibility
Do uble
Ġpre tty
Ġurl parse
ir q
Ġinclude s
Ġex amples
} "
iter al
IN PUT
S um
Ġp ip
ighb or
g amma
Ġtime zone
N a
assertAll Equal
Ġfl ask
d raft
A gg
fa ct
a ws
ĠPro cess
col lect
ST ART
Ġmodi fication
Ġcon struct
ĠEX PRESS
N on
ĠE ach
Ġpre cision
ĠCON T
loy ment
ĠIn put
ĠD ATA
Ġph ase
Gener ate
ar ticle
ony mous
C ustom
get value
fore ign
ĠAle xa
Re mote
Ġbo ok
Ġg r
fa st
canvas ugc
TER N
on ical
un link
Ġre stri
G lobal
Ġfl at
q a
Ġd ummy
F S
Re direct
in ventory
as cript
R ET
Er r
13 6
* \
8 00
ĠS TR
CE PT
1 32
x is
lo gs
V al
fi ers
OF P
Un icode
u fe
S how
AT ED
F ind
Ġh y
ĠSer ver
ĠV M
ag gregate
Ġderi ved
ĠT able
S UP
Ġdimen sions
i tion
sl ash
G o
assi stant
at o
ra ble
late st
AM P
sen sitive
th reshold
ĠRes ponse
Ġdi spatch
Ġun signed
Ġ( ?
time delta
Does Not
ame ra
ti ves
Ġexec utable
j ar
ĠRes ource
D atabase
ab e
time r
s ame
ĠM ark
Ġback up
jo urnal
Ġne gative
Ġcre ation
si st
([ (
Ġf s
um an
CI AL
Query set
assertAll Close
ref s
Ġadd resses
10 9
ĠO ver
S ingle
dest roy
ti le
wi max
ifi cation
st ime
'[ ?]',
æ ĺ
T T
Ġup per
Reg ister
Ġac cording
list dir
T otal
() ;
K EN
PO INT
con tact
Con vert
di rection
Ġtest dir
A li
Ġw agtail
CUM ENT
o logy
b est
) -
je ction
Ġcomp any
av ascript
Ġco ef
Ġhand ling
we ver
ĠE xt
oriz ont
for ward
Lo op
] ["
d h
col ors
Ver ify
Ġfa st
ĠS SL
Ġ" [
de pendent
all close
ag raph
dimen sion
ĠO ne
F unc
den se
U tils
ĠS UB
ĠOTHER WISE
si cal
spec s
Ġsm all
us ted
ce pted
unct uation
x A
Ġst ride
ï ¼
g nore
Ġ2 9
5 12
] \
ID ENT
copy right
ĠIN C
HEAD ER
ĠF IX
C opyright
di alog
LIN K
Ġ'/ '
En tity
TEMPL ATE
ĠN ow
ING LE
Ġsepar ate
Ġres olve
F irst
an el
ĠSer vice
Ġt wisted
ĠC A
FF FF
Ñ Ģ
o ok
ĠIn teger
ED I
pre sen
Field s
Ġli ter
or ph
at al
Ġb ig
Ġf mt
Ċĉ ĠĠĠ
Item s
ac ters
201 4
UR I
y e
ma y
Per son
Ċ ĊĊĠĠĠĠĠĠĠ
ta ched
Ġto ols
Ġ Ð
ĠH AS
[ (
11 7
assertNot Equal
P ACK
PRO TO
En coding
ĠT EST
C omment
ed ges
tr l
ĠOut put
P oly
ĠA UTH
At tr
clean up
Control ler
edit or
Ġh ard
Queryset Equal
un der
CI I
Ġreg istered
Ġcl one
{ "
ighb ors
Ġc c
wor ld
struct ure
ĠC ur
Address Value
per cent
Ġconfig ured
ĠP ost
Run ner
Ġd uration
B X
ĠS UP
update s
x path
dered Dict
Ġc b
au dio
UN T
Ġ ĊĠĠĠĠĠĠĠĠĠĠĠ
agic Mock
10 5
u ous
de le
V S
gra dient
Ġ{ %
c id
cy cle
re try
ble ms
Ġtran sport
ic ally
ro py
ve y
assert QuerysetEqual
add resses
Ġarg parse
gra tion
Ġt urn
y y
ar row
sy mbols
ĠLo ad
Ac tive
web site
Mo di
From String
en sure
el ls
wh ite
wit ter
DoesNot Exist
and as
with out
qu ot
11 9
C D
rom ium
Ext ra
gle xt
orizont al
Tran sport
back ground
Ġpo sitive
is co
Ġver y
W ait
Ġ Ø
n ed
s lots
g ri
im al
ĠD on
ir ror
u om
I dentifier
ĠW hether
Many ToManyField
h ort
sh ake
p atterns
Ġappe ar
clu sive
Ġpro duce
rec v
Ġ layout
Ġdevice s
Ġdecor ator
s ol
Ġp ie
ach ine
Ġse p
S P
A pi
Ġwho se
g res
ti re
age s
Ġmin imum
ĠDoc ument
ĠE nsure
g reen
ul a
ĠR FC
S kip
Ġdi gits
Oper ator
Ġpri ority
ĠEN D
ĠArgument s
Ġe quivalent
Ġtrans lation
ze ug
ail ability
Ġ' &
er ature
require ments
pair s
pe er
a o
77 01
p in
b um
cli p
iv ar
pi peline
UR N
Ġerr no
} ',
ĠF ake
. "),
cre te
og raph
ĠT ry
Ġget s
k zeug
ĠDi ct
" +
Ġcon v
201 2
ĊĠĠĠĠĠĠĠĠĠĠĠĠ ĊĠĠĠĠĠĠĠĠĠĠĠ
d x
de c
Ġcheck er
') (
S tep
Set ting
Ġproduct s
Ro le
st ar
Al most
TEST S
Ġs ol
split lines
a gs
Ġp layer
Ġdir s
Ġstri ct
AB L
00 5
ti tions
un CP
inst alled
tera ctive
unct ools
S IG
Ġs ync
R out
rite ri
Ġcontrol ler
"" ",
velo p
assi fication
(' .')
Con ver
gra mm
AD DR
Ġth ings
: [
i ke
") ),
i ble
z a
map per
helper s
ro les
ver sed
u fa
f ragment
ĠQ U
back ends
De fin
w alk
bal ance
ENT RY
ORIZ ONT
ne gative
Ġre ally
lim iter
Ġca use
A VE
Ġorder ing
To String
Ġtop ic
du cer
ven io
Almost Equal
sp h
tri gger
ĠD IS
log ical
__ ',
get ter
F l
Ġ$ (
ĠFIX ME
re et
____ ____
A rea
iv es
Ra w
Ġ ri
Ġquery set
Ġm x
mul ation
an cer
D T
key words
Ġax es
Ġc p
der s
d y
DE X
18 0
' \\
* ',
e cho
out ube
real m
Re port
= {}
Ġattemp t
' <
Object Base
Sec urity
con tain
G ROUP
Ġ' :
ORIZONT AL
c ator
err no
ĠT ra
z ure
@ @
Clean up
a ther
float ing
is ual
RE D
Ġcan didate
PAR AM
def inition
sc a
Ġgener ic
it ude
f v
ari ty
ĠF oo
t m
f ri
x i
NO DE
m ust
00 3
M apping
B L
M C
Ġme t
Ġun less
pre view
Ġvari ous
a lf
Ġn stime
SE QU
Ġ5 9
Lo okup
LOC AL
sm art
# ----------------------------------------------------------------
00 4
run time
Ġnormal ize
ĠH OLD
Ġnull able
lic a
cat alog
n r
ĠOpen ERP
normal ize
Ġa ble
ĠF irst
15 0
Ex pr
collection s
ĠSt art
el y
Ġ5 1
ge ometry
Al low
entic ate
Imple mentation
ti ces
ser vation
Child ren
Ġro t
o om
Fe ed
Ġline ar
Wor k
P U
Ġse lection
AM PL
Ġs paces
pect r
12 2
C er
Ġ question
st one
Ġe tree
Ġmatch ed
an ded
ĠTest Case
late x
> ",
ĠP l
25 0
Ġt m
IN ST
Ġdi rection
li cies
Lib rary
assertIs None
Co okie
Ġ' (
ĠA T
Dis play
sv n
x s
network s
DO CUMENT
F ake
WOR K
pi pe
b ias
co okies
the me
Ġ( [
12 4
h ist
Ġwork er
Format ter
Mis sing
allen ge
S ITE
Ù ħ
Ġadd ing
10 2
10 24
ok ed
T ab
location s
O ri
P P
Ar ticle
ĠCon vert
m gr
Serial izer
tit ude
Comm on
pro mpt
Ġglobal s
ĠP lease
Ġ201 6
bo b
ti lity
Ġcheck ing
con figs
Ġcheck ed
bo unded
AS K
Ġpro cessed
Ġth ree
Ġ'. '
11 6
Ġde al
MA IL
Ġproper ly
on d
B ig
ĠM ARK
li d
ĠV ERT
ĊĠĠĠĠĠĠĠĠĠĠĠĠĠĠĠĠĠĠĠĠĠĠĠĠĠĠĠĠĠĠĠĠĠĠĠĠĠĠĠĠĠĠĠĠĠĠĠĠ Ġ
Ġversion added
Ġmember s
train ing
Ġman ifest
Ġc ateg
Ġlet ter
Ġ" {{
x B
Ġa verage
ĠCONT ROL
I t
Ġ4 04
Se lection
proto buf
n c
b and
Ġclo ud
Ġd ays
Ġexplicit ly
St ats
ĠL ib
re cted
ĠCh ange
Ð¾ Ð
d ag
Ag ent
Ġ""" )
Field Descriptor
ĠVERT ICAL
fail Unless
h d
AR D
u db
Per mission
m ultip
Ġde g
ĠEx p
b ut
ĠIS O
U sage
Ġone s
)) ))
ed x
2 14
CT YPE
Ġma kes
F D
h ave
Ġdef ines
Ġ= ================================================================
Ġse cret
Ġ4 00
C ategory
ĠS hould
Ġsh a
ON G
SER T
ul ated
Ġw on
te ctor
repe ated
ct l
AT CH
A K
C md
S ame
Le ft
11 5
W IN
oper ations
ç ļ
Ġ2 56
Ġformat ted
En v
Ġgra d
D L
Ġkey words
st and
X Y
g ot
wh itespace
Ġiter tools
reg istration
ĠH O
Ġconfig ure
File name
Ġmat plotlib
Ġrepo sitory
Do main
ĠAC UTE
n inja
ĠV ariable
Ġra ther
mi ted
ra dius
201 1
Ġsh ift
cate n
ĊĠĠĠĠĠĠĠĠĠĠĠĠĠĠĠĠĠĠĠĠĠĠĠĠĠĠĠĠĠĠĠĠĠĠĠĠĠĠĠĠĠĠĠĠĠĠĠĠ ĠĠĠ
e mit
A I
ES IS
reg ular
la ve
code c
F older
Ù Ī
pro d
Ġren dered
13 9
AP P
S pace
Ġe di
N V
co ef
Col lection
st rap
tic s
s f
re view
b ile
9999 9999
is ten
siz es
en g
Ġs peed
Ġe ffect
com ing
Gener ator
li ties
Ġ201 1
('/ ')
Ġrun s
sec ure
11 4
TYP ES
ĠJ o
ee p
Ġrun ner
In stall
ph inx
Ġserver s
Ġpredi ctions
Ġpre vent
å ħ
= ('
AS H
Ġf rozen
ĠP Y
E VENT
UN K
ou ter
LE X
_ ):
res olver
ĠD es
cur acy
Name d
Ġun pack
10 7
Ġor dered
Ġse gment
ĠI F
ca lendar
çļ Ħ
S cope
Ġindi vid
E E
Ġdi d
query set
li ces
Ñ ģ
Ġremain ing
V irtual
se ctions
U ST
sen der
un til
2 15
ing er
Ġar r
D est
M ESS
P open
Ġn a
cal c
Ġmon itor
RE F
li de
Ġz er
Set up
Ġw arn
Ġg tk
Ġnew line
MET HO
(' #
e ps
j pg
d ynamic
ĠIndex Error
p adding
modi fy
Ġmig ration
D etail
lo pen
AD ATA
Agg reg
m q
Ġh int
R ect
CL I
AR CH
Ġread ing
Ġb al
ĠCH AR
B Y
201 5
Ġhandler s
S ome
12 9
Ġwh itespace
Ġ' ':
for mer
ĠGener ic
bot tom
T x
S ave
ĠSt ate
Ġtemp orary
mt ree
acti vate
il li
ĠGener ate
G C
pick le
m all
Ġpri ce
lib s
m ime
ro u
St ub
g test
re store
Ġcal ler
/ .
Ġpo inter
pro cessed
In clude
ac quire
w indows
Ġsq rt
ph er
a w
čĊ ĠĠĠĠ
est imator
] {
In te
00 6
Ġre tain
') ):
ĠB LOCK
Packet Metadata
co ord
re name
Ġbet ter
Ġf ragment
ĠĠĠĠĠĠĠĠĠĠĠĠĠĠĠĠ ĠĠ
co ords
b g
Ġ tenant
pro duce
, %
Ġ urls
r st
u dd
ver tical
10 6
b ro
13 4
connection s
Ġb eta
ac tivity
De coder
sph inx
ra ps
ĠVer ify
2 32
Ġbo ot
Ġse quences
cry ption
a ce
encode d
file path
Ġpi peline
å Ĳ
Ġh istory
Ġretri eve
on al
c ross
Ġ 00
R C
Û Į
Ġ1 28
rep ly
tro ls
File Name
Ġc ross
Multi cast
Ġe v
Ġin ventory
Time r
2 000
I LE
na cl
Callback Impl
Ġmeta var
2 20
dict s
Object Factory
AMPL ES
ol ds
ĠDefault s
ĠT ag
ĠSt op
Ġevery thing
ap pro
Ġcur r
Ġg ive
B ody
: ],
N ote
M ULT
th umbnail
ini tions
Ġth ing
ip pe
ur ses
ĠPo int
Lim it
st or
ĠS Cons
PE CIAL
Ġp atterns
par ame
NAM ES
ĠCo un
Rout ing
G S
f fic
Ġback ground
se nsor
Ġwrap ped
ĠS kip
ĠSe arch
comp o
Ġexec uted
widget s
a verage
ĠC al
. ],
F i
B ind
12 6
V EN
Ġs olution
200 6
co d
OUT PUT
> `
Ġ 66
U FF
range s
or dered
AR GET
ol ved
+ \
Ġlon ger
D A
ĠU SA
man agement
Node Container
con struct
ĠB ost
Ġen tire
ĠC lass
ap s
Pack age
pe ak
ĠF e
serial ized
lex ible
ĠBost on
Ġreplace ment
S ample
ĠP ri
Cl assifier
ĠValid ationError
ĠS INGLE
/ (
ĠHOLD ERS
Ċ ĊĠĠĠĠĠĠĠĠĠ
Ġ 77
Ġreturn ing
st age
č ĊĠĠĠĠĠĠĠĠĠĠĠĠĠĠĠĠĠĠĠĠĠĠĠ
> =
nd array
spa m
/ <
Ġst arted
ĠH ORIZONTAL
at ar
11 8
ĠMan agement
R PC
hook s
ĠF orm
Ġne utron
s u
ĠI mp
čĊ čĊč
Ġas signed
spli text
ĊĊ ĊĠ
vis or
x C
names paces
mig rations
% %
Ġg u
z on
ms vs
ĠClo ud
Ġw i
Ġper mitted
mk dir
Ġre cent
CRE ATE
as n
Ġdi m
ĠC ustom
T er
Pro ber
F in
ĠQu ery
Ġcomp at
h w
at forms
to day
ĠNo tes
d v
č ĊĠĠĠĠĠĠĠĠ
Ġinitial ize
ACT ER
L iteral
IN IT
Ġma g
ĠU sed
e le
set Text
rand int
S uccess
Attribute Accessor
TH ON
Ġ 84
Ġinter faces
Re quired
ENT IAL
Ġno qa
Ġc wd
fin ish
mig rate
Ġen ough
I mp
title s
ĉĉ ĉĉ
ed u
ex amples
ĠSt ream
="" ,
[ ]
Ġr hs
Ex ists
MET ADATA
ĠM ax
ĠDe lete
er ge
Ġc enter
U CT
00 7
Ġest imator
BU ILD
Inter val
CHE CK
ĠC a
E B
Ġcy cle
ĠD atabase
Ġl at
Ġsh are
b ib
64 7
og ram
Ċĉ Ċ
Ġco ver
Ġ200 4
mp ath
j i
Ġhash lib
Ġn x
Ġper f
che mas
Ġw ifi
Ġin line
Ġnot Cho
ĠnotCho senColour
P lease
P e
Ġimp orted
fin ite
10 8
G rid
Ġfloat ing
Ġm m
rest ype
. '),
cl usters
An aly
NU MB
Un expected
clean ed
cer ts
Ġf lavor
G G
Ġdi ag
ĠComp ute
u ab
ma jor
tr unc
liter al
ig en
serial izer
Ġ3 6
Ġ3 5
Ġ\ \
He ight
Valid ationError
Sy mbol
h ide
comp arison
Ġ}} "
'), ('
Ġv s
Ġst uff
ĠA b
check s
C URE
ot ype
Name space
Ġtra iling
sp i
Ġp ub
Ġe ar
assertRaises Regex
Ġre ct
ĠĠĠĠĠĠĠĠĠĠĠĠĠĠĠĠ ĠĠĠ
c ab
ĠP oly
m id
ĠOption s
C y
Ġfor ward
Ġm uch
b lack
Ġ3 4
Co un
Ġpi pe
arg types
Ġcon side
ĠAr ticle
g w
u tions
Ġas k
"> <
fl atten
Ġcreate s
mig ration
] "
App end
en tities
Ġcontrib utors
yn ap
è ¯
j ected
se g
ad ditional
Ar ch
ĠT oken
assert AlmostEqual
L a
Ġ{} ".
h ar
Ġ ;
xy z
ĠL anguage
Ġsql alchemy
Ġb undle
rec tive
P A
open stack
con s
stub s
Ġindivid ual
per m
Ġrepresent s
ĠCon nection
Ġdoc test
int ain
entic ated
C or
len code
M IS
Ġdocument s
fin ished
ang ing
us sian
de epcopy
S parse
ph p
Y P
Ġp s
ra se
Ġim mediate
m time
X ml
op le
Ġ200 6
N N
De p
ĠT ask
Ġgener al
Exp ression
En ergy
Ġth reshold
ĠC l
ĠĠĠĠĠĠĠĠĠĠĠĠĠĠĠĠ Ġ
Ġa m
lif y
Ġc atch
t w
ĠP ass
no mi
al lation
st ics
av g
Const raint
re at
velop ment
initial ize
ro ke
si tes
Ġlib raries
E MPL
Ġm u
USE D
ANS IBLE
str ategy
10 3
Lo ss
01 0
n dim
p w
([ ('
------------ -
s cheduler
igh ted
ĠL IGHT
ry pto
ĠH andle
b all
16 0
cry pted
ĠPO ST
Cho ice
CA CHE
Ġi teration
=' '):
No tify
de cl
set ter
f rappe
ad ow
ĠC OM
Ġcal culate
Z ero
make dirs
Ġro ut
s ince
t abs
Ġcon sole
x code
an o
Ġte am
Ġ( @
0000 000
Ġservice s
Ġd ynamic
00 8
+ )
` :
red s
S W
Ã ¡
t cp
Ġchunk s
se en
AR E
m ysql
NUMB ER
pt s
go od
Code c
Ġdep ends
repe at
B LOCK
=' /
0 33
In ternal
C AP
Ġsl ug
a ir
s ale
he b
P ix
TraceSource Accessor
Ġ' ?
D ec
at temp
ĠPer mission
Ġu i
add on
R ight
ul ly
re size
call able
O ther
_ '
En vironment
qu ota
as array
Ġsim ilar
Ġeval u
h ard
Ġs sh
ener gy
IC E
P art
TIME OUT
Ġe mit
hour s
") [
ume ration
13 5
DE D
Ġ( <
Ġcon version
de coder
Ġs can
linen um
global s
ĠReg ister
Ġco st
Ġapp s
W i
æ ķ
at ype
Sy ntaxError
de mo
account s
Ġcon nected
Ġ{} ),
00 9
(' ',
Ġ{ {
Ġlate st
Back end
Positive IntegerField
me asure
Se ction
Gener ic
D b
ip her
ĊĊ ĠĠ
Con f
And Return
Ġal tern
s aved
Ġcount s
co v
si der
Ġmaterial s
si one
FIEL D
Ġin herit
si lon
11 3
25 4
D istribution
N ULL
uni form
Ġret val
Ġh ist
//////////////////////////////// ////////////////////////////////
č ĊĠĠĠĠĠ
ker as
Ġpro mpt
ĠR et
H elp
EN ABLE
Ġprob ably
di git
Ġcli ck
S K
th rough
load ing
Ġi dentity
in el
Ġreplace d
attach ment
l arge
cla red
Ġe asy
A IM
M ultiple
Bit Field
22 4
ĠPer son
i form
m x
ro l
ass oci
ir t
Conn ect
org anization
u ac
ci pe
å Ī
Ġserial ize
bind ing
Log in
Me mory
#### #
Ġback wards
k ill
(' ')
ĊĠĠĠĠĠĠĠĠĠĠĠĠĠĠĠĠĠĠĠĠĠĠĠĠĠĠĠĠĠĠĠĠĠĠĠĠĠĠĠĠĠĠĠĠĠĠĠĠ ĠĠ
ĠIN TER
Ġp or
Ġj s
o wn
Re ceived
Ġopt parse
ĠS P
VIC ES
dentifi ers
Ab stract
la h
sh utdown
ite rable
al iases
Ġdo cs
Ġover write
az ure
L isten
s chedule
assert Contains
DO WN
IM AGE
Ġed ges
th rift
ime n
Sh ell
Pro perties
def s
obj s
rid den
frame s
AN Y
un used
Ġdoc string
ĠAr ray
3 86
ĠCor p
po w
QU AL
ã ģ
Ġn b
Pro to
Z ip
O DE
W indows
Ġcol lect
I con
Ġpe er
W H
write Field
S N
li ck
pan el
E Y
ĠDI RECT
ĠS tr
tmp dir
ĠH o
ĠL a
Ġchar s
b order
CallbackImpl Base
st arted
ĠT R
x p
En ter
! =
re main
Ġ= >
ĠS p
vance d
ĠV AL
ler ance
Ġ# @
D RAW
[' _
') ]],
3 04
ri cal
Ġk lass
Ġbe come
Ġload ing
i os
hy per
ur tle
Ġver bosity
() ).
u aa
comp iled
u an
n y
a ff
assertNot In
Ġs cen
Ġme asure
Vi deo
22 22
al loc
ator y
ĠGe o
fig ure
2 74
---- --
add Widget
Ġsen der
Bo ok
Ġ ser
work flow
Ġ1 99
categor ies
Ġchannel s
P ick
OM E
pay ment
wri tten
imat ors
co in
Ġcon ven
; '
Ġ 99
G TH
Ġh idden
Ġhand led
ĠC ho
ç Ķ
Ġcode s
ch dir
ma zon
Comp ute
Ġ""" <
ir th
ĠAs sertionError
Bo unded
ti ck
Ġsuccess fully
In dent
port al
Ġse ver
Ġport s
us sion
fi xtures
B ound
format ter
publish ed
? \
Ġpy game
CL AIM
x D
Ġm ut
Z Z
in ct
2 19
H t
Ġcol s
Ġ[ {'
Ġedit or
Ġhome assistant
C CE
le af
can didate
Ġ[ {
Ġ9 0
C ell
al ler
ST IT
MO D
Ġf id
con sumer
cla use
Ġpro blems
Ġcon tact
Ġmark up
u ad
auth ors
cre ation
Ġexact ly
icro soft
M achine
ĠP BX
AB IC
={ "
ĠĠĠĠĠĠĠĠĠĠĠĠĠĠĠĠĠĠĠĠĠĠĠĠĠĠĠĠĠĠĠĠ ĠĠĠĠĠĠĠĠĠĠĠĠĠĠĠĠĠĠĠĠĠĠĠĠĠĠĠĠĠĠĠĠ
Ġtrans late
Ġconside red
Ġ2 09
Ġmap per
I teration
Comp iler
s qu
ĠOr deredDict
sw ap
__ _
] (
C ancel
L anguage
Ġn umeric
Data set
re ceived
dep ends
En gine
ne g
se gment
Ġexp ressions
Ġ| =
E st
Ġ" *
Ġvi sible
B IN
f tp
Ġthe me
Ġrun time
Ġclean up
er kzeug
E d
P N
uc c
vari ant
.... ....
č Ċĉĉ
ap t
Valid ator
5 01
Ġimport s
SH A
AB C
ĠW SG
Ġwe ek
tra cker
par ty
F UN
ur ther
ph one
NECT ION
her ited
Ċĉĉ Ċĉ
ĠCon struct
un expected
Ġst ati
ti fied
! ")
A IN
} ),
Ġp lease
mi tive
- #
ĠS PECIAL
S ite
is m
13 8
Ġhttp lib
Ø ±
Ġi r
__ ))
ĠN a
Ġto k
cp us
ĠCHAR ACTER
Ġ4 8
P K
STIT UTE
W ID
200 7
Cl uster
ĠS ec
check sum
ma ps
ud f
200 9
sup p
Ġ[ %
Ġstd in
code cs
G EN
} {
Ġin correct
dir ty
comm unic
EX AMPLES
ten tial
Ġf type
ST EM
; "
st mt
Ġcop ied
Ġ 74
Ġre d
Ġman ual
f w
DU LE
! "
LANG U
[ [
Ġimp licit
Ġra dius
NO WN
b ri
ĠU RI
man age
([ ],
fi re
B A
ĠU TF
Ġper cent
g c
x ed
h ot
v v
ĠP rint
ĠW ith
Ġfail ures
Ġre store
q t
Ġg test
ĠMe thod
Ġwho le
Ġspeci fication
Ġt mpl
IB ILITY
u ro
de pendency
an ity
Tag Iterator
Ġdir name
bit rary
//// //
N ONE
Ġrecur sive
Ġan gle
ĠN S
Ġn args
' ve
20 4
ĠMA X
Ġcoun try
13 0
ter ms
en s
CO UNT
< <
do es
Ġfin ished
a lert
Ġliter al
re ceive
ĠB ad
Ġcomp atible
f k
Ġca st
Tag Buffer
et ree
ANG E
St ation
ae mon
al gorithm
Ġbound ary
se titem
ld ap
Ġ er
it ch
Ġfa cts
Ġf unctools
F ull
annot ation
Ġ* =
Ġparent s
DOCUMENT ATION
4 32
SEQU ENTIAL
V C
sc i
14 0
F ITS
v endor
b ridge
ĠDIS CLAIM
Ġc ancel
Ġl d
lock ed
ti p
Ġ200 8
Ġdiffe rence
MESS AGE
Ġab stract
Ġ200 9
ĠA uto
al ways
ra in
Ġch r
Ġ\ "
WAR NING
n ers
FA IL
ise d
RE AM
an te
OPT IONS
Ġimple ments
ol l
Ġunder lying
ĠAR ABIC
o stream
ĠE OF
un ion
Ġt xt
Ġg ran
Ġfa ce
3 84
ci o
ctype s
cre dit
Ġg reater
b n
pre ad
metri cal
Ġat ol
Ġinst anti
ĠIn te
ER Y
u ca
OR M
O IN
ĠG iven
PO S
Ġdi v
d rive
t un
Callback Base
repo sitory
3 01
H ook
ten tion
sub field
arch y
Ġo l
Ġse lector
T ABLE
Ġm ultip
ĠB lock
A sc
Ġsetup tools
er ry
============ =
x m
re load
) |
Ġex cluded
ti os
# ////////////////////////////////////////////////////////////////
as te
iz ing
rag ma
Ġas set
L n
MS G
= \"
W in
Parse Error
Ġres pon
volume s
Get Value
g re
Ġ{ \
#//////////////////////////////////////////////////////////////// //////
B atch
Ġcheck sum
Ġcode c
ix Vector
pp ings
Ġstart s
en ded
Ġcoordin ates
ĠLO SS
R U
j ax
Ġrep ly
Serialize ToString
ĠCON SEQUENTIAL
ĠSUB STITUTE
Ġ ls
s chemas
ĠS olution
S cale
am ing
Ġcla use
d ll
F ragment
Ac cept
ĊĠĠĠĠĠĠĠĠĠĠĠĠĠĠĠĠĠĠĠĠĠĠĠĠĠĠĠĠĠĠĠĠĠĠĠĠĠĠĠĠĠĠĠĠĠĠĠĠ ĠĠĠĠ
RES ULT
ch art
Ġen tities
Ġpre ce
or se
a lect
Ġs s
quen tial
str ong
Ġ3 3
X R
N A
Ġe poch
Con sole
Ġbot tom
CCE ED
U an
ĠS ession
EN C
Ġdisplay ed
Process ing
i sis
c art
Ġfl ush
Ren der
ĠIN DIRECT
Ġqu eries
Ġoccur red
Ġf req
200 5
Ġy aml
Ġse g
PASS WORD
C MD
æ Ī
Ġ" @
(' ^
G I
GL IG
P lay
T ARGET
Ġ gs
GLIG ENCE
N ull
lib raries
Ġ layers
se ct
len ium
Ġsub classes
] }
fi dence
Ġs cores
De code
Ġta ken
Ġmask ed
P cap
u z
Ġb lob
Ġspecify ing
Ġarg v
Ġs leep
Ġpr in
Ġe s
( ("
Ġlog ic
Ġresult ing
Initial ize
en coder
Ġplugin s
Ġt w
U ES
pa tial
Ġpre pare
ĠCon text
th at
ro per
Ġma ps
W A
ĠPRO FITS
Ù Ĩ
Ġde c
=[ ]
sib ly
__( *
r ont
Ġ---- -
ep isode
ĠG OO
ar ding
Ġse nsor
Ġre produce
char acter
ĠSU CCEED
A ER
$ {
ĠĠĠĠĠĠĠĠĠĠĠĠĠĠĠĠ ĠĠĠĠĠĠ
ti f
Ġpa y
Ġe mp
Ġd uplicate
assertIs Not
N ixVector
Data Frame
ĠF ilter
Error s
RE C
ĠCon trol
P ON
tist ics
E V
Ġre ceive
mpl ing
ash es
Ġ tes
METHO D
Ġ' {}
Ġp lan
ab out
} :
p us
Ġindicate s
Ġxml ns
ł ģ
Ġsho wn
Ġtrans fer
let ter
ĠG E
Ġfunction ality
Ġfollow ed
ĠNE GLIGENCE
Ġlex er
ss ue
ff t
2 30
uf b
Ġcon sume
a de
STR UCT
pa red
AD D
ĠWSG I
FIL ES
Ġb el
Ġ4 5
wrap ped
Ġ7 0
local s
4 09
to k
D jango
g id
n secs
() ])
Ġr pc
mg mt
" ')
Ġre actor
host Ftdc
F B
c atch
Ġcomp uted
ã ĥ
W ITH
Ġjo bs
qu ent
Ġ'% (
ĠC IR
2 17
p ull
vi le
Ġr tol
U til
Ġp lain
parent s
RO P
CONT ENT
pur chase
SO CK
Event Impl
'] ):
ĠCOP Y
nb sp
201 6
b tn
ti cket
i mation
Test ing
ĠOr der
la ys
Ġfl atten
ĠA RE
Ġserial izer
vo cab
Ġwe ak
P bb
in y
Ġin voice
pri v
Char acters
d ating
int o
ten v
ri eve
ume r
Ġc t
2 18
Ġ" (('
H H
are st
Ġsuccess ful
Ġfrozen set
De ferred
al let
date s
b ulk
Ġp ending
exec ution
b p
comm unity
match ing
ĠDI AER
ĠDIAER ESIS
se udo
UP T
Ġsimp ly
r mtree
: ")
fin ity
ĠCur rent
LEN GTH
ĠL ay
ĠĠĠĠĠĠĠĠĠĠĠĠĠĠĠĠ ĠĠĠĠ
(" .
Ġshould n
ĠTensor Flow
con firm
me ri
Ġ3 00
en der
ns up
Ġun used
pre tty
Ġle ading
spa wn
T CP
Ġqu otes
po sitive
LO B
Ġag gregate
U UID
n at
ti ally
ĠR ed
E MAIL
Ġg c
u v
15 9
R UPT
c xx
Ġs in
ri l
ĠT hen
co ordin
mo o
precation Warning
an iti
ĠM atrix
ĠB oolean
h f
ĠM atch
ĠS Y
Ġge o
p d
Ġsepar ator
Ġf ew
A U
sub s
gen e
F lexible
shape s
01 234
Ġman agement
st an
ri ces
As sign
ar c
ĠDO WN
Ġg uess
Ġspeci fies
listen er
U sed
"] [
Re al
In it
', )
ĠMoved Attribute
EM ENT
ĠG ET
min ator
ile nt
Ġcol ors
ffe red
Ġcomp arison
TO KEN
Ġen ter
i k
Ġweb page
read lines
** *
Ċ ĊĠĠĠĠĠĠĠĠĠĠĠĠĠĠĠĠĠĠĠĠĠĠĠ
pa ren
Cur sor
s quare
et s
' >
T ags
ĠThe y
Ġformat ter
-+ -+
» å
Ex ample
ch a
Ser ies
Ġac ross
leg al
Ġl ar
P r
ĠS ince
func s
) (\
unc p
si c
VER T
Ġd ry
ĠFor mat
in ations
1 64
l c
Ġman age
Ġg ateway
Ġde li
pi e
--- +
Ġr ng
Ġcoef ficient
01 7
include s
=' %
Ġretri e
gramm ing
Ġ} ),
Ġlocal s
diffe rence
g inal
ra d
200 8
WN ER
A ss
L ong
Ġf allback
Ġ4 4
æ ĸ
Ġe f
bound s
ISE D
x fe
Ġst ub
Ġindic ating
cel ls
ĠK EY
vi des
ĠAttribute s
RET URN
G T
Ġm k
ĠSe lect
Ġresponse s
M igration
Ġal t
ĠP ack
for um
cod ings
Ġ{} '.
Ġab sent
case s
24 0
ar ing
get cwd
i di
Clo ud
Ġ ES
Ġc irc
F LEX
Ġf un
Ġref resh
Ġ201 7
Ġby groups
x FF
Con dition
A ctions
us pend
ç łģ
Asc ii
he alth
cs rf
ĠF L
Ġ3 8
sd k
Ġrelation ship
r ho
Ġt p
ap er
ect ors
ĠM ap
2 64
Tra ck
di ctionary
ĠLo cal
ext ras
some thing
Ġb order
gr al
Ġle arning
check point
Flexible ForeignKey
Ġg ame
foo bar
!!!! !!!!
me t
Ġare a
ç »
Ġget text
_ [
up grade
Ġh aving
2 16
15 6
č ĊĠ
ĠBo ok
v r
con cat
lin alg
ĠA ction
ĠE ng
Ġ ì
Ġnormal ized
ĠA CTION
Ġfig ure
J S
Ġe as
ca de
ĠA DV
Auth entication
CUM FLEX
Ù ĩ
ESS ION
ad j
~~~~~~~~ ~~~~~~~~
ouch er
ann ed
s lot
Ġdi alog
Pro gram
ro uting
Ġ* /\
R UN
ti vely
mp o
co eff
Sp lit
ls db
Aggreg ate
sub set
ĠJ zKet
ati s
Ġt ax
Ġ* ,
Ġde tect
Ġco okies
A X
y outube
Ġmin utes
du ces
EX EC
C AS
Ad ditional
DRAW NS
Ġ ------------------------------------------------
"] ),
OT E
full name
S creen
Ġinteger s
nor mpath
C M
la unch
ST Y
com men
k v
qu oted
Ġbase s
ty p
file no
ĠCIR CUMFLEX
ĠAl low
book s
leg acy
semb ly
ĠCOPY ING
() ``
ĠJ ava
file obj
r fc
'), )",
m n
er ce
Ġrequire ments
MP TY
Ad apter
Ġvari ant
ĠB US
Ġy es
Ġconstraint s
Ġp t
ST REAM
= \
k g
r r
Ġbase name
Ġdo ing
b ank
L android
c lock
ĠA P
M AC
al ive
Ġfil tered
Sh ort
Ġt ail
ve red
S ee
Ġ4 7
sig ma
in crement
Ġdi sp
Ġout side
open config
23 5
l g
_ :
work ing
ĠE mpty
ĠDe veloper
lap sed
fi d
ĠM ust
Ø ª
ĠEx ec
cogn ized
ser ted
Ġ/ ></
00 02
Ġ'[ ?]',
ĠP unctuation
As sert
P attern
IN ESS
Con struction
Ġadd s
meri ca
U G
> [
ĠS to
Ġinitial ized
s ched
jo int
Ġjo urnal
Ġb ib
Ġcateg ories
l and
22 2
Re set
nomi al
Output Stream
Ġme sh
ã Ĥ
cre ator
Ġdo m
Ġfile system
IC ATION
s yn
ĠPO SS
Ġc ar
ou se
domain s
) """
match ed
=_ ("
tz info
Ġbegin ning
20 2
G IS
Ġin cre
ch no
man ual
ient ation
En code
en cy
ther net
P DF
T ABL
Key word
ols r
TO OL
ue b
predi ctions
Ġn est
do cker
return code
3 14
] ')
Ġ' |
Ġpass ing
Header s
ĠSTR ICT
po six
i q
TL S
Re lease
k y
Ġw atch
Ġsub stit
b old
ĠP age
Ġgran ted
T X
IDENT AL
x ies
Ġdi dn
log its
exp an
Ġge om
Ġos v
Ġgo ing
Ġskip ped
ĊĠĠĠĠĠĠĠĠĠĠĠĠĠĠĠĠĠĠĠĠĠĠĠĠĠĠĠĠĠĠĠĠĠĠĠĠĠĠĠĠĠĠĠĠĠĠĠĠ ĠĠĠĠĠĠĠ
ne ed
Run ning
Ġe ps
ĠEn vironment
ĠDISCLAIM ED
ĠW AY
un g
sv g
f rac
Ġzer os
wh at
Point s
MO DULE
ĠADV ISED
P M
ĠI E
per f
04 3
emp loyee
c lf
ACT ION
ĠSU CH
qual ity
ĠG a
ĠE VEN
ĠAd min
sk i
gg le
ĠSER VICES
ĠINC IDENTAL
An y
ild card
Ġframe work
log o
parame tri
M EDI
in o
Di stance
ĠBUS INESS
Ġ 88
ĠPOSS IBILITY
4 01
Ġo auth
T lv
=" /
Ġ= ====
Ġro ll
FIL TER
j avascript
m ongo
fail ures
> ")
ĠN on
ati ves
Byte TagList
Ġpie ces
th eta
Ġf requency
J son
ins pect
ĠR andom
Ġfin ish
pectr um
CURE MENT
ĠINTER RUPT
L P
-------- --
pol ation
Ġeval uate
ĠGOO DS
tr al
Object Name
p time
min imum
b gp
Ġen coder
Ġcon sumer
sup ports
re ceiver
Config ured
WE VER
EMPL ARY
k l
ĠM in
ĠO p
exp licit
n ick
ut ation
F ixed
assign ment
ĠHO WEVER
ub b
ub a
ä¸ Ģ
ĠDAM AGE
v pn
H OME
INT EG
inger print
v g
bi an
nsup ported
Ġexten ded
ĠO K
b m
Ġmac ro
WR ITE
al tern
ĠIn stance
ĠTHE ORY
L ines
x ec
gener ated
Ġv lan
Ġcon d
ĠCA USED
h am
mark s
de t
ĠC re
Ġf amily
ĠI nt
ĠR el
ĠINTERRUPT ION
L AN
Ġi de
play list
ri er
ĠSE LECT
Ġh it
13 3
ĠEX EMPLARY
O pt
ĠPRO CUREMENT
29 4
Ġsc ra
IN SERT
Address Checker
INTEG ER
Ġl st
te nsors
EN V
ĠBy tes
l u
Ġth umbnail
pe ction
Ġsub set
ce du
I gnore
Ġcheck point
G en
Ġstr ategy
dash board
ver bosity
Ġcer tain
da e
Ġs mal
Ġla zy
S cheduler
Ġor m
Ġtry ing
cur r
Http Request
si vely
trans fer
Ġcomple ted
Ġso up
document ation
MB OL
Ġdefault dict
OutputStream Wrapper
C lear
lat in
ti fact
Ġar ticle
tin y
mark up
PAR ATOR
S PE
Ġp ag
Ġst age
xx x
termin e
Ġtime r
CA DE
Ġmap ped
p ip
ho od
PAT TERN
bind ings
w as
PROTO COL
' ")
ĠG ra
Ch unk
sym metrical
Ġcon tin
ten cy
F n
Ġc ach
IN DEX
g uid
FE AT
Ġimmediate ly
lev ant
s b
ĠD ist
Ġdistribu tions
i pt
' (?
I dentity
is c
Ġfi xture
provider s
Pro p
Ġa ff
pl ural
df s
mm ar
Des c
ad a
ifi er
Ġlog its
Ġc f
ĠL inux
Ġ-- >
Ġhandle s
Sta tic
ĠHo wever
PON SE
ar rays
sur face
Ġad j
Ġal ph
yn cio
Ð »
Con stant
ress or
Ġle ave
fo x
Qt Gui
__ ),
Ġlook ing
/ ?
w izard
Ġc ut
ci pher
dh cp
Ġ ke
constraint s
CC ESS
ç ±
issue s
Ġplace holder
ĊĠĠĠĠĠĠĠĠĠĠĠĠĠĠĠĠĠĠĠĠĠĠĠĠĠĠĠĠĠĠĠĠĠĠĠĠĠĠĠĠĠĠĠĠĠĠĠĠ ĠĠĠĠĠ
x aa
h u
ĠAc count
$ ')
OB JECT
SO URCE
pon ent
ine ss
Ġcan vas
ĠA L
"] =
token Queue
circ le
t ls
Ġf urther
2 66
ch at
type def
c ms
Ġdef er
LE FT
as c
Ġpro mote
BU FF
ĠR O
IO S
W W
IP V
Gra dient
ch r
ĠĠĠĠĠĠĠĠĠĠĠĠĠĠĠĠ ĠĠĠĠĠ
plan ation
f ort
Lo w
Ġ[ ("
ĠM ay
. '''
un ce
file system
Ġ2 04
b et
Ġlo gs
Ġ200 7
Ġc en
f an
check ed
Ġtr unc
ca y
Ġar bitrary
UP DATE
ĠP L
Ġget ting
F ree
Ġpro duction
Ġassign ment
c ustomer
de ri
leg end
LOG GER
/ (?
B S
è ¡
Ġlocation s
ORM AL
mp a
du al
Ġden se
p list
Ġw s
Ġrequire ment
ĠSt ash
l p
Ġa udio
Ġc e
Ġf ully
Ġad dition
d mp
13 01
_ ('
y a
qu antity
ent ropy
dep loy
ĠP AR
ĠO P
Ġbuild ing
k ely
con sume
ĠPar ser
ĠD ummy
set ObjectName
ER USER
ren ces
Ġsystem s
Ġus ually
Method s
"" ,
oc ab
Ġcoordin ate
Ġpro cesses
Ġsever al
2 33
Ġread y
R ed
34 5
1 0000
Me dia
âĢ Ļ
mm utable
Ġsen ding
Ġcur rency
Ġm icro
EN AME
ĠAdd ress
; ',
Ġto l
In sert
ar b
RO W
Ġcom ma
TEST FN
M od
_ ='
Ġover ridden
sto red
separ ator
ĊĊ ĠĠĠĠĠĠ
qui et
Set s
in ity
VE L
kw ds
-------- -
37 5
xe f
M EM
R GB
ĠRe distribution
P ublic
Ġstate ments
fi rewall
Mo ve
FOR MS
res ume
ACT IVE
pa per
ĠB ack
form set
Ġ 87
W ord
Group s
process ors
WID TH
+ =
Ġa lert
Ġc are
Ġ"{ \
recur sive
DE VICE
CHE MA
h g
de serialize
> ).
ĠSt atus
Create d
Ġform set
o red
ĠE nd
Op tim
Ġte nsors
at z
Ġp b
89 7
Ġ 86
Ġl n
ĠT ABLE
ĠM ac
DO M
Ġcomp iled
(" #
utc now
pro files
Up load
Ġmer ged
ï¼ Į
Ġhy per
f allback
AM L
Ġ' @
Trans action
../ ../
response s
uc b
di cate
Ġperform ance
uit able
c ac
i den
s nap
Ġ'$ (
Sim ulator
Ġfa ct
Ġqu ot
2 39
ĠM O
M ARK
ĊĠĠĠĠĠĠĠĠĠĠĠĠ ĊĠĠĠĠĠĠĠ
O UR
Ġi rq
index es
' /
čĊĠĠĠĠ čĊĠĠĠ
Ġb lue
Ph ase
C alled
mbo lic
a head
con ditions
86 13
E val
OP EN
x ac
Ġ$ {
so up
Struct ure
ĠM on
lic ations
o v
Ġw indows
Ġfile path
[ %
Ġ6 8
Ġgener ation
ID D
box es
Ġman ually
S cal
Ali gn
In cremental
200 1
Ġpar allel
Ġco s
---- -
Ġzip file
number s
Ġretri es
? ?
h h
15 4
trans pose
x sd
Ġtoken Types
s uch
le c
ĠA WS
6 55
ĠB asic
valid ator
Attribute Error
Ġ1 39
we ak
(' ''
Ġde tail
Sign ature
Ġp g
l strip
Ġde ps
tri bu
Ġp red
In st
Ġx module
CLI ENT
LE MENT
ĠSt orage
speci fied
cid r
Wifi Mac
C B
S w
u lip
ch rome
å į
assertIsNot None
m aterial
Â ł
Ġdep ending
Ġb s
Ġp laces
] =
Ġ' '),
Ġs ucce
D raw
: </
ĠM agicMock
ne eds
Ġlog ged
c df
Ġg amma
s ses
14 4
Ġin p
xa e
á ĥ
te ll
Ġep isode
u ght
Ð º
ĠOper ator
DI FF
Ġtz info
ite cture
So ftware
ĠQ ueue
ĠSt andard
UR ES
ha lf
scall s
w t
ĠP a
est imators
Ġper m
Ġp andas
Ġpo six
Sum mary
x ab
communic ate
Ġ""" ,
AR B
ĠAT TR
D one
\\ \
reate d
Ġdi gest
Ġ5 6
ue f
sub scribe
mis c
AC CESS
ue d
Ġb us
Ġcomp ression
Ġrestri ction
ĠZ Z
Ġs ched
Inter rupt
file names
dia lect
C LE
ĠVi ew
D en
Ġoper ators
ud c
iv y
XXXX XXXX
in et
IN VALID
presen ted
B AD
module store
2 77
A merica
h p
ca pacity
Ġ'- '
Ġ4 9
Ġgover ned
expand tab
builtin s
Ġsign als
20 5
æĺ ¯
P anel
20 8
Listen er
ad apter
ua f
roper ly
3 17
ĠCF G
C LO
b roadcast
ul se
Ġh ad
Ġse ctions
config urations
Ġli ght
parametri ze
str ptime
Ġr and
Defin ition
ĠO ri
Ġbound s
g uest
L B
el low
pa use
ex periment
An sible
b log
16 9
ĠAUTH ORS
ction aries
re cipient
inter cept
Ġsto ck
20 7
ĠT YPE
22 3
E scape
ug gest
ci on
S IGN
gra ms
re served
St andard
Ġ" $
Ġare n
uc f
Ġac cepted
Ġre view
ab b
Ġla unch
SUP PORT
Ġbro ken
add ons
shift width
ub f
ĠTh at
lit tle
Attribute Construction
AttributeConstruction List
SH AR
Ġw erkzeug
(' __
fe e
Ge o
)) ]
čĊ čĊ
S B
Ġat tached
Ġ4 3
) ._
] |
analy tic
li der
ĠU UID
ŀ ĭ
Ġp ull
EXT ENS
b z
r gb
ĠM et
xb f
al ph
ue e
[ ::
ri e
EG IN
å ®
uf d
Ġb ias
scri ber
let te
ĠT arget
22 6
or ical
ĠDE BUG
Ġs alt
or a
i prot
orn ado
x ad
IGN ORE
2 36
M ON
Ġshow Indent
roll back
Ġg ives
Ġ\ '
Ġnames paces
s rid
Ġin iti
Ġiden tify
Ġs olver
uplic ates
H AVE
ĠS phinx
ol ation
Met ric
set attr
abc def
mode s
12 1
bound ary
D Y
__ :
Ġe t
gener al
ĠCreate s
sp fv
QU E
soft tabstop
Ġto gether
& #
m argin
* ,
de sk
define Dict
ĠCorp oration
STAT IC
ĠX code
Ġb roadcast
ĠB it
Ġsign ed
I I
ub c
f m
xb b
Ġassume d
Ġde tected
add Callback
Argument Parser
Ġp ys
18 4
Ġlanguage s
du ser
ne utron
or ator
th ree
Ġ% .
S witch
: ]:
ĠF in
xb d
Line ar
v ault
min utes
20 3
) ``
Ġc txt
Test Suite
Ġsub scription
Ġre fer
sign als
21 10
Ġoverride s
Ġ" ".
REG EX
é ĩ
Ġw heel
ua e
Ġ ################################
col lector
xe b
Ġcat alog
hand led
Ġth ough
Ġin f
Binary Protocol
smart indent
Ġu gettext
ril lic
r ating
Ġmag ic
url parse
A tom
pre p
AMP LE
Ġde coder
Ġreal m
ynchron ous
R ST
rec tives
Ġconver ter
). """
y thon
Ġ' :'
ag ers
Ø§ ÙĦ
ĠM IT
go ing
Write Ln
ĠH E
16 5
CF G
erry py
Ġs yn
Ġ[ #
ron tend
Reg istry
wa ve
Ġlook s
d ry
lex er
Ġpl atforms
Ġ"/ "
CA SE
CO D
u u
15 2
Ġma king
ro wn
uc d
Reg ion
es h
ur lopen
Lo cator
Ġup grade
te t
caten ate
} ]
FT DC
æķ °
le arning
A UT
co verage
(' {
2 88
* '
max imum
ĠHe ader
Ġacti vation
riteri a
content types
Ġdef initions
P ay
Ġ4 6
iver sal
re moved
Ġg data
Ġ> ::
Ġ' {%
build s
cedu re
P F
f fi
Pl atform
S mall
x be
In line
ĠRes ult
3 77
U sing
SY MBOL
Ġpol l
Re po
Ġun expected
Event s
={ },
ĠL td
Ġcontain ed
B its
sv c
REQU I
Ġlisten er
Ġdate s
(" _
Ġscript s
ar ante
(' \\
m and
min or
comp ressed
T S
ĠAs sert
pa que
stru ctions
mac ro
Ġwh ite
ĠST ATE
cs r
Ø ¯
Ġreg istration
ĠAS CII
Qt Core
c as
Ġweb site
m ass
() .__
MET A
cap abilities
dis connect
22 1
chunk s
Ġin tern
ĊĊ ĠĠĠĠ
Ġend orse
ar down
DE P
Ġj inja
BUFF ER
P layer
i j
Ġst and
Re present
CH O
cry pto
COMM AND
doc test
Ġper formed
D rop
n f
æ Ĺ
Ġf c
ĠL abel
Ġca lendar
Ġre cipient
Ġh old
ĠP lace
ue c
ĠS end
N EL
ff ers
P ush
ACK ET
mo vie
ĠA ss
uf c
u dit
ĠRe quired
fetch all
f requency
and box
CO M
Ġb ra
("" )
Ġ ----------------
Le ss
ub d
i ties
Ù Ĭ
multi part
click ed
Ġ ĊĠĠĠĠĠĠĠĠĠĠĠĠĠĠĠĠĠĠĠĠĠĠĠ
TABL ENS
ON LY
Key Error
ar tist
01 2
Ġsh all
feed s
Ġs ilent
Dis k
Ġte ll
> .
I FI
------------ --
th ird
Ġfull name
s olver
Time stamp
GR AM
Ġdecode d
Ġli sted
33 3
ro bot
ĠIn fo
6 74
Ġ5 5
ub er
Ġ5 7
Ġg ui
Create s
Ġwait ing
roperly Configured
b ing
Ġ" ":
Ġ""" \
A E
Ġv e
03 9
RES PONSE
Ġitera tions
tera ction
ippe t
D ummy
de veloper
man aged
v d
st ation
Ġac tivity
LO AT
IE W
ĠURL s
S CHEMA
` )
ĠB ut
top ology
Bo ol
Ġ Ċ
Ġc ells
ĠG RA
Ġqu oted
ĠMy SQL
qu it
me ans
xf b
sq lite
p laces
ĉĉ ĉ
oo se
Ġformat ting
Ġdebug ging
bu fi
Ġch art
s ho
CAS CADE
ti cks
Ġc mp
16 6
00000000 00000000
Ġ" }\
mo use
Ġinv oked
ta ke
201 7
p ci
t cm
Ġ" :
Ġde limiter
Ġalign ment
ha red
Fe atures
PO INTER
MS Build
C om
ĠC ore
Ġ' !
f q
Ġth ird
] ",
g ge
abstract method
ur lencode
ç± »å
ĠSy mbol
S afe
T here
Ġdi git
36 00
Ġ linenum
st ic
]+ ',
ĠF l
Ex port
D K
re start
Ġ` ``
Ġsig ma
xb c
un named
Ġe ff
ast ic
Ġis o
Temp orary
xf c
Ġlimit s
ĠFL AG
Ġra tio
"> </
T OP
CP U
Ġissue s
2 99
Ġreg ression
xc d
DEF IN
x fa
Ġre cv
Ġ-- -
ĠL ink
Process or
3333 3333
), (
04 4
Ġag ree
20 6
Ġhelper s
to ur
Ġre start
si a
ĠSet s
sh op
04 0
ĊĠĠĠĠĠĠĠĠĠĠĠĠĠĠĠĠĠĠĠĠĠĠĠĠĠĠĠĠĠĠĠĠĠĠĠĠĠĠĠĠĠĠĠĠĠĠĠĠ ĠĠĠĠĠĠ
Ġi te
ĠU Int
pon en
ĠF rank
ĠH ost
S ync
Ġt reated
ri cs
rand n
ĠEx ten
ĠData Frame
R ENT
A ST
Ġprevious ly
15 3
No tification
Ġp db
ch apter
V ari
e ager
Ġ5 12
He ad
I ZE
Ġdi stribute
_ =
0 64
po ses
ĠD NS
Max imum
ç±»å ŀĭ
r hs
t u
Ġle af
ĠEx tended
ue a
ph i
Ġwork flow
has attr
Ġsm art
A fter
AT H
Ġe qu
Ġmo unt
A ck
Model Admin
super user
To One
vi sibility
me sg
Ġnet loc
skip Unless
bot o
Del ay
xb a
PL AY
s park
Add r
bin s
Ġpix el
Ġh ack
Ch ain
ĠJ OIN
Extra ctor
S ynap
per form
Ġb r
ĠStop Iteration
Ġro les
A xis
Ġto po
Se lector
qu anti
2 37
15 7
w wn
or th
D N
H AND
IT EM
e Start
Ġ" \\
IT ER
Ġpro ps
work ers
fo c
15 8
a el
Ġe gg
Ġwh y
I ts
S CRIPT
Ġa ws
Ġe igen
17 0
co hort
for ma
fo ot
Ġanaly sis
Exten sions
f x
ub y
ĠM igration
wi re
ĠGRA VE
si mp
") ]
Ġlink ed
UFF MAN
ĠLib rary
CON TEXT
l ar
n av
Ġimport ant
22 7
ä» £
Ġcm ds
pro duction
uto ff
qu eries
19 6
Ġd ag
Ġx b
assertRaisesRegex p
py c
ĠQU OT
al one
sc r
Ġinitial izer
ra dio
Ġh ier
ĠH UFFMAN
non zero
ä ½
conver ter
ĠOver ride
vo cation
edi table
re tries
is ing
Ġcon sider
1234 56789
)) ),
valid ators
ATE G
spa tial
script ors
Tra iler
Ġs lot
Ġb and
ra vel
is ation
x block
cal ler
; ')
Ġth row
Ġfile obj
Ġl b
Ġhour s
Ġt or
å ¤
sub dir
to do
pick ing
w ho
Di ff
AR G
Ġ5 4
Ġlevel s
22 9
par sing
Ġdi alect
post gres
Rou ter
( ",
Ġf h
b idden
Re served
ĠP ort
Pro gress
ĠSe quence
Ġmp u
Object s
xc b
assert HTML
Ġre versed
W h
Content Type
Widget s
< !
semb le
ĠF AIL
PRO CESS
s udo
Un its
level s
H I
pe p
Ġos lo
o bs
un do
chedu led
ĠE mail
may be
Ġdo cker
sis tency
Ġtar info
30 2
] -
01 6
R M
k lass
ti lities
14 8
i ms
Ġf rag
Ġno tify
Ġli ve
di um
Ġno se
analy sis
ĠFrank lin
h orizontal
lin space
Ġauth ors
an ted
ĠN ON
ad s
ĠCON NECTION
ak ing
deg ree
on ic
oc us
w rong
ol den
Ġspa tial
ti cip
ĠC opy
Ġ[' -
f rag
ĠQt Core
30 9
Ġindex es
66 6
Ġhappen s
sc en
Exec ute
de ad
Ġ& &
ĠS im
Ġt y
Ġ' {{
ĠC er
20 9
Ġv ec
Ġsk b
S l
d w
Ġv ocab
dat as
Ġoptim izer
.+ ?
d temp
qu ant
Ġm iddleware
Ġclo sing
f u
m orph
exten ded
Ġp hy
not ation
en c
Ġad just
> """
al ter
n m
min ute
84 3
ro ve
Ġmodule store
rol led
24 8
dae mon
assertHTML Equal
P G
rou ped
) "),
i ris
[' %
! ')
Ġp print
ĠS ave
x df
Ġc lip
Con v
Ġchar ge
By Name
Edit or
con fir
16 7
Ġsw ap
c annot
Pro pagation
Ġend s
xe a
Ġ0 2110
14 9
velo pe
ne ighbors
24 9
xa f
patch er
LANGU AGE
re tri
exten ds
f type
. </
D AL
17 4
Ġstati stics
aaaa aaaa
NE W
O b
mag ic
Ġre presented
tifi er
real path
l un
sur vey
T wo
ses sions
an chor
xc f
COMM ENT
Ġacc um
Ġite ritems
Ġ ut
Ġv ectors
Ġshape s
ĠAc cess
Ġescape d
F inder
01 5
Ġinitial ization
Wifi Mode
mpa ign
2 25
17 6
am b
ĠG tk
ĠWor k
UNK NOWN
Ġpix els
z oom
Ġma intain
ORD ER
ĠF a
Ġappe ars
D NS
pa gin
NotFound Error
B roadcast
se quent
xd c
IT ION
: /
P op
4 03
remain ing
op enerp
ta cts
child Nodes
Ġc ss
ĠB R
17 2
Ġper mit
equal s
" ;
W M
ĠT ree
ET IME
ĠPro tocol
ĠA LL
U DE
c x
h dr
Ġso ft
Sup ported
parser s
as m
ĠR ule
: ,
01234 56789
Ġtermin al
P lot
Ġm argin
Ġt ries
ĠDE VICE
re pos
ra cle
Ġco verage
C isco
con t
T D
reg istered
fin der
ĠGe ometry
| |
Ġcan onical
mut ation
PRO JECT
SI X
Ġf all
13 1
88 88
Ġf ore
SER VICE
Ġproject s
Ñ ĥ
Con struct
Ġs chedule
{} '.
ä¸ ª
i face
w ers
S ys
ar ily
Ġr s
M erge
Ġsub mit
3 32
N ORMAL
Sign al
mo bile
Ġcho ose
19 8
gen ce
Ġco me
Serial ized
Un ique
ne eded
Con structor
l as
Ġm id
Ġprocess or
ĠEn able
Ġp ragma
IP S
5 74
E nt
et ag
W O
MO DEL
LE VEL
I AS
ĠM ain
Poly gon
S ur
ĠH elper
connect or
man ent
e of
(" [
L AB
ĠU sage
Ã ³
Ġs izes
ĠN ormal
regex p
re vi
IN ET
Ġin crement
]) [
Ġ================================================================= =============
mask ed
80 7
pr inter
D ump
ĠR PC
V IS
un defined
j p
t an
pe dia
F inal
bo th
fil tered
Cer tificate
boot strap
Ġhigh er
W ER
Ġun defined
lo ok
Its Me
Ġs uitable
Ġto day
ĠRe ference
Content s
ce ler
PRO C
16 3
=[ ('
Ġmean ing
Ġre name
ĠQUOT ATION
Ġ% %
a fi
ĠNe ither
= """
x ce
Ġto do
B OT
M ore
clu ding
io dic
G u
Ġp p
') ).
87 6
Ġframe s
G di
P D
ad just
op ro
Event Id
d uplicate
om ial
Ġwidget s
uti ful
('/ ',
Ġ%} {%
Ġpre serve
æ ī
Ġ å
Ġp in
Ġdi ctionaries
run s
ang ular
co urses
Ġpl ural
non ce
ĠO GR
... "
PY THON
ĠO WNER
ĠCa che
Ġ"% (
Ġqual ity
Se q
p at
v in
d up
y ield
ĠS ET
pro cesses
C G
T r
data store
a res
ĠE num
ĠDe f
P lace
à ¤
Ġt k
Ġdict s
hex digest
30 3
H igh
de clar
Empty AttributeValue
19 4
15 5
Ġd x
SE D
fl ash
ĠAd ditional
Ver tex
ĠExt ra
me ter
al i
un e
WIN DO
ĠInitial ize
ta iled
ĠCon ver
r w
/ ",
() ['
Ġd ash
Ġc id
s ink
36 0
Man ifest
Ġ( {
ab ic
Ġrepe ated
require ment
if th
89 5
Ġoccur s
c ube
g ent
vid ing
ver ti
imple mentation
) ['
ĠF loat
v pc
CR ET
decor ators
3 18
n ic
80 6
/ $',
Ġis subclass
ĠP e
x db
ä»£ çłģ
m ixed
Ġposition al
... )
Ġleg acy
NAMES PACE
in p
Ġ" {}
op ener
Ġrepe at
ĠO PT
Ġ5 8
root s
Ġtri m
14 6
19 7
' #
ce d
ure ment
ĠN UM
Get Integer
TO DO
Comm it
M a
^ ^
c g
s olve
w kt
ĊĠĠĠĠĠĠĠĠĠĠĠĠĠĠĠĠĠĠĠĠĠĠĠĠĠĠĠĠĠĠĠĠĠĠĠĠĠĠĠĠ ĠĠĠĠĠĠĠĠĠĠĠĠĠĠĠĠĠĠĠĠĠĠĠĠĠĠĠĠĠĠĠĠ
base s
Sup port
decor ator
w ind
in verse
ado op
ĠO Auth
pr in
sub type
äº ¤
s paces
Char s
Ġe cho
Ġ[ ['
sh ard
Pro gramming
St at
c name
Ġ7 5
T IM
ĠC PU
config ured
imp orter
UT C
ur a
= ",
ĠG raph
P FN
code name
01 4
IC ODE
p le
Ġ6 7
P atch
log out
Ġ_ (
re quested
Ġ6 5
ĠSH A
ato ms
ri t
ĠD ES
bal ancer
i co
B ER
)) [
B ro
u ck
de tection
stru cted
Or g
Ġh uman
ĊĠĠ ĊĠ
4 56
ro om
ĠF rom
un ix
ĠS ite
. ':
14 7
Detail s
as ing
Ġd aemon
im ize
Ġannot ation
Ġ' ..
Ġcl assi
24 6
Ġp df
co pi
zz zz
ST OP
vi ded
ponen tial
q os
Ġex periment
Deserialize FromString
Map per
Sparse Tensor
Ġdep loy
Ġ> ,
gd al
: ')
Di ctionary
Ġf oreign
ĠT uple
table name
ex tent
Ġcontrib utor
test case
Al gorithm
B D
def er
ĠD istribution
Ġimp l
Request Handler
T ON
x da
sc ene
Ġattach ment
Ġother s
Ġj ava
Ġhigh light
Re play
Ġapp ended
} _
Ġ --------------------------------
g pl
Ġco ord
G ame
() '
T I
ĠF rame
b es
Ġf an
Ġde pendent
QU ERY
oriz on
ĠBytes IO
Ġhere by
Ċ ĊĠĠĠĠĠĠĠĠ
Ġvalid ator
ĠUn it
Pri ce
Coun ter
ct rl
fetch one
############################################################################## #
x de
ĠP h
Ġnetwork s
are house
Ġaccept s
] ;
SU FF
cket s
ifi es
Ġsepar ated
m irror
Ġma jor
Ġ5 3
ĠIn venio
relation ship
gge red
i ma
USER NAME
Ġv tk
22 8
Ġ| |
Ġcomp o
Ġcap ture
([ -
hint s
3 74
co pg
Ġcl assifier
ĠImp roperlyConfigured
S PACE
ur m
WA IT
'] }
ĠR ES
f loor
Ġs cheduler
Ġembed ded
Ġstride s
pe g
imp licit
ue s
x ca
ID E
G reater
Ġ ########################
Ġdescri bed
ĠE ntry
PE CT
termin al
po licies
36 8
ci dent
80 8
callback s
Ġu tility
Ġdep end
ĠHe re
Ġsize of
ĠDi ctionary
64 8
U C
Ġlog ical
new line
Ġc ard
ul ary
Ġ3 02
\\ \\
4 29
Ġfin der
24 7
cla re
g win
Bounded Big
f rozen
p db
de e
Conver ter
x cc
ĠDe le
2 84
Ġlocal host
a ux
Ġeval uation
F etch
Ġmark ed
tuple s
board Interrupt
B undle
B uf
annot ate
Ġxb mc
Ġb lack
av ailability
Ġsq lite
con c
par allel
Down load
b irth
6 86
g ray
Ren derer
B F
R F
al bum
Ġc ipher
mo tion
ĠF ail
15 1
With out
3 54
C trl
ĠMoved Module
C ERT
clo sing
ĠM SV
Ġdest roy
Ġqui et
x ee
temp erature
Ġnode list
x dd
ĠRe port
} ')
ĠU sing
atom ic
ĠB ar
a mo
le ast
User s
ĠTh read
W hen
last ic
"," %
iz ations
17 9
Ġ200 5
] ?
ti ll
annot ations
Ġfollow s
TE MP
Ġg zip
Q Q
I LED
Ġs olve
temp dir
Speci al
Ġ6 3
xf d
Ġ' '))
a h
U tf
Ġsec ure
ĠID s
K T
, **
ĠF loor
id le
I ds
ĠI ns
17 7
G PL
e ach
Ġpredi cate
s ter
Ġ1 23
IN F
b box
Ġ' </
l hs
qual ified
par agraph
i fic
Ġa ge
To Type
epoch s
Ġqu ota
Ġti d
Ġf our
c is
16 1
Ġle arn
commen ded
Ġ( ),
: ].
ĠSpeci fies
ar ound
Ġm i
{ \
dar win
Ġt ornado
Re place
ag greg
al o
Ġb i
RE PL
ĠI mple
> /
S F
de scribe
ĠConfig uration
week day
Ġbind ing
2 86
Ġl r
ute x
inter pre
st roke
def erred
ch mod
Ġ[' <
hand shake
A ng
33 7
... ,
re stri
serv ations
d ue
Ext ract
an onymous
End point
chan ism
M aster
ume rical
CO OK
32 6
Ġag greg
Ġi ris
sc ra
ĠMe dia
Se cond
author ized
19 0
Trans fer
y ang
mo zilla
ĠComp onent
Sub Element
vl c
] )))
23 1
foreign key
Ġ> '])
UN CTYPE
current Token
Ġdetermin ed
ĠP i
le ave
Ġcon sist
Ġcap t
Ġmay be
6666 6666
ĠDes cription
Ġen dif
Min imum
map ped
le nt
Ġ" &
Ġe g
Ġin tended
Ġpar a
(', ')
th row
pl oration
vide os
Ġin verse
TR ANS
çĶ ¨
ĠT EXT
bu ilt
3 55
C AL
M I
24 5
desc r
Tests From
Ġd c
80 2
Ġli kely
Id x
E l
N D
doc string
Ġinst allation
A ctor
S hould
thread ing
D AY
w heel
ur st
Ġt gt
sh uffle
EX CEPT
C la
Ġexp anded
moo th
r ink
Ġa ux
lf ile
Exec ution
Ġs quare
Ġpol ling
in strument
p od
SUFF IX
ig nored
$ ",
V O
D ER
Ġex ce
Ġperson s
Ġen ergy
war m
be low
Ġmulti processing
() `
So up
ĠLay er
04 1
ĠSet tings
ten ance
2 12
3 99
Ġr ing
32 0
ĠF ifth
å ¼
Ġpro d
Path s
) })
m f
in ds
C N
ir cle
T Z
expi res
cur ses
] /
he st
data sets
Ġ ĊĠ
Ġ' ').
F ROM
Ġme mo
vi gation
H z
ph rase
Re q
out line
Ġexten d
ĠPro duct
Ġin serted
Ġm sv
Ġmo ment
== "
Ġ4 1
Res olver
ĠDo es
Ġvari ance
Ġprob ability
34 4
Ġinterpre ted
24 4
TH O
'' ')
18 5
in formation
si ted
87 9
ĠSy ntaxError
Ġ`` __
sk y
t mpl
) `
ĠT iny
Ġw sgi
Ġab ort
Ġup on
Ġbyte array
Ġm iddle
Ġas cii
Ex ternal
Ġfi rewall
) '),
'] ])
cap s
ĠL et
per ms
Oper ations
dd t
j j
re si
Ġb enchmark
ich ael
foo ter
s lave
Ġl hs
node Type
D P
Ġx y
30 5
Ġexp an
ite ration
Fa ctor
Ġpredi ction
Modi fied
25 1
] ")
v ated
ci se
Ġad apter
17 8
Ġcho sen
Est imator
D ist
ĠF ILE
Author ization
H ome
ĠC L
Ġse gments
g tk
par titions
01 9
cal culate
que e
ADDR ESS
read able
ĠSet up
17 5
S ig
ĠValid ate
Ġn t
87 5
i lo
be at
Ġn an
ER O
join ed
Ġretrie ved
cap ture
Ġcon figs
Ġc d
R ON
s un
Ġ(' -
D Q
g uess
16 2
Message Type
PFN GL
C lick
J zKet
w c
Ġdef erred
os pec
Ġpath name
release s
Wi max
ĠDist utils
Ġmode s
Ġnode Name
ĠIN TO
Ġsh utdown
B UT
M Y
v p
xxxx xxxx
S core
ang er
e th
Ġv irt
ĠSp lit
r ss
ARR AY
ĠTe chno
ĠĠĠĠĠĠĠĠĠĠĠĠĠĠĠĠ ĠĠĠĠĠĠĠĠĠĠĠĠĠĠĠ
(': ')
sione d
ill ing
top ics
Ġpur pose
v tk
Ġse ll
_ "
Ġdi c
Ġsee ms
acti vation
idi ty
Ã Ń
T V
y ml
14 5
Ġlimit ation
u str
skip ped
Ġres olved
Ġs g
il arity
23 8
cip al
g iven
second ary
h it
Ġobtain ing
Ġcomp ress
Synap tic
J ava
col on
Ġde claration
rep orter
p open
Ġin coming
me try
ĠCh romium
ĠTe am
Ġo mitted
comp ose
ĠAb stract
Ġw izard
CO MPL
ĠQ Q
ch es
ber t
Ġpay ment
C ALL
se ason
H W
for k
ĠV ector
Ġg db
Ġno ise
AS CII
ĠLo ok
O k
GEN ER
Ġs vn
AL LOW
ATTR IB
S ING
Ġpo tential
re present
Str ings
ase d
pack ed
Ġg lyph
Ġmin or
Ġpost Synaptic
Ġav g
ĠPar ameter
T ry
30 7
Ġattemp ts
Ġs r
S napshot
en rollment
F ix
N G
ĠT emp
ann ing
ren derer
80 9
Check s
() }
ch n
me mo
Ġtar file
ver tices
comple ted
ge os
Ġw ire
Ġcon fir
e ven
Ġc lock
), ('
path name
Per f
Ġpor tions
Ġcon sistent
================================ ================
document s
tri m
Av ailable
ĠPl ugin
serial ization
initial ized
30 6
ĠD EL
FEAT URES
ĠU TC
]+ )
e ItsMe
Ċ ĊĠĠĠĠĠĠĠĠĠĠĠĠ
Ġs low
Ġz lib
Ġ' *.
r g
Mon itor
C V
Ġa ir
ri ch
Ġpo sitions
2 10
14 3
Co mbo
G O
ar abic
25 7
Ġde ad
64 9
Variable s
p pro
30 8
Ġc nt
con struction
Ġr d
ĠIn ternal
org an
ĠPro xy
Ġt abs
min us
As ync
expan duser
er nel
Ġh w
de tect
Ġ/ =
ate ver
Ġ â
sp rite
Ġn n
18 8
V IEW
Ġres olution
Get Serialized
Packet TagList
Ġren derer
foc us
Ġt urtle
77 7
Ġg reen
mer z
Over ride
Ġgu arante
pro vision
GetSerialized Size
(' [
(( (
re ferences
par a
ĠCol or
__ '):
Ġm ar
Wor ker
, (
Ġen c
SET T
ĠT LS
Ġnorm ally
# :
Z one
C s
84 0
Ġreference d
BB I
hash es
I FT
po ols
h ic
Ġcon firm
ig hest
uest ion
E K
]) ]
Ġ little
') ;
ĠV irtual
ĠDis play
en queue
Ġan chor
Ġ: ]
no ise
89 0
čĊ čĊĠĠĠĠĠĠĠĠĠĠĠ
F LOAT
Ġqual ified
ma v
k mi
Ġme n
check box
FR ING
import s
ĠDe vice
m ix
Gener ated
B us
Re vision
AR M
32 1
Ġcl assification
Ġker as
} ))
ĠC lean
mb le
aa a
3 88
B r
pa gate
gra ded
St d
ĠSP RL
Ġ6 00
dep loyment
g reater
ise ct
en crypt
Ġm ysql
Ġ2 000
Reg istration
SU CCESS
14 2
Ġ6 55
ĠE T
Ġde serialized
Ġrange s
c amera
Ġd up
AL F
IP v
Ġre levant
sh al
ib ling
SY STEM
d al
n w
Ġx block
iv ing
Ġ200 1
Pri vate
FRING EMENT
Ġc trl
B RE
Ġgra mmar
R ot
L ONG
j inja
ĠFor ti
! \
B IT
n cy
ap is
Ġdata sets
Ġ[] ):
__ [
ĠN ull
18 9
39 0
ĠCal culate
Ġf ar
Ġsur face
web page
' -
stream s
st able
* "
æ ł
09 6
Ġpos sibly
Ġ licenses
Ġi dent
I ter
'] ).
01 1
Ġimp orter
Ġcomb ined
29 6
LOB AL
H S
Ð° Ð
ap ters
node list
Decode Error
cre ts
tes ter
reg ression
57 6
gorith ms
Ġin c
Ġ1 27
c inder
ĠLine ar
res olution
ĠP R
Ġx path
te arDown
Ġconn ector
Ġcr ash
G ateway
out ine
14 1
Ġclean ed
am ble
Ġ* /
Te X
Ġmo ved
UN ICODE
Exp and
Y es
Ġwho m
Mark er
D imen
32 7
Ġ6 9
29 5
Reference Count
publish er
in a
size of
ĠLo cation
64 4
ffer ing
fd m
, [
ĠC LA
Ġdata store
BoundedBig AutoField
æ Ĭ
Co ordin
M IT
Ġco mes
auth entication
Ġpl us
ĠAdd ing
end ly
h old
as sets
Ġses sions
, #
w ide
( .*
pe m
Ġexpi res
Fi xture
G Y
base dir
O VER
Ġmime type
C ard
25 8
Pa ir
Ter min
os sible
re aded
64 0
To ols
ini ti
Ġembed ding
mk dtemp
E LEMENT
b lah
à ¡
G ate
L ike
i ence
cnt l
******************************** ********************************
CT hostFtdc
C XX
Col lector
g zip
Ġ lf
27 0
Ġcoefficient s
M icrosoft
ĠT E
Ġcalcul ated
sca ler
ĠExten sion
cl assi
Tag Name
Stub Out
ĠF OUR
gr p
ver tex
ĠElement Tree
Se lected
y our
Ġ ERROR
ch allenge
Ġpre dict
3 59
BIN ARY
0000 000000
Ġgener ates
Ġ ul
ĠEng ine
H istory
^ \
di rectories
Ġh alf
Ġcomp ressed
Ġ', '.
4 54
M agicMock
de coding
ĠT race
Se par
ĠCo mple
( %(
p ic
B rowser
H ex
Ġextra cted
ui tes
L i
89 6
rel u
G LE
Ġd y
ĠM is
V OL
O URCE
B ranch
Bad Request
ĠRo ot
NET WORK
F ill
align ment
ĠGE OS
R T
19 1
ograph y
m or
Ġsen se
exec utor
Interface Address
19 5
Ġdo ctype
pen ame
trunc ate
Ġ0 2
With Mock
Ġ5 2
gri ty
) ==
Pick le
un quote
++ ++
M u
Ċĉĉĉĉĉĉ ĉ
an der
Ġpack ed
Bu iltin
m v
Index Error
DEFIN ED
req s
po sitions
pix el
ex cluded
O W
Ġre si
afi i
lap se
Ġop code
M esh
Ġ', '
Ġhook s
FR AME
S ESSION
Ġf raction
tk inter
' (\
Ġre use
link ed
Ġimplement ations
in cluded
no minator
Ġf cntl
at alog
IN FRINGEMENT
ĠĠĠĠĠĠĠĠĠĠĠĠĠĠĠĠ ĠĠĠĠĠĠĠĠ
separ ated
ĠCF UNCTYPE
Ġmo use
EM IT
override s
kw arg
Ġapplic ations
Ġopen ed
Ġs heet
oo oo
stream ing
Ġr x
Ġserial izers
INIT IAL
Ġ200 3
Ġmig rate
Go ogle
tor rent
ol ding
we et
Ġread s
cal cul
xml ns
Ġp en
RU LE
B and
Ġa zure
Ġsta ff
pread sheet
j ump
r ng
or med
ĠW ait
E p
re ach
Ġ(' _
Valid ate
ne c
con tin
OPT ION
Ġd raft
K B
clo sure
D ICT
H y
Ġf ri
Ġs qu
li hood
log ged
03 8
th en
Ġs udo
to uch
64 6
IS H
D OT
Ġin herited
ĠS SH
with in
Ġa ffect
Ġrout ine
! ',
* )
p assed
. '))
ĠG lobal
01 3
AL IAS
StubOut WithMock
18 7
Ġinterpre ter
arb age
BUT TON
S cen
Ġc flags
Ġv pc
AT FORM
Ġread able
HTTP Error
SR C
ĠA fter
... ")
Ġn c
Valid ation
optim izer
ĠName Error
Q ual
ĠG it
Ġlar ger
Ġreg arding
Ret ry
FA ILED
tool set
ĠRe gex
M AT
SE CRET
driver s
Ġtyp ing
g lyph
Ã ¤
Ġg ithub
e ch
ff set
Ġvolume s
1234 56
scal ing
Ht ml
Ġinte gration
ĠFLAG S
Se conds
Ġti cket
ĠRa dio
ak er
Nt Gdi
ol ated
Ġplay list
Ed ge
b w
b an
Ġd rive
R R
u ma
-- +
ra ck
ĠM apping
lic as
work s
ä¸Ģ ä¸ª
lib virt
Ġman aged
medi an
as signed
f h
ĠExt ract
auth enticated
4 07
dimension al
IDD LE
[ @
DAT ETIME
d on
Ġpy gments
Ġdef ining
ĠW ill
contain ers
ĠSec urity
HE IGHT
Top ic
aniti ze
product s
ĠD OM
comp ression
Ġconf lict
ĠS chema
lex ers
rp m
M F
rep lica
Ġqu antity
Ġab c
Ġpur poses
________ ________
ac ute
O fdm
ac le
66 7
Ġs nap
Mo bility
em u
Ġprin ted
ĠOri ginal
Ġpick ing
Hash er
Ġtes ted
ar ded
to ms
18 6
Ġpar ticle
al locate
Ġgradient s
x html
g cc
J ar
87 8
ĠSer ial
a jax
Ġre moving
FIEL DS
Ġol der
Z a
Dest ination
? ",
se quences
/ #
IN K
26 0
Temporary File
H op
Ġw alk
ab ort
Re quire
y m
33 6
U nsupported
de clared
ĠF oreignKey
Ġx s
B ot
vi a
ĠC alled
Ġso uth
STY L
Ġin voke
čĊĠĠĠĠĠĠĠĠ čĊĠĠĠĠĠĠĠ
- (
Q Application
ig ure
redirect s
DIS ABLE
al so
è¡ Į
ti a
Ġre ach
Ġp tr
Cre dentials
add Cleanup
Ġsh uffle
DU CT
Ġ(' ',
Ġno tes
Ġmin ute
head line
Ġowner ship
sw ig
resolver s
]) ),
ENT ITY
normal ized
("" ,
SHAR ED
route s
Ġqui ck
is nan
Ġ:: =
P AGE
Ġin dependent
Ġext ras
! '
pl ug
y ou
Ġb l
Ġst mt
Ġf aster
Sup er
89 4
CUR RENT
spi der
REQUI RED
config fs
PR ES
Socket Address
pe ek
sta tistics
o ser
oper ators
RE L
ĠT ri
Ġpa st
Ġsh ard
cap tion
Ġtran sition
ĠT CP
Ġu a
Ġup dating
pass wd
Ġmat rices
from Utf
Se gment
uro pe
F ACE
33 9
Ġ7 9
rot ate
Ġ`` '
ĠON E
8 55
ĠS how
ne tes
uber netes
A WS
en ame
inter section
av or
ĠSpeci al
* ')
R IGHT
Ġre ceiver
to ggle
Ġnotification s
Ġ@ @
66 0
C enter
Ġth us
Ġ1 0000
E mbed
Ġ4 03
to c
Ġsmal ler
a co
Module Error
tran sition
De v
ĠST ART
; &
multip ly
ã Ģ
S CH
WE B
hi tes
ro gate
ac curacy
new s
next State
inherit ance
F it
ware house
04 2
Ġinter mediate
x es
uf ficient
37 8
ĠMo di
} ;
Ġre load
77 5
ĠTest ing
Loss Model
ĠCLA IM
ĠE l
pi der
Be fore
t wisted
Ġcon ditional
Rule s
di ces
Ġgener ating
Ġinte rest
ĠS um
Ġde ci
P lan
v rf
å ľ
ex clusive
CONT ROL
b enchmark
è ´
ĠH at
G ot
Ġt t
Ġan ce
Ex pect
hi er
M ASK
. /
25 9
iv ed
Al chemy
ĠNOT ICE
Ġf akes
Is A
Ġauth enticate
=_ ('
vector s
$ '
Ġcon trols
H D
Ġnamed tuple
^ {
Ġmime types
z ation
Ġpro viding
Object Deleter
Comp ile
ToOne Field
ĠC OL
ch i
(" {
AL INGS
ph oto
im ated
co vered
1234 5
um ing
hites pace
ĠLo okup
Replay All
qu o
+ )\
Ġstack level
comple tion
Ġaccount s
è ®
ag g
stri de
AC CEPT
ĠSpeci fy
Re pe
Attribute Information
ĠTime out
q name
te le
Ġtext wrap
Ġin teractive
ĠL INE
he ap
Get N
ĠDE ALINGS
tt l
' %(
Ġm ixed
no op
Ġthe ta
20 22
Po inter
ume n
50 7
Bu cket
T K
AT IVE
cut s
Del ta
ograph ic
S a
Ġde clar
SE CUR
Ġdele gate
ol low
dist inct
ĠNON INFRINGEMENT
Ġch errypy
riteri on
Ori gin
de b
Th reshold
Ġcal c
Ġ1 80
Ġsp rite
FO O
17 3
Run timeError
un ary
can onical
SY S
am i
Label s
H AS
S pa
24 3
Un iform
ĠStr uct
Ġcon t
tr unk
1111 1111
ĠSUP ERUSER
ĠBR ACKET
s alt
ri tical
havi or
ĠSet ting
ser tions
Ġprefix es
gradient s
Ġdis covery
war ding
in ator
ĠWor ld
Cal cul
bu gs
################################################################ ################
sym link
Par tition
ro ut
Ġcallback s
dimen sions
ĠU SER
ll ing
Ġ: ,
18 3
Ġp at
19 3
CON ST
ĠHE AD
pri me
Ġdep loyment
Ġ209 1
SECUR ITY
s pe
Ġle ad
Pe er
Ġre ached
mp i
http lib
) {
Ġt d
di sp
ĠSt udio
il ters
squ ared
44 0
OT AL
IM P
tera ble
AN NEL
Query Set
Jo hn
PR IV
Ġderi v
s x
part ment
Remote Station
5 000
ĠP EP
Ġ: =
Ġw ave
Ġget opt
stan tial
e u
f raction
Ġ1 01
IO Error
} ",
'] "})
up led
Ġopen ing
zone s
ĊĠĠĠĠĠĠĠĠĠĠĠĠĠĠĠĠĠĠĠĠĠĠĠĠĠĠĠĠĠĠĠĠĠĠĠĠĠĠĠĠĠĠĠĠĠĠĠĠĠĠĠĠĠĠĠĠ Ġ
LAB EL
la titude
ĠRe cord
D uration
N ON
Ġlib xml
Ġcho senColour
< =
li cts
Ġfast binary
re cognized
Ġd p
ab lish
loc ated
cur ve
Na N
" )))
Ġb box
)] ),
re mo
ces sible
Ġsee k
style s
IF Y
test app
Ġch dir
pen ded
char map
l legal
Ġpar agraph
O Auth
urn ished
DI ST
ĠMo ve
E nsure
fe rer
Ġsub stantial
Ġd a
is tent
W kb
[ _
li ze
ĠC ase
ĠC ategory
gn oring
ĠPer form
ĠS ingle
Reg ression
ĠDo wn
e asy
Ġglob s
Ġb ridge
Ġh ide
34 9
R S
R SA
ra di
id om
Ġde sign
32 9
"] ))
/ {}
on gs
Ġgo es
ĠComm unic
e li
Co mb
Ġ39 53
ch romium
ĠUn ix
access or
SH ORT
ar p
ĠP open
VAR I
2 11
7 55
Ġ( ('
op rot
B al
; </
H and
ĠDate Time
P B
ĠĠĠĠĠĠĠĠĠĠĠĠĠĠĠĠ ĠĠĠĠĠĠĠĠĠĠ
3 56
z ulip
db se
36 9
26 9
in er
high light
on ts
la cing
Ġsub license
Ġn l
Test Runner
o pe
Ġk m
load TestsFrom
con catenate
Ġg ather
Ġbin s
Ġcomb ine
Ġqu anti
Ġ{} ).
ĠMA V
check out
36 5
ĠCon trib
__ '
one y
'] =
FI RST
Ġpro g
u di
set Level
V ED
Ġlib virt
Wifi RemoteStation
d mesg
Ġco ords
Ġ7 2
block ing
ĠSup port
st ra
ge tenv
AL LED
we ighted
row se
I A
len v
ĠSta tic
d g
Ġh ar
E OF
ST OR
cr on
Ġtmp dir
vo te
rel path
Ġfil led
ĠKey boardInterrupt
33 4
coun tered
Ġ===== ===
ĠCh ild
ga ther
Ġbo ard
x en
ĠĠĠĠĠĠĠĠĠĠĠĠĠĠĠĠ ĠĠĠĠĠĠĠ
Ġtoken ize
df hf
] })
Ġen s
80 5
serial izers
ĠAnsible Error
optim ize
Ġbuiltin s
ma ch
04 5
Ġcal ib
cm ds
to s
pro ba
De pendencies
ĠCer tificate
fi ce
sub title
24 2
Ø§ Ø
dd dd
so cial
heb rew
ATEG ORY
' ;
ĠRa w
Wifi Phy
d jang
h m
esca ped
GE OS
Ġn ic
F ore
__ ')
Ġadd on
e ast
Ġt ot
et ing
EX P
COOK IE
st on
qui ck
am s
Ġinter cept
ĠValue s
Ġ---------------------------------------------------------------- -------------
ID L
skb addr
p th
å Ĭ
Ġ7 6
Ġbehavi our
Arch ive
ac teri
ask et
M IB
Ġback ward
uggest ion
Ġe le
-------- ---
cf lags
an other
Ġg uest
D H
S hared
NetDevice Container
qu ad
Ġac curacy
sta ur
Ġe sc
ree k
sub mission
4 55
f A
Ġde ep
). \
> .*
ci lity
ĠW AR
web socket
ĠFe ature
Form Set
top level
Ġorg anization
n ex
04 7
ĠReg ression
ĠInter face
Ġb ulk
18 2
ĠSer ies
ĠVAL UES
Ñ ı
Ġ1 20
iter values
Ġt v
ĠS C
Ġr sp
B in
Ġtw ice
ver s
Test Result
G yp
Ġp c
Ġdown loaded
Scal ar
b anner
37 6
] },
Ġpacket s
ĠCode c
W atch
XX X
Ġver tex
Qu ote
base line
Propagation LossModel
" %(
en dif
Ġme th
max size
Ġ7 8
åı ·
t ot
re dis
def ines
18 1
50 6
con tract
mon o
è ¿
Ġsub sequent
User name
track ing
s rs
Ġapp lies
trans lations
w raps
Ġb g
Ġne g
} },
Ã £
ĠW h
Ġwork space
ĠST AT
Ex pi
ID s
20 20
Ġ' >
unt u
88 8
Ġsc roll
get Attribute
87 0
ne ighbor
u o
app le
te ad
sy ms
c ards
y label
ĠCheck s
: .
db name
Ġclient s
Ġexec utor
Ġpop ulate
Lib virt
L IMIT
M at
sub plot
uz zy
b on
member ship
CL UDE
cap t
SETT INGS
il ation
Ġpro j
Ġat trib
Ġsort ing
AD MIN
au dit
notification s
Ġ1 92
Ġef ficient
ĠAn aly
queue d
m r
u tive
Ġti le
O G
AAAA AAAA
---- ---
ĠM AC
ĠW in
EX TR
3 57
g ain
Ġver tical
Ġdomain s
ĠApp lication
P UB
LIB R
l ator
py plot
py gments
Wkb Types
u er
Ġm ix
Ġlo t
dist utils
= /
Ġa way
Ġ1 02
Ġpatch es
Byte TagIterator
4 06
Ġs ca
pop ulate
IL DE
com ma
26 7
Ġq ty
long itude
P ublish
ab o
Ġoptim ization
length s
ame nt
Ġdi rectives
I ns
ĠB ea
work space
04 9
24 1
Sc roll
ĠSta ck
L AR
tx id
Set Prober
medi um
tri ct
37 9
Ġcorrespon ds
L inux
æ į
ĠS tep
u sion
Ġe lapsed
Rel ation
subscription s
Ġ( `
Ġmo ving
Elements By
Ġs i
language s
Ã §
ĠChar Field
G iven
Re st
32 8
26 5
in teractive
Ġpro posed
go ti
assi ve
G LOBAL
Ġ6 2
Ġtrans formation
M ail
m aries
pro pagation
l li
ĠCon n
Ġdescri bing
Fin ished
rot tle
Ġto uch
ĠEx pected
Ġobj s
from string
od v
Analy sis
int s
ĠS patial
Ġden sity
Ġde scribe
ĠP op
w allet
ĠN AME
ĠDe bug
> [^
iver sity
Ġrot ation
ĠCurrent ly
text ure
Ġho wever
Ġconver ting
Ġregex p
en umeration
04 8
ua lenv
setup tools
Mobility Model
Ġm ass
Ġcl usters
ffff ff
Ġweak ref
Ġn ick
si lent
Ġpa ren
bb bb
umer ator
S ensor
En umeration
Ġprece dence
Ġcon s
Equal s
field name
ms gs
AP PS
ĊĠĠĠĠ ĊĠĠĠĠĠĠĠ
no s
Ġn inja
regular izer
con ti
89 8
Create Model
Ġsecond ary
r sa
re versed
201 8
scope s
? "
an cy
no unce
Ġlist ing
cri tical
ĠPass word
+ ')
ĠExtended Context
34 0
('- ',
U ri
vi te
Ġ3 30
ĠDe precationWarning
al ty
B AR
Ġshow s
Ġaltern ative
ance s
Ġint ro
Ġin venio
w ill
Ġto lerance
Ġdi rective
Ġiden tical
ite rations
ĠCon st
pos sible
ĠSto re
F IN
\ "\
03 7
ĠI ssue
se gments
typedef Dict
G uest
ĠC ar
ĠE ither
ĠIn stall
S UM
( .
IC ES
ĠOption Parser
x r
re ctor
ab cd
g al
Ġwe bob
DO UT
Ġcomple tion
BO SE
æĺ ĵ
A J
me nd
co mbo
attemp ts
con crete
Ġch allenge
_ ))
66 9
Ġcomp utation
B lue
B SD
ĠT ILDE
be come
R FC
Ġ' ='
Tra cker
ate ly
sy scalls
coordin ates
Ġx code
Test All
ĠSUP PORT
IG H
Ġbel ong
Ġs aving
ĠMan ager
p or
Ġman ip
50 5
Ġmin imal
F uture
il led
=' ')
ĠSystem s
E MPTY
AT URE
? '
Ġde cl
mo id
Ġse l
ĠHTTP S
Ġtype handlers
Ġn secs
si mul
ĠA pi
Group Name
Jo in
for tios
Ġch anging
start tag
13 07
Ġindent ation
e per
Ġ[' --
clu sion
Ġan g
ET A
Ġsimple json
Ġphy sical
4 74
c rc
EX IST
SK IP
Match es
76 8
ĠRet rieve
E F
ch k
:// %
region s
ĠCoun ty
Ġs atis
qu otes
Ġde clared
ew idth
; -
Ġep silon
Ġs ing
Ġ Ċĉ
Ass oci
he mer
Ġstart up
fr ont
acc um
Ġproduce d
Ġra di
de dent
ĠT er
Ġcol lected
termin ate
x mit
f lex
Ġth ink
un changed
C DATA
M Q
Ġpoly nomial
ang les
ane ous
new lines
c reds
hic le
t rees
Ġpe ople
Ġdele ting
STYL ENS
R aster
x label
:: _
34 7
Ġtyp ically
Ġdeg rees
s am
CLASS ES
deli very
Ġre ports
Ġs ale
ĠA mazon
G A
head ing
Ġin string
Ġr m
temp orary
Ġsto res
U V
t te
01 01
Ġp m
x module
Ġf urnished
Ġn r
33 0
Ġ Ø§ÙĦ
dat atype
Ġco variance
Ġexec uting
Ge om
staur ant
\ )\
ense mble
et ched
ĠL im
sp in
EN TER
Ġappro x
pi o
m ing
ST ER
... '
u li
so und
Man agement
Ġtop level
Ġres pec
Ġco urses
QU ARE
nec tivity
re actor
Ġc inder
ra b
ĠBe cause
it m
ĠS c
ĠC LI
Ac ti
Ġn sec
Ġcon crete
sys vals
b at
al locator
ĠU I
Ã£ o
36 7
]] ),
al location
ce ipt
no m
27 2
Qu eries
Ġauthor ization
scen ario
p f
T ES
pri se
rot ation
ue l
SE CTION
ich r
ome tries
__( **
g hi
v or
Ġn ice
log file
Ġv ault
Ġcontain ers
re cipe
U AL
do g
Ġcach ing
d ark
Ġv o
set Enabled
pre f
av atar
ĠJ ust
ĠDef ine
Ġw ish
ver ified
comb ine
Ġas yncio
ĠSt reet
NO W
COD ING
äº¤ æĺĵ
de bit
de limiter
Ġif ace
ĠI gnore
32 3
opro ject
Ġun ion
At tach
Se lf
un safe
prefix es
æĺ¯ ä¸Ģä¸ª
Lo st
g if
h op
w p
Ġr t
Ġmod name
lo city
trans actions
]] ],
of s
pos al
f old
(' "
Message s
ĠMSV S
ans wers
ĠH ome
patch es
Ġw raps
Re ceive
Ġen codings
50 8
ret ch
AUT O
R x
vi gate
sub stit
ĠD ec
27 9
ref lection
over write
Ġ* );\
BRE AK
Ġt cp
DAT AB
Ġevalu ated
6 54
Pr inter
g m
w f
mp s
wiki pedia
token izer
make file
Ġrelease d
or ientation
Ġb z
Date Field
indi cator
D ay
Ã ¶
ĠP ER
Ġac cessed
55 55
Ġsy mbolic
ĠDo main
Ġma ppings
DE V
5 99
Ne ighbor
) >
MEDI A
cl assification
Ġmo bj
Ġma ch
s low
ĠT ran
Get Hash
U X
Ġn at
Ġend ing
sw ift
att name
compo sition
i ro
Change s
å º
sc atter
sci py
e ver
ul ls
Ġof p
Ġdeg ree
djang oproject
17 1
re m
Ġc gi
co lour
Ġex tent
Ġf ee
vi es
And Verify
info s
Ġup loaded
Start ing
ĠCommand Error
til de
imple mented
Ġ'_ '
Ġsent inel
i mag
Ġs it
lo pe
Ġsub mission
MA CH
Unit Types
7 54
Y our
ç º
get ElementsBy
it ro
be ard
DIR S
Ġfi re
Ġm irror
ad b
Ġh i
Argument s
ĠG PL
Fa ce
final ize
Ġoptim ize
j peg
Ġopen stack
Ġtrans lated
ĠBea utiful
Ġv isual
ag ain
Ġconfig urations
Cre ation
d rag
email s
Ġstream s
c u
over flow
One ToOneField
Ġs u
(' </
ĠE C
re qui
Ġf ront
Ġre ceiv
cl assifier
ĠIn st
sn mp
27 5
4 39
Ġc ent
quee ze
U Int
e y
r split
il ls
IC S
Ġrender ing
Ġmark ers
al a
CAP E
G it
w k
Ġoption ally
exp ressions
Ġoper and
expi re
N L
Ġlock ed
deli tem
p wd
den ted
Ġvalid ators
is digit
ĠA B
? ://
P TR
i dentifiers
res olved
Packet TagIterator
TF tdc
Optim izer
Ġb b
led ge
ta cac
") ):
Dis able
ĠH ow
ĠS ig
th an
è µ
Ġ ĊĠĠĠĠĠĠĠĠĠĠĠĠĠĠĠĠĠĠĠ
En rollment
Ġbal ance
F o
b rew
CH ANNEL
Ġcomm unic
Col umns
ĠLa TeX
l m
B ank
Ġp sy
el t
ab i
32 5
c w
Ġp n
Ġ" ."
diffe rent
N T
ĠM S
Ġgo al
Cer t
IC K
ros pection
- ',
fa c
s z
in fer
sent inel
Back ground
ä ¿
ER N
Type æĺ¯ä¸Ģä¸ª
oo st
Ġread line
tim ing
pro tection
fe at
Ġth rown
iz able
29 8
al ready
sql alchemy
###### #
Ġagree ments
ĠOpen SSL
Re verse
d get
s ax
Ġk ill
80 3
stop ped
UM E
Ġloc ator
Ġscope s
Ġ4 01
ĠPy gments
sen ce
B IND
Bro ker
ti ent
tri c
Source s
FORMAT S
Me m
y ellow
th resh
ĠNe ed
st uff
rec id
ĠR EG
Function s
web kit
Ġsl ash
> ::
Ġti ck
EXTENS ION
to string
g rate
M ust
auth enticate
k m
Ġse ason
Ġhe alth
SS H
Ġfoo ter
Ġtemp erature
embed ding
G UI
Ġa udit
Ġi ps
ĠT k
ĠB inary
net loc
Ġ"_ "
li fe
Ġw arehouse
pri or
ĠQt Widgets
Match ing
B reak
FAIL URE
"> %
fl ux
rec ent
tr uth
ific ant
p ot
Ġ ####
THO ST
T OTAL
tacac s
Ġg f
Ġnew ly
i ff
con j
59 2
Ġgen e
Rep ly
) ':
Ġ ._
Ġs f
raw data
MA V
ĠOpen Stack
Resource s
Ġres pect
Ġl l
29 7
ĠOr g
Ġt rees
istribu ted
Ġmsv s
5 77
86 9
27 6
ĠPro file
x l
up loader
Ġear lier
el come
to list
fo ur
e very
n dims
ce il
Ġ'* '
F req
34 6
UR ATION
de compress
Ġlower case
is ters
In finity
Code s
Helper For
te l
pl at
F ER
ra x
morph ic
iv ot
y o
end points
e uc
Rel ated
lec ule
Ġch an
subnet s
id l
K it
Ġi dentifiers
32 4
Int ToType
Ġph one
Ġear ly
**************************************************************** ********
H ASH
Ġs dk
le y
Ġre ported
open Elements
bet ween
29 0
Log ging
Ġ[ _
Ġen queue
Ġ6 1
ĠUN DEFINED
open id
Ġte le
Ġfl ash
uff fe
O wner
Ġre moves
and atory
Ġp hi
Ġload s
Ġstrip ped
For ce
a ma
ser ving
Ġ1 40
[:: -
02 7
Ġco v
Ġsen tence
Ġret Val
vari ate
PARAM ET
f la
el astic
Ġfilter ing
ame l
Ġ1 50
ĠP lot
S lice
Service Flow
6 39
G V
Ra tio
S OL
p lots
ĠEx pect
5 39
i et
Ġ' ^
'] })
Ġp anel
Ġback slash
h uman
Ġf atal
Ġest imate
Comple x
eg gs
B ITS
in sertion
ĠD etail
_ ',
Ġs pe
. "))
F ast
ard less
c ue
retri eve
Ġre commended
Ġex e
Ġc ity
Ġ' "'
tra cks
Ġexpect s
V IR
ĠCo okie
MIS SION
Z W
Ġc rypto
PRO DUCT
å Ľ
26 8
UN I
r nn
ma ppings
Lo c
K D
Ġf os
Ġiter ate
Ġme chanism
) </
ul p
ony m
S ort
is a
m iddle
Ġstatic method
* ",
c it
re ctions
Ġpre ferred
Te am
h cp
sp here
ĠV ERS
Ġback ends
ĠMax imum
Vari ant
Ġon to
Con tact
Cre ating
M ATCH
Ġ[] ),
Ġli mited
To o
Ġf w
Ġen countered
87 2
disc ussion
Ali as
Ġe tag
ĠS R
D ROP
F LOW
TR UE
Ġaccept able
( ')
Ġcomp ared
SD K
ch ie
Ġd n
Row s
phy sical
E A
TL V
ĠS uite
ta ck
ĠW hat
04 6
N TA
Ġmo vie
CON NECT
(' $
ĠS ample
Ġstruct ures
F ULL
la ps
Ġver ification
27 8
vile ges
Ġcol lector
Ġde veloper
ĠR ange
Ġp list
ab ling
Ġimport lib
inter p
200 4
. ])
ms build
c gi
Ġex clusive
AA A
EL L
T ube
de tach
di e
Ġpo licies
Ġblock ing
report s
Main Window
Q A
CLE AR
C ross
Ġca uses
feed back
y u
mo s
Ġu an
Co upled
Me an
Ġpl ug
Small IntegerField
Ġt reat
client s
HTTP S
umen ted
D ot
(' .',
DES C
t as
ut s
ma ker
ĠT op
node type
VER S
K L
RES H
Ġexpi red
Reg ressor
Ġpur chase
G ithub
Pri mary
i or
FA KE
37 0
t age
__ ",
back ward
wait ing
PRE C
Dep th
d de
Ġp ress
com mend
27 3
Ġof ten
Ġwork ers
Ġs lots
struct ures
Sec ret
Ġdele tion
ar ator
Char Block
expi ration
64 5
Ġ... ,
predi cate
Ex change
co sh
'): (
Ġinter polation
Ġld ap
Sw ap
P ART
X M
86 0
re boot
Ġst ar
88 9
Message Box
ĠM ultiple
ĠU ses
({ })
ĠSE PARATOR
b ld
å Ń
[' __
log ies
Ġ# ----------------------------------------------------------------
tag ged
Ġedi table
Ġd d
ph ases
Ġsm tp
( .*?
G N
con fidence
34 8
raw transaction
Cal culate
Comple te
i el
le ad
du cing
ĠH as
Z h
ĠS IG
Sub net
r n
ĠS DL
ĠPy Qt
+" -
Y ear
Ġi e
ls r
Ù ģ
Ġpro xies
in ters
UR SE
02 9
Ġcertificate s
de sign
END ING
sp ot
æľ Ł
ĠRe place
Ġin ts
sub titles
ĠSQL Alchemy
ĠIE Core
6 09
Ġ serve
ĠC lear
Ċ ĊĠĠĠĠĠĠĠĠĠĠ
tr ust
ĠGet s
ĠPer iod
ener ated
P ress
57 9
Sh ift
" ?
A sia
sis tence
Ġhash es
g oto
Ġo cc
Pcap File
al ker
Ġmon key
La zy
Ġtopo logy
hemer al
Gener al
US H
Ġ201 8
Fl ask
ĠConfig Parser
at in
ĠS park
author ize
Option Parser
! ",
Ġma v
Ġstr ftime
ĠĠĠĠĠĠĠĠĠĠĠĠĠĠĠĠĠĠĠĠĠĠĠĠĠĠĠĠĠĠĠĠ ĠĠ
Command s
8 000
o spfv
um ul
app lications
84 9
S CS
Y S
set Value
ex istent
ĠRe ferences
button s
A bs
State ment
sess ment
Ġb c
OP ER
Ġsp an
Ġfi xtures
= ')
ad vanced
ĠComm on
white list
node Name
istr ator
& &
W D
ĠM P
ĊĠĠĠĠĠĠĠĠĠĠĠĠĠĠĠĠĠĠĠĠĠĠĠĠĠĠĠĠĠĠĠĠĠĠĠĠĠĠĠĠĠĠĠĠĠĠĠĠĠĠĠĠĠĠĠĠ ĠĠĠ
ĠMan age
lav ors
Ġspa wn
te ch
Exten ded
REC ORD
01 8
Ġhe ap
ax y
dis covery
Sub ject
EV T
H SG
SD L
ĠG u
)* (
200 2
TypeId Value
ĠS QUARE
ĠG ROUP
Ġun quote
ir m
P ING
Ġmo ves
Ġr ho
Ġwrite s
Ġintern ally
SV G
Ġrout ines
Ġe li
Ġp wd
the sis
A W
arg o
AG ENT
f ti
FUN CTION
dele tion
k now
r find
AL SE
Ġro om
al arm
ree ment
HTTP Server
disc ard
Ang le
sp l
PI X
Ġmis match
Ġre stored
Ġbuild s
IGNORE CASE
t otype
Ġcon struction
TH AN
too th
Ġbro ker
re te
ĠP IL
git Ftdc
gu ous
ĠF ix
33 8
RO LL
As sertionError
h ape
Check ing
ĠL ast
dispatch er
AR GS
gener ation
4 99
Ġco eff
cen tile
atter y
I e
Ġcon j
tri al
Ġp asses
'^ \
gu ard
ĠContent Type
- '
b ul
z ie
ĠI Flag
bucket s
S k
st ick
89 1
ow el
'] },
02 1
Ġtermin ate
B ridge
Ġp ure
No w
E PS
st ory
De pendency
context manager
6 07
Ġc StringIO
() "
Ġ} ]
Ġsub s
Ġhard ware
b x
ra pping
ĠSystem Exit
pol ate
ĠHttpResponse Redirect
is null
ĠI ter
P ur
Ġ' ;
89 3
Ġeas ier
Ġsome times
ex am
ĠP art
ĠB ig
35 2
C SS
Ġscal ing
d yn
In et
S peed
Un der
Ġj ump
a ware
g ap
34 2
V ec
op code
ĠF I
ry pt
FORM NS
getElementsBy TagName
ctor s
CO DES
Ġtrack ing
Ġdat as
D ynamic
ĠS parse
Re cur
py file
ore an
pe ople
vo tes
å ¹
ĠP K
ĠEx pr
cc cc
Al ter
G YP
play book
Nt User
new axis
Di rectories
bl k
PH A
se lenium
ur able
} ")
ĠC SV
ĠH ALF
POS ITION
J P
co erce
tool bar
multip lier
Ġco lour
ex planation
IL L
g data
q r
wa ke
G amma
Ġb p
Ġpro jection
Can vas
C ES
é Ģ
on om
ĠĠĠĠĠĠĠĠĠĠĠĠĠĠĠĠ ĠĠĠĠĠĠĠĠĠ
Ġl xml
sh adow
Ġbin ascii
4 79
di d
Ġr p
; ")
č Ċĉĉĉ
c isco
cr ash
ĠFOR M
n arrow
)) ):
Test Base
Ġsub type
AS F
IM PL
ç Ľ
c rop
E O
Ġover lap
str ate
RE Q
Ġca pacity
abe led
k k
Ġ* "
re write
Ġver tices
Ġlet ters
C FLAGS
Ġi i
ĠIn cremental
Ġspec s
G INE
Ġun changed
Ġro bot
Scen e
' ``
V e
r h
Ġde tection
Ġpie ce
Ġwi max
\)\ (',
K ernel
it ors
glob s
SE CON
T i
de lim
Zip File
b are
s uspend
Ġa mp
Ġc api
Target s
H R
Char acter
Ġassume s
s olution
t bl
so lete
RO LE
f ds
Ġcon structed
writeField End
writeField Begin
Ġd l
Ġid le
1 999
M ay
Run AndVerify
de claration
sy mpy
ĠZ ero
ĠS ame
Ġprovi sion
č ĊĠĠĠĠĠĠĠĠĠĠĠĠĠĠĠĠĠĠĠĠĠĠĠĠĠĠĠ
ar ma
Get s
P ol
ĠS afe
ĠMe mber
hist ogram
str s
au ss
33 5
go al
ĠWAR NING
# *
Ġa toms
ĠUn known
Ġp eek
ce le
pa m
FIL ENAME
Ġw a
Ġm time
ĠV isual
Ġ( \
sign atures
Check ed
Ġfloat s
v y
ex change
assertRaises Message
ĠValid ation
Ġcandidate s
N ER
Ġf k
ĠS V
Wor ld
OFF SET
Ġ" >
DO UBLE
W rong
h ance
con ditional
Ġav ailability
ĠĠĠĠ ĊĠĠĠ
Ġc le
Ġpre c
Ġcheck out
comp uted
Vi sit
--+ --+
Ġ{} },
/ _
Ġo d
Ġb az
code d
ĠAnd roid
"> \
M s
ĠV olume
Ġ/ *
Ġroot s
Ġsim ulator
mut ations
Ġres ume
args pec
N R
Ġas sertion
assert Greater
Ġ200 2
di ter
AT ER
Add s
msg id
MOD UL
fti rq
CP P
Ġ' )'
Ġin strument
ĠS ize
ĠO racle
=% (
us able
DEF INE
li sted
Ġlook ahead
Ret rieve
ĠVERS ION
L ang
Ġpass wd
Bytes IO
Ġcalcul ation
r ated
mon ic
ĊĠĠĠĠĠĠĠĠĠĠĠĠĠĠĠĠĠĠĠĠĠĠĠĠĠĠĠĠĠĠĠĠĠĠĠĠĠĠĠĠĠĠĠĠĠĠĠĠĠĠĠĠĠĠĠĠ ĠĠ
Ġcomb ination
86 5
cen ters
() ],
ul ates
26 2
teri zed
Ġa ri
en roll
do f
n up
): ]
Ġe mulation
Ġ7 1
** (
Ġscen e
66 5
Pri ority
CHO ICES
Ġhier archy
Ġ Ã
vi ation
IP Address
Ġplace d
ul ing
pro be
ĠApp ly
vi f
war ded
ĠAS F
Ġcomplete ly
di vide
/ ")
ĠP ATH
Element Tree
Ġa f
Dis patcher
Choice Field
Ġr val
ĠRe f
Ġen rollment
... ')
off sets
V A
AG IC
ĠDe termine
=[ ])
38 5
Float Field
cap ital
+ )',
'), '
ĠVi deo
t gt
59 0
trans forms
mod name
Dec orator
S lot
Ġre mo
84 8
PO LL
2 13
j k
file list
Ġ| \
ĠClo se
Per iod
percent age
v oucher
Ġt c
ER GY
UP LOAD
Ġver b
201 9
Ġspa m
Ascii Trace
S izer
Ġg iving
right ness
35 8
pie ces
mat mul
Ġro utes
gr pc
Ġsimp lify
t witter
Ġcon tract
ĠCo unt
Vi sible
R X
sc si
Ġ(' /
net mask
ä» ¶
NTA X
p as
ĊĠĠĠĠĠĠĠĠĠĠĠĠĠĠĠĠ ĊĠĠĠĠĠĠĠĠĠĠĠĠĠĠĠ
el ap
list ing
RES OURCE
n est
v cs
'" },
tribu tion
ĠC RE
Ġdiffe rences
Ġs ynchron
Dis pose
ĠRa ise
in file
st s
Ġcap abilities
Ġc ustomer
Ra dio
failUnless Equal
} /{
= ("
Ġen cryption
(' //
ĠI d
Re ferences
Ġtrans formed
Ġsp li
ĠM erge
57 8
Ġ%} '})
Ġms build
G RE
57 5
fn match
q n
87 1
VER BOSE
d z
w m
(" '
ĠP DF
36 3
Ac tivity
-+-+ -+-+
. ),
v ac
Pro cesses
pectr al
00 10
Run time
st ors
26 1
batch es
MULT IL
ippe ts
C Y
Re cv
og r
Ġpy tz
{} ".
WINDO W
Pro blem
m ult
te ardown
pro bs
26 3
wri ting
TraceSource Information
ĠSe ction
ĠNa N
Ġreason s
ĠJava Script
N I
_ ]*
': [
Ġun iform
scri bed
cor ded
Ġweb kit
AV AIL
inte gration
f ed
ort ran
02 8
dele gate
ĠJ son
struct ured
Callback Value
predi ction
Not Implemented
4 69
X i
Ġde epcopy
ĠK eep
Sp in
ĠPack age
in place
Ġqu ant
Ġstop ped
WifiMac Header
A ES
S CO
key map
88 6
Sl ug
Ġre fs
Ġfor k
ud p
ass o
Ġlin alg
H idden
Ġc amera
ri st
format ted
BO X
Ġw anted
skip If
ĠS cript
ĠJ ob
Ġre dis
pro posed
li mited
56 0
PO LIC
Ġpri v
Ġpr inter
Ġp seudo
Ġw ants
ĠA li
In strument
function al
MS VS
=" #
ĠW ri
ĠPo sition
i B
token ize
Ġsta mp
Ġwe ighted
At End
Le g
e ye
Ġte x
Ġbe h
Ġl df
tests uite
num s
Ġlat in
Ġp aper
cmd line
failure Exception
æĪ ·
ĠPro perty
tun nel
cal ib
ĠDO MAIN
ĠDi rectory
Ġcirc ular
Q T
ĠM icrosoft
E QUAL
n z
Time Value
LOC ATION
h l
s ucce
Ġin finite
up s
IT CH
28 5
dis count
PRO FILE
snapshot s
Routing Protocol
_ *
cor outine
Ġraw data
def initions
Ġover flow
decode d
Ġd mp
Ġreg ardless
Ġdistance s
Ġde cision
RO UT
elap sed
o ct
Ġnew lines
. ".
Ġex ponent
sr v
Ġoff sets
B M
c data
Inter faces
her its
ATTRIB UTE
Ġne ighbor
Ġrecur sively
ĠRe al
wri table
> `.
_ ("
k ana
De precationWarning
comp atibility
FO UND
Ġh dr
03 5
ĊĠĠĠĠĠĠĠĠĠĠĠĠ ĊĠĠĠ
attemp t
ari an
S ibling
Ġhand shake
n v
or al
EN CODING
Dest roy
Ġsing ular
ĠD OT
distance s
gre y
F ront
66 8
cy rillic
fi ts
37 3
in voke
IL LA
R D
` ).
Ġa cl
do s
32 2
Ġtoken izer
Ø ³
no ther
7 69
G CC
Ġs ay
un ame
spa cing
P adding
Ġar tist
RE M
ud y
35 3
ĠA zure
be am
Ġ9 7
Ġscen ario
L F
Ġc riteria
run e
folder s
Ġreduce d
æį ®
Ġ( #
g lish
en dian
ch oose
Ġh ighest
)) /
Len um
ENABLE D
" {
H a
H ub
in sensitive
li ers
bo ost
Allow ed
T ick
Ġst ick
Ġ9 8
fin ally
Z ONE
ti s
proto cols
ĠComp any
ĠDele ting
ĠConn ect
Ġ" ('
replace ment
Str ategy
ĠCho ice
P en
Ġf tp
rup ted
ĠIns tead
ĠB utton
Ġ[' __
Ġthe ano
77 77
0 20
88 4
pe t
CS gitFtdc
Ġtri ggered
IN S
Ġ'/ ')
> """)
W l
"] ]
Ġ9 6
ht m
Ġen crypt
ĠE QUAL
ĠCon stant
pe ctor
Ġexpi ration
COMPL ETE
02 6
ĠHTTP Error
R ANGE
co uld
Ġg id
Ġel lip
Ġro uting
factor s
']) ),
Dis abled
OB J
Ġhist ogram
ĠPro perties
Ġfeed back
D uplicate
mat plotlib
ĠG ui
87 3
Rel ative
(' !
Ġdist inct
in ode
ĠE st
Char SetProber
Ġdir ty
[ ,
round ing
ĠAs ync
ĠDEL ETE
un nel
ĠW arning
ĠTH AI
QUE UE
Ġ ë
ĠS A
SE C
Ġnew er
django apps
Service s
celer ated
j am
re use
Ġprint s
Ġfe at
Ġdebug ger
Ġsh ip
Ġs uc
Ġs lave
ĠAdd s
ĠConfig ure
ut ures
up on
At temp
Ġtra ffic
B a
Ġh olds
Ġwh atever
ump tion
li s
Ġd r
ak ed
Ġcap ital
ĠP I
pp rint
di rective
cre dential
Ġnon ce
([^ "]
c z
Config Parser
Ġbutton s
å °
Ġ( ))
C AT
g able
77 6
Update s
Ġh g
ame s
Ġ1 37
Ġ" :"
author ization
certificate s
YY YY
Aggregate Iterator
Ġcon fidence
Mon th
J O
S AS
ST DOUT
Un ion
Ġ'. '.
84 4
Ġ' ('
Ġend for
Enum Value
Ġaut ospec
z lib
re conc
pro jection
ĠH elp
Ġne ither
ĠDe fin
Ġ7 3
agent s
Ġw ays
N P
W rap
Ġt tl
Re cords
][ -
mer ged
Ġpredi cted
Ġtermin ated
7 67
en k
Ġindex ed
ĠUn iversity
# ================================================================
Ġsup press
ak s
_ ')
assert Less
pro f
For ward
Ġtrunc ate
86 3
UN IT
Ġex change
56 8
Ġacti vate
a mazon
34 3
bs d
Ġcre dit
h c
graph ics
contrib utor
associ ate
MO VE
N umeric
i ters
Ġf ine
ing u
G U
x or
Ġs ick
di rected
Ġannot ations
B EGIN
de sired
Ġover ri
Ġmember ship
Ġbecome s
w r
Ġde mo
Ġse man
89 2
N ested
se crets
ho le
append Child
+"- "+
Ġd uplicates
(" .")
7 00
= .
open ssl
Request s
Ġ12 34
ĠPo ol
Ġsym link
DIRECT ORY
F TP
"" )
* ?
so ftware
fail s
Ðµ Ð
ĠDocument ation
f ingerprint
j id
Ġn umerical
Ġtrans lations
'[ ^
9 49
in structor
el lip
Ġ} ;
start ing
Ġpsy copg
Ġth resh
', )),
ol ate
=' <
ĠRe set
gui de
Ġemp loyee
c am
Run s
ĠTo ol
' |
F ri
Ġt cm
86 01
WS GI
T IT
Module Store
/ ]+
L et
h z
assert List
99 8
COL UM
ĠCoun ter
desk top
EN O
) },
T tl
ne arest
Ġca ught
Ġ'' ',
b t
ad m
Ġun set
Per form
ĠS DK
ep silon
' {
C Q
ç Ĥ
Repo sitory
con version
Ġc as
Ġde scriptors
Ġg ain
ag o
8 22
Ġ` (
Ġcre ator
Rep orter
Conf lict
postgres ql
r ant
Ġne ighbors
read s
av en
PO WER
INST ALLED
, ,
> '],
S ink
Ġde part
A udio
no thing
Ch art
M ER
Ġre size
ĠA D
=' .
)/ (
Ġatom ic
9 00
E mulation
L j
Ġend points
app engine
ĠH ash
Di vision
åį ķ
un supported
pol ys
Ġref ers
F requency
char acters
4 67
si cs
ĠA CC
Call able
Ġo paque
s ynchron
Ġcontext lib
sit ories
Ġexpan sion
Ġ` [
57 0
Reg ular
ĠSTR ING
f lip
w ater
in active
re ject
Ġen crypted
ANCE L
s py
[^ \
EXCEPT ION
T k
PRO GRAM
pa g
Re actor
sk in
of proto
ĠTe mple
re lations
02 3
Clo sed
on line
Ġal bum
Ġac quire
q p
Ġg a
L ight
con sistent
ĠC ED
64 3
ĠĠĠĠĠĠĠĠĠĠĠĠĠĠĠĠ ĠĠĠĠĠĠĠĠĠĠĠ
String Field
o e
ho re
sto res
!!!!!!!! !!!!!!!!
Tag Data
Ġconven tion
r sp
th ough
Ġt ls
Ġin file
ho u
ac cepted
Y ES
Ġout come
conf lict
Ġtr ust
Ġ02 111
auto escape
Sur face
æ Į
ar ter
ĠW ord
Ġrestri cted
G TEST
head s
ĠE dit
Ġmodi fiers
RE W
File Path
local time
Ġens ures
ĠCED ILLA
vi sions
AN K
=[ [
isc si
Ġun i
ĠDe velopment
Ġc type
Ġo bs
Ġan onymous
inter mediate
Cy cle
Ġsh adow
Ġmulti part
Ġpop ulated
ĠCO MP
Ġleg end
SUPPORT ED
ti er
Ġtext ure
ĠEN ERGY
j it
ĠP ut
ES PACE
sin h
Ġposix path
" <
fl ask
Cur ve
suffix es
ge sted
ĠLo ck
6 06
d Value
f atal
Ġs d
Al pha
ron ic
Ġ'? '
E urope
å ¸
Ķ Ģ
en cryption
Ġde que
st h
Ġg dal
Ġli fe
Ġbel ongs
initi ator
Ġconver ts
ĠCl uster
sione er
de clare
ĠC ity
Ġres olver
Ġat t
.', ),
Ġin vocation
ĠT BinaryProtocol
======== =
Not Set
S AMPLE
r al
me ss
Ġn m
ĠIn sert
============ ===
Ġ2 50
null able
question s
blue print
mp loyee
len d
(' >
CO URSE
ĠAP Is
Ġre duction
Ġmock er
Al t
Stream Reader
Ġregion s
comp ound
p andas
re o
the ses
ĠAc cept
Ne gative
Ġh er
55 0
ĠNetwork s
hard ware
å ¯
or tion
Ġg ap
Ġ ent
Ġs rid
Ġsen ds
IDDLE WARE
ver ted
Ġco hort
i map
Ġ= ================
Ġv oucher
Ġm illi
bu st
Ġany way
assert Num
k r
Ġ" </
ĠA BO
Ġsub dir
Dis connect
w all
Ø ©
Ġme ss
Test Model
ĠR EST
Ġ[] ))
"> '
Ġauth enticated
pix els
T W
æ Ŀ
Ġclass name
lide an
R ing
V V
00 03
start Tag
ĠOR DER
Ġyield s
Ph one
: {
Ġb ank
ag ger
99 7
ĠABO VE
on or
le st
b rid
cur dir
MO DI
proto c
sm tp
Tri gger
T ex
Ġt aking
ĠD WORD
Ġcur ve
List s
H i
Ġ3 600
pi cture
DE C
Add resses
Ren ame
7 20
at an
raw ler
H ard
h its
p asses
v ms
Ġf g
ĠM a
CHAR S
W all
00 04
| \\
go v
f ar
stri des
BO OL
We ight
ce ed
Ġs phinx
Ġ# ~
ĠL D
loader s
Ġdiff s
C lock
in correct
Ġ" |
Ġin structions
Ġu tilities
ĠC SS
ig i
ĠJ S
R sp
b ench
ĠG Lenum
Con nected
Comp any
Ġstyle s
urm ur
pa lette
to lerance
value Of
Ċĉĉ ĠĠĠ
AB S
ĠIN T
dicate s
s lices
CH ANGE
38 3
(? :\
)) ;
SE ARCH
Ġcol li
Number Of
PO SIX
ĠCo mb
DOT ALL
} ;\
th ost
el ve
RE PORT
ĠName d
p itch
éĩ ĳ
æķ° æį®
POLIC Y
Z X
Ġs ites
vi m
ĠC OR
Test Loader
99 5
IFI ER
ĠC SR
ren gth
Ġgr ant
Get Instance
E Q
get state
ĠA v
flow Error
sc anner
AT ES
Token s
Ġg rouped
ĠB ro
Pre di
ĠTH REE
gramm ar
Ġw ildcard
Ġd u
inal ity
nt p
Ġeas ily
ĠF igure
Ġor ientation
Ġobtain ed
Decimal Field
PRES ENT
N B
qu er
ĠF E
sen se
I m
K ind
V isual
] `
Ġde velopment
state ments
Ġun ichr
=" %(
fire fox
+ -
ĠF etch
ĠM any
sh ards
SE PARATOR
Ġwi ki
: #
er t
gra ding
88 7
ĠW R
inst aller
mk s
Ġinherit ance
fa ctories
ĠAss ume
A Z
lf ormed
Ġper sistent
Di ag
o le
AL IGN
84 7
Ġround ing
@ _
Z IP
ti ca
iet f
Ġarch itecture
ĠLog in
Ġde coding
ĠR ow
Ġnet app
RandomVariable Stream
ĠSimple Transform
Ġconsume d
Ġg ate
Ġr gb
uti lities
Ġexp lo
candidate s
Cla use
ì Ŀ
de cay
Ġget ter
ST ORE
54 9
Ġboot strap
Q uestion
od b
ĠM ask
F lavor
ĠRe quires
rep lication
Pix map
j vm
Ġcid r
Ġ[' %
ĠX Block
book mark
33 1
Ġemail s
at able
Ġj ar
86 136
36 1
? ]
q q
Ġg t
Ġdisc ussion
Http Response
V P
j ac
z o
(" !
ĠPar am
expi red
Ġbox es
sing ular
let ters
TEXT URE
Ġinterpre t
84 5
pop up
Comp are
Ġremain der
z i
lo sses
Ġ[]) .
TERN AL
view er
MULTIL INE
en crypted
Ġla g
čĊ ĠĠ
Ġ}} '
ĠT wo
art beat
Ġmac ros
ĠLog ger
t ap
Ġimport ing
sc p
CO PY
Ġtra iler
poly gon
E AR
Ġm andatory
ph pt
Ġdecor ated
ĠCONF IG
77 9
bar s
gen der
bro ken
Ġprint ing
Den ied
, _
Ġh r
add Test
Ñ Į
the re
< >
s ales
Ġ{} ))
Ġrep lacing
confir med
Ġen force
66 3
Ġthere fore
in cluding
aris ons
="" ):
M aterial
Ġn av
ĠF IL
Random State
pri mitive
ĠQgs Processing
0 55
B ra
Ġf f
lo cs
month s
sca led
Q Size
Ġtri ed
altern ate
$ \
C ached
n args
si ent
IN AL
den sity
34 1
con tra
Ġ8 5
Ġpacket bb
attach ments
arch ical
Ġdesc r
T ip
å ĩ
ĠM D
chain s
Co ord
Ġpo w
cre ase
soft max
O ID
ĠPl atform
W arnings
p aste
Ġf ft
sur rogate
64 2
exp anded
+ (
ome tric
Ġq gis
ĠUser Factory
Ġair flow
reach able
P t
P eek
ĠI Python
und ant
man agers
mark down
Pbb Address
ce dence
Ġt up
Ġor th
Ġ9 5
ĠQgs UnitTypes
c url
Ġnot ation
ĠG yp
Ġvi sited
uu ids
w ildcard
index er
Ġmatch er
cho ol
N orm
O ld
pro ducer
Ġqu ad
Ġ%} {{
Ġdat atype
in ite
Ġc map
ĠT WO
lic ated
son g
af ka
........ ........
ul ong
ata kana
mac ros
Sta mp
Ġhead ing
ĠCRE ATE
or acle
Ġc he
Ġex am
ĠL en
Ġch apter
ĠUn ion
TH READ
) [-
h adoop
() ")
char ge
Ġskip ping
Ġindic ator
ĠB U
ret val
Av g
ĠL ike
84 6
28 2
vis ual
37 2
PE G
R N
Ġ rid
de ep
De claration
ui ck
Ġcomb inations
Ġpro cedure
ĠRe lease
'. "
Ġtrans actions
ĠTrace back
IC ON
03 6
IM ARY
28 1
shop ping
de cision
Ġre lations
Ġd ra
DO CTYPE
Ġcontin uation
m ate
op f
div id
c ers
ĠRe p
VAL UES
Org anization
ĠN um
uti lity
ĠDoc Test
bra cket
Ġtra cker
vl ans
D LL
p lit
Ġf u
Energy Source
ĠCon tainer
Trace back
TestAll Types
! '),
4 59
R pc
or i
', ))
Ġpre pared
pk gs
ObjectFactory Value
C ar
Ġxml rpc
4 05
ĠB IG
arg max
by e
Ġloc ated
Ð¸ Ð
ĠMet adata
Ġe ver
7 39
P ID
ĠM ul
Ġl c
expect ations
me tic
File System
Ġsa ver
A mp
c api
ĠC G
TER M
ĠS ur
ĠIn clude
Ġmock ed
OS Error
quot as
Coordin ate
map hore
Ġbuf size
Ġv rf
ĠF ull
aff inity
Link s
u FF
Ġre ject
duce d
T BinaryProtocol
ti mal
Ġf r
ren d
Ġ`` (
27 1
LIBR ARY
d td
ci a
Ġsh lex
Ġvisit or
ĠMis sing
R B
style sheet
DISABLE D
Ġre la
Input s
plan e
Ġexpi re
Ġke pt
an cing
ĠS m
ĠV AR
K I
ĠP ay
Ġk ivy
OLD ER
Ġiden tified
co ol
Ġv pn
ĠB EGIN
Pro c
Ġcur ses
s ke
| %
pre ference
os pace
28 3
T ASK
Ġde tailed
match er
Ġsick beard
' *
AS SI
Un defined
enk ins
re la
ĠE MPTY
ĠG DAL
Redirect s
O c
te e
Ġin cremental
Ġ(' (?
icon s
Ġfn match
Ġdash board
Re pr
parse String
F P
Lo gs
& ',
S patial
38 2
64 1
tra iling
Di ffe
spec tive
200 3
Ġsa mpling
D J
h orizon
ver sal
hier archy
r ml
mp eg
url resolvers
expr s
data field
Ġl p
assertNum Queries
r df
le aves
Ġin place
7 07
Ġi dentifi
pre serve
66 2
Email Field
rou ters
b ps
s at
Ġf ault
ĠTrans action
, ):
M ul
ĠT urn
Ġdatabase s
prob ability
ĠS ort
86 2
56 5
Ġsh or
tivi ties
Ġpa lette
ĠV owel
Model Form
Dis position
O ps
Ġ ten
ĠR GB
23 12
PRO PER
Ø ¹
Ġe vt
Ġof fer
66 1
cen tral
ĠAuth entication
Speci fic
grity Error
ref count
iter keys
gr ant
ĠGui de
e ss
in ject
g am
Ġs park
Ġ(? :
M N
u ator
od d
Wri ting
J OB
ĠC R
PL ATFORM
################################################################ ######
SC SI
Ġdiv mod
ĠM ET
Ġun supported
Ġpre fer
ĠTemplate SyntaxError
(" __
æĹ ¥
Ġeff ective
sp f
'' ',
ĠAUTH OR
B J
de precation
Ġe th
get Name
ĠS cale
cor r
Ġc ube
debug ger
jo hn
ĊĠĠĠĠ Ċ
86 7
ĠAs sign
Ġf resh
mo bility
Regex p
ĠFl ask
Require ment
abo ve
RO UND
80 80
Ġ. /
Ġ"- "
(': ',
mpo tent
ĠG UI
56 9
I o
D on
i tions
u lo
ns wer
os ted
Ġlookup s
Ġur lencode
ĠRO OT
ar tifact
ode tector
Stream Writer
" ^
_ ='',
assert Dict
key stone
ug gested
Default s
Ġpys park
H V
L T
k u
Ñ ĭ
tensor flow
Ġsur vey
ĠC y
out come
36 2
INTER FACE
Ġmut ually
ĠDES CRIPT
IM AL
course ware
ĠMe mory
W AY
velo city
Met rics
Ġdispatch er
ĠACC ENT
in coming
cr m
ĠIN TE
Ġexten ds
D ash
e qu
Ġs id
pro vided
EN GINE
ĠRun queue
74 9
Ac celerated
Ġequ ation
Ġt rial
Ġb gp
(' @
ST ACK
ĠFa iled
sup press
INST ALL
nat ural
SCH EM
v server
44 3
Page s
Ġop ener
co variance
29 3
UD P
C rypto
S ide
29 1
S uch
Ġun ix
Ġinter vals
Ġ ĊĠĠĠĠĠĠĠĠĠĠĠĠĠĠ
(' (
ĠS PACE
vi al
ĠM IME
gra ds
Ġindex ing
Ġsym metric
B i
Bind ing
Ġform ula
ĠFile s
Ġbound ing
Incremental Decoder
L R
ĊĊ ĊĊĠĠĠ
In f
distribu ted
Ġbal ancer
Mask Value
REM OTE
ĠSe cond
gre SQL
Ġw ind
Ġv ary
ĠIn formation
Ġgra de
Prefix Value
ĠBeautiful Soup
te in
index ed
MO CK
Cap ture
GetInstance TypeId
C AD
Co st
copi es
value d
Or deredDict
F ault
de crypt
bu ff
ĠM ongo
Ġra x
ten ces
tar info
í ķ
__ "
priv acy
77 4
Exception s
Ġpercent age
Ġd ll
Ġm c
80 39
Gra d
G lyph
Ġp ing
ĠL ab
Ġlo cate
Ġsim ulation
Exec utor
LA ST
ĠS ci
ĠM IN
ir ing
Ġal g
Ġserial ization
Ġmeasure ment
ITER AL
L ate
se quential
Ġh is
Ġme dian
EST AMP
ĠRE AD
appro x
Ġdiag onal
Ġ Keys
ke mon
EN UM
start s
ĠC S
len ce
LOG IN
Ġin et
Ġpar titions
write Struct
ĠAd ded
Match er
Align ment
te ts
Ġo dd
put ln
Ġam ong
Ġdata center
EX PECT
do o
={} ):
read Struct
pe ar
our s
ĠGener ator
Ġsee m
run k
Ġ"% -
ĠEn ter
A ct
Ġg p
EX IT
site map
sv d
Par ticle
tra ffic
Option Error
Ġjoin s
Ġinv ok
58 5
Top ology
measure ment
prot otype
ĠT IME
Ġpar ty
Test Data
_ \
t g
pre fetch
ca mpaign
ct ree
od ing
Sub scription
Ġgra ds
HAND LE
b id
s ch
s queeze
for ge
([ \
CON N
TAG S
RUN NING
S m
c make
Ú ©
Ġd m
Ġra ising
read Field
Trans late
h b
fa vor
Ġsign ificant
h ub
Ġu dp
Ġun iversal
export Literal
ĠPa rent
for d
Ġcomp ound
55 5
PO P
Ġexp orted
D ense
S ent
W hitespace
LE ASE
ug ate
l db
ĠT akes
bro ker
G F
ee ee
ĠDe ferred
Ġc ircle
mo v
Ġver ified
ren ch
es ter
sh p
Pro ducer
right s
open source
U tility
q z
ĠV LAN
c uda
le ton
bu dget
mb ig
54 0
End Tag
), )
cr t
App ly
mar ize
i am
trans former
Frame work
Do Dispose
VOL UME
D id
s vm
ta u
Comp o
Ab ort
ĠSh ort
ĠGa ussian
M ig
k ube
Ġth rift
ĠA CL
Ġne arest
Ar row
R ATE
Ġi gnoring
99 0
AS N
D M
Y X
99 6
tra p
: ]))
Ġcopy ing
pk t
ĠAl ways
tor n
LAR GE
is cal
Ġpro pagation
du ctor
ĠM ore
Ġcorrespon d
Multicast Route
C ateg
Ġs anity
Ġ1 10
88 2
Cap abilities
> (
H ar
M ix
ub mit
Ġtitle s
Ġst ation
ver b
err msg
Ġrep orter
set state
Ġsub mitted
86 8
TBinaryProtocol Accelerated
) ()
Ġ ĊĠĠĠĠĠĠĠĠĠĠĠĠĠĠĠĠĠ
37 1
S can
vi z
col l
ĠH y
ĠCh annel
AVAIL ABLE
ĠP lay
__() ``
Ġwrapper s
Ġplay book
ENC Y
M EN
=" +
Ġvalid ated
ĠDis able
Ġroll back
D ET
re late
pro xies
In v
77 0
matic ally
it ored
Ġv if
Ca lendar
Ġbyte code
Pix el
cas cade
ĠC AR
77 8
is y
ke h
ĠS OL
ang o
group by
sub scriber
tra cer
35 1
categor ical
T HE
54 4
xis tent
A mount
re pl
ass oc
Ġst oring
Block Ack
Def ine
IN CLUDE
net conf
G MT
ip h
Ġ[' *.
Des cri
ou te
54 5
Cl asses
ens ors
IPS IS
assertList Equal
ĠSER VICE
P ending
ĠT wisted
ph en
88 5
contain ing
. :
q m
ren dered
ç ¼
Ġin ject
la m
sc m
Incremental Encoder
p ys
Ġ0 1
Ġex planation
Ġas c
PL UG
ĠPAR AM
æ Ķ
Ġa i
Ġh ello
ĠM EDI
Ġmat ter
stat uses
Power System
ĠFe ed
Ġc i
fi sh
ver ification
cy gwin
post s
ST M
ĠFunction s
us b
Ġ(' %
ph an
(( ?
Ġp cap
Ġo o
con tacts
du ctions
divid ual
= (),
| [
Ġres ol
requen cies
Ġaff ected
Ġsub title
Ġdesc end
Ġconven ience
è Ģ
Ġh orizontal
Ġex is
ĠE val
}: {
Ġr r
ĠH igh
Ġfin ds
handle s
Ġtr uth
Ġfolder s
w agtail
Ġc x
cor pus
Ġle aves
ud ge
dm f
Di rect
order s
sa mp
s andbox
we red
Ġdetermin es
} -
mo der
ĠN ext
t up
Ã ¼
am big
Ġte l
Ġcapt ured
({ },
Sup p
th umb
Ġas n
Ġun iv
ĠGener ated
Ġpoly gon
B oost
e fs
Ġ" ''
Ġspeci fier
Ġ8 2
EST ION
coun ters
Graph ics
Ġsn ippet
V m
Slug Field
Ġ que
le ading
sen tence
SOCK ET
STOR AGE
A cc
Ġpro ducer
Ġs light
file Name
Ġpro duces
ĠRe mote
red hat
ON OS
sub module
Ġrecur sion
Associ ation
av id
CK ET
Per m
Ġest ablish
Pro vides
EB REW
SCO PE
H o
Ġc rop
ĠH EBREW
=[ (
C ENT
Ġo ct
ad ap
Normal RandomVariable
Ġst ory
86 1
Ġa ctor
Ġlo ops
Ġ] :
Ġide a
H A
Ġf t
Ġt witter
Ġal ter
Ġk v
node Value
88 1
06 0
Ġlength s
Callback s
Write U
G a
ĠSh ape
! --
get Current
vi con
ĠI M
G OO
=' _
db g
Ġgroup ing
pos ure
Ġloc ally
Pi pe
Ori ginal
L ive
M IC
un set
RE AL
Text ure
Ġ'- ',
Work flow
P an
ver ity
Ġwas n
ĠTime stamp
('. /
TOOL SET
B ug
f unctools
ĠC C
Lay ers
sel ves
Ġ( .
èµ Ħ
Ġh olding
to String
ber g
Ġmake file
gin es
INTER VAL
Ġjoin ed
database s
Ġms gs
$ "
Ġar tifact
fil led
Ġtrans pose
ĠPre pare
d bus
n ight
Ġa e
ĠT witter
+ %
` ."""
he at
As sembly
speci es
ĠExec ute
out s
mt u
Pre processor
8 39
S heet
'' .
ĠEn tity
Ġsc anner
I ssue
b io
Ġwri table
Ġtor rent
Ġcon caten
TX T
O GR
vo ices
Ġun link
HE LP
Trace dValue
Ġaut og
PARAM S
Ġsucce ed
Ġur lopen
d j
ar a
Ġm ne
ĠZ ip
amb da
ĠS ol
ĠA ppro
ca ches
ĠB atch
Ġ& =
graph s
ship ping
W HERE
č ĊĠĠĠĠĠĠĠĠĠĠĠĠ
ĠT ONOS
dir path
URL Field
Ġsupp ly
Ġmail box
ä¸ Ń
ĠCall able
Ġproc urement
abcdef ghi
æ Ń
Ġb a
dd l
IM PORT
web driver
Ġequal ity
sib ling
test dir
In struction
59 6
Template s
ufa cture
Ġinstanti ate
Rect angle
over lap
utor ial
Ġinte ract
P UL
ch ors
Data Source
ĠN ET
Ġcor pus
Ġwebkit py
H ist
Ġand roid
Pro be
PAT CH
Ġcre dential
b la
h ive
as yncio
ari os
Ġc rc
i red
de nominator
ĠC HE
change list
in herited
AP PL
Ġz oom
ĠIN DEX
uplic ated
ABL ES
Br ush
ĠC E
Dimen sion
m w
Ġf ocus
cla im
DESCRIPT ION
S ales
l ms
MON TH
pa st
ĠP ick
tx n
INTER N
var type
09 0
ĠJ an
Ġ#@ -
d ro
ĠDetail s
ĠP F
PO OL
M ouse
e es
f rontend
Ġh a
data center
Ġsome one
Ġbind ings
) (?
G UID
b ill
99 4
Ġallow ing
MIN US
t ur
start up
tra il
84 2
Ġfl t
: \\
03 1
* /
in side
Ġ' ~
Ġ( ``
Ġref lect
Ġde cay
IL ON
comb ined
M X
U l
ĠT itle
ĠB OM
embed ded
Ġe mul
mo l
Ġ"' %
Ġtrain able
a odv
ve st
ĠE d
Ġkw ds
; ",
T urn
Ġin struction
us si
G D
un able
Ġh older
Ġm v
vi p
expi ry
g un
le ts
ĠD rop
74 4
Ġhint s
W o
ur ator
new doc
branch es
F d
() )))
ĠCon tact
Command Line
AND ARD
Sy ntax
Web Socket
Ġde precation
alo gs
Ġ[ {"
min i
Di rection
micro soft
py pi
Ġ(' \
29 2
ĠID L
success ful
[^ >
N X
Ġb isect
Ġas ynchronous
Config ure
ticip ant
K A
module Name
no tifier
74 83
Ġsocket s
Work space
at ty
38 1
di es
var name
Ġlong itude
Ġfinal ize
- ]+
Ġc Pickle
bu ffers
ĠCh rome
Page d
M er
ç ®
ĠT r
micro second
ĠES CAPE
narrow ing
ĠC ap
Ġ` _
Ġcomp uting
Ġac cessible
ĠAt temp
Ġrep lica
æĪ Ĳ
li gh
An notation
"] },
sub st
Ġ& ,
L arge
ĠĠĠĠĠĠĠĠĠĠĠĠĠĠĠĠ ĠĠĠĠĠĠĠĠĠĠĠĠĠĠ
Ġc xx
(( ('
Ġdrop ped
Ġrespec tively
Ġp od
Ġ# '
il le
(" :
Dis c
Ġfor wards
=[ ]):
ĠPo licy
Ġ#@ +
U A
Ex pan
Ġtar ball
ĠSy m
S Q
cl ang
C ity
b ash
b dist
ĠS cal
price list
Modi fy
ĠB L
Ġ[' /
ord inal
Al ready
mo ment
Ġv c
Request Context
ENS OR
pol ling
birth day
ĠT ar
09 4
make pyfile
BACK END
é Ĺ
ĠM ail
bo m
CH ANG
Time s
Ġfind ing
ĠAl tern
ĠSY STEM
in h
ĠT i
mark ers
Ġ 89
Ġd ct
Ġgener ally
Message End
disk s
acti vated
ĠCAR ON
d ra
Ġre li
the ader
f ld
in omial
re y
at tached
Ġ" "),
tic ally
gen s
T M
Ġme as
ĠCommunic ations
3 10
A lert
ten tially
mis s
tp l
Ġpa use
Ra ised
Build ing
Ġn om
Ġar c
Ġoper ating
g db
Ġs lices
C ustomer
r at
x ception
mks temp
u ds
vi ty
A re
I den
Ġn u
Ġas sets
db c
Lo wer
LIN ES
ĠPoly gon
Ġ ĊĠĠĠĠĠ
Ġa a
Re ason
ĠMo st
Ġclo sure
L AY
im db
Ġte ardown
exp lo
w l
ick ness
GL U
(""" \
ĠVariable s
G NU
i ous
DATAB ASE
'] "
oo zie
FA CT
ATION S
4 08
Add Field
drop out
conver ters
U i
o ms
ĠM ichael
ĠR ET
VERT EX
C atalog
ĠS w
Th at
invalid ate
fici al
EXEC UT
H Y
Ġin teraction
ĠF raction
Ġinter section
spli ts
Inte gral
forma tions
M ar
h al
Ġ= ================================================
Ġin complete
Ġtest case
[" _
base string
ĠControl ler
Ġre cogn
vari ants
ĠNUM BER
st reet
Ġc utoff
Ġcon sistency
Ġg uid
ys lip
Ġversion changed
Par sing
Ġtrans parent
58 3
SIGN AL
el b
Ġon delete
moved In
a ler
59 4
Ġorder s
# @
h dfs
j kl
ĠD raw
ĠV ol
inter rupt
ĠDe precated
rate s
ĠContrib utor
U ns
Ġqu it
Ġthem selves
get pid
ĠV PC
Ġplan e
N CH
lo p
prefix len
Sto ck
ire fox
de termin
Ġpro grams
Ġblue print
C op
re x
Ġpro ber
DO C
9 79
Ġm l
T AB
U INT
c map
Check sum
big ip
P AY
m ro
} </
â ķ
Ġ] ),
57 3
76 0
åĲ Ī
e mb
å ¿
). "
Ġal located
Ġnormal ization
rq s
torn ado
listen ers
J i
n es
get new
Ġorg an
XY Z
Ġlar gest
Ġif f
Ġg round
Ġfactor s
li me
Un til
S leep
pre fs
Ġprefix ed
Ġ'{ "
Ġsw ift
B IG
g us
ĠD el
print f
59 5
ĠTechno logies
Ġb lah
Ġg arbage
IP PROTO
Start Tag
============ ==
band width
ac cent
For bidden
Ġsimp li
ĠGa ffer
ist ra
Ġgener ators
Ġcom ing
Ġhw tacacs
INTERN AL
h aps
di mage
Ġdi ms
EX PORT
Ġs rs
M argin
v di
59 8
SW ITCH
again st
Ġmonkey patch
S chedule
_ ][
a vi
ma le
ĠO b
ĠW idget
da ily
Cre ator
3 12
Ġb are
") ])
ST D
Ġdriver s
mime type
Represent s
Ġde tector
=' \
Sub mit
Ġpop ulation
ele ms
K F
c um
Ġd rag
KEY S
â ĸ
Re quires
ĠSo cket
): \
â ĶĢ
Ġpro files
be havior
69 6
Pay load
V ol
k orean
Ġ ################################################################
Ġe m
ul ty
Ġdoc utils
ĠOF P
Ref resh
ĠUP DATE
hyper visor
U id
v at
59 7
wer kzeug
Ġsign atures
Ġr f
Ġbu ff
position al
ff f
Ġ'" %
Ġt type
ten sity
Ġdump s
di ts
ren tial
short cuts
umul ative
() \
ĠW indow
ĠRe present
Ġpk t
G l
l ings
86 137
ĠDi ffe
UFF LED
ALLOW ED
> :
ET ED
so ftirq
88 3
En glish
Build File
Ġs tem
é ĵ
ĠT AG
lit ude
Back up
TIT LE
c lic
st ype
Ġp open
ut y
get Value
ĠS cen
ĠO ct
pre ferences
Mo vie
ĠA BC
Ġde leg
=' -
Ġname dtype
TH RESH
Cho oser
organ isation
onom y
Ġre jected
Ġin vol
ul us
Ġmsg id
ĠOUT PUT
ds dv
con tour
ĠD istributed
, .
? )
B N
X dmf
OT HER
06 2
bad ge
Ġglyph s
n th
ä ¹
total s
Ġdraw ing
77 3
Pre proc
Ent ries
O spfv
rep lay
Ġdis connect
Ġguarante ed
bu ffered
Ġshort cut
Libvirt Config
ĠF ULL
pl atforms
56 3
v x
ED IT
Ġjson utils
circ uit
comb inations
add Action
ĠU tils
ati vely
Ġmark s
v h
Ġ( %(
analy zer
Ġlate x
Simulator Impl
F lat
J y
ex tern
Ġ8 1
Ġ'/ ',
Ġcr on
() +
__ ']
block ed
Module s
v out
and ra
Re view
ĠRe quire
Ġredirect s
C lip
Ġf avor
fort ran
ĠCOR P
H P
F Y
a es
assert Redirects
ild cards
Ġby ref
Sy m
SC AL
Ġfo ot
Pi peline
F ocus
V ars
x large
ab et
Ġper ms
win reg
Energy Model
PER F
ĠJo hn
b k
State s
nup lot
X D
`` )
c utoff
Ġpar ame
Ġsuper class
ĠMo zilla
Ġsearch ing
Bit map
Ġh d
k ubernetes
in ge
Ġlog file
Ġlink er
Ġti p
Ġconv olution
STY LE
Ġr fc
Res olution
extend able
int ro
ĠL iteral
Ġx mm
size i
URL CONF
#---------------------------------------------------------------- -------------
ĠTR ANS
re moving
Ġbreak s
WAR N
C r
V K
de scriptors
Ġre named
Ġan sw
up loaded
pa id
Par tial
F ilters
N ative
m rp
Ġ âĢ
Ġdi ffer
ne ver
ĠM UST
53 57
]] ))
Ġmeta class
PACK ET
Ġ655 35
d uplicates
ke eper
ĠChar acter
un lock
Ġel t
iso format
Ġepoch s
L java
Ġinst aller
å ·
Ġse mi
Call s
Device s
Struct Block
æī Ģ
tr usted
74 0
07 0
desc end
Ġsepar ators
Ġyear s
HelperFor Device
Ġstr ong
pre process
Ġal locate
Me asure
u ations
Ġpre pend
ĠMethod s
57 1
assign ments
Conver ts
fri ca
y lim
Ġcon cat
EN DED
Gu ard
x ls
pa int
Re quested
eval uation
Dir s
Ġkw arg
= ?
Ġtra cks
************************************************************************ ***
n def
Ġ ~~~~~~~~~~~~~~~~
Ġlib vlc
Assign ment
verti se
ĠJ inja
Skip ping
Imp orter
Analy zer
k f
Ġma gn
Ġtrans former
Ġrelease s
N MP
x o
ap ing
Sh are
Ġbranch es
Enable Ascii
return ed
mod al
xml rpc
UN C
, *
un register
ĠĠĠĠĠĠĠĠĠĠĠĠĠĠĠĠ ĠĠĠĠĠĠĠĠĠĠĠĠ
Ġreport ing
Ġsnapshot s
Se quential
loy ees
Down loading
Ġinstanti ated
O ct
url join
if e
Ġk s
ĠAN GLE
Ġrecur se
ĊĊĉĉ ĉ
Hy per
ĠDown load
c red
an nounce
') ",
per sistent
---+ ---+
CLO SE
S ca
Ġs vg
ĠCreate d
RES ET
Ġcs rf
UST OM
alloc ated
B K
('/ '):
Ġperiod s
ĠOper ation
ĠĠĠĠĠĠĠĠĠĠĠĠĠĠĠĠĠĠĠĠĠĠĠĠĠĠĠĠĠĠĠĠĠĠĠĠĠĠĠĠĠĠĠĠĠĠĠĠĠĠĠĠĠĠĠĠĠĠĠĠĠĠĠĠ ĠĠĠĠĠĠĠĠ
2 80
di stribute
Ġb old
Al location
D im
er ing
rom ise
ĠA tom
ĠC om
ER IC
Ġ[' ',
Get S
ps y
Tra de
app y
AC L
Qgs WkbTypes
H IGH
h unk
in tent
path sep
CO UN
Ġq n
system s
INST ANCE
Ġa vo
ve stor
Ġ''' \
Ġmodi fier
B T
res ubmit
dd d
Ġte chn
ĠLo op
Ġflatten ed
Ġnest ing
' ')
. '.
R EST
Ġ( *
ĠP UT
OR ITY
Qu ota
Ġsearch ed
inte rest
Ġw f
Ġal gorithms
The me
ĠBo th
u ge
micro seconds
asc time
experiment al
99 2
trans lated
compo site
presen ter
Ġtele metry
se mi
Ġc art
Ra ise
ven tion
A Q
ĠE very
Course Key
Calcul ator
, )),
== ')
Ġconf licts
bri ef
Ġrespon sible
ĠComponent s
S Z
Ġ ys
Ġf la
Ġ" ^
() ',
Ġco erce
Server Error
Ġequal s
Document ation
pub key
(' {}
ĠT ho
Ġst roke
tr ance
ĠW here
cr s
nx os
Division Error
M gt
V R
od oc
Ġz ope
Tensor Shape
f am
Ġre write
Ġre strict
join s
modi fier
ĊĠĠĠĠĠĠĠĠĠĠĠĠĠĠĠĠĠĠĠĠĠĠĠĠĠĠĠĠĠĠĠĠĠĠĠĠĠĠĠĠĠĠĠĠĠĠĠĠĠĠĠĠĠĠĠĠ ĠĠĠĠ
restri cted
on change
Ġc riterion
Up per
over view
] .__
å Ĩ
Ġ ĊĠĠĠĠĠĠĠĠĠĠĠĠĠĠĠĠ
ma cs
ĠL ong
æ İ
out box
pre pared
Ġget pass
Ġq t
google apis
ĠField s
Ðµ Ð½
teri or
* :
Ġla titude
ĠComp are
no res
Ġaltern ate
+ /
ĠM at
""" \
ĠR ender
au ge
Ab out
VIS ION
b asis
Be a
ĠCol lection
Ġsilent ly
W ave
ĠG rid
Read U
Ġsubnet s
Ġb log
ĠD IR
ĠG P
57 2
ĠPY THON
M i
form ula
TR AIN
imp orted
enum s
mp p
ap pa
Ġauth ority
Ġ[" -
Ġs af
si tives
Protocol MessageType
84 1
sa mpling
Ġa Buf
ĠD AT
"] ],
Ġsy scall
sn ippet
Defin itions
Ġdeli very
nick name
F ollow
01 00
De cl
SH OW
sym metric
Ġdisp lays
vi sed
ĠF low
Ġg olden
auto commit
Ġansw ers
m utex
Ġwhen ever
Ġca used
Ġwork around
Ġsen sitive
supp lier
# ',
mo ke
======== ==
deri v
e o
j d
et o
Ġpro x
]) ):
ĠR ight
top o
Simple TestCase
FE ED
Without Context
O LE
ro g
Ġl un
B W
| .
Ġto ggle
of fice
Box Layout
rer ror
ä» ·
G tk
Ġc ritical
FOR E
Instance s
Speci fy
Ġkey stone
ha i
tit lement
TT hostFtdc
> ']
un ted
pro tect
lib vlc
Ġ[] :
ĠX C
ĠTO KEN
Ġass uming
termin ated
alle ry
ĠUnicode DecodeError
Ñģ ÑĤ
Visit or
re build
(' '.
Ġg rp
ep ub
mq tt
ĠPL US
Combo Box
n am
y ond
ĠRE QU
IBUT ES
Ġs am
si zer
Ġun do
Ġbase line
err ing
QL abel
ĠBy te
B IB
ĠS te
ne e
Ġpre served
face book
49 67
Ġmis c
Ġcustom ize
W X
ĠĠĠĠĠĠĠĠ ĊĠĠĠĠĠĠĠ
Ġre cognized
Ġthe mes
un ge
late r
CON NECTION
Ġresource Path
plain text
Ġvocab ulary
T os
est yle
uf unc
AG ER
exp ense
dist s
ĠSub Element
Import Error
2222 2222
Ø Ń
lo s
un less
ĠC allback
ĠP ossible
ĠD er
pre ferred
Ġx m
74 5
s tem
as sembly
ref und
DB Feature
Ġ Ùħ
Item Iterator
mar shal
Ġcach es
C en
ET YPE
ĠRe cur
Ġport al
Ġact s
Ġ}} {%
o ffering
u ters
in vert
Ġc ms
AT T
Ad just
Ġdisc ard
Ġs ink
20 48
è §
ĠH A
.* ',
4 80
la pping
UN IX
Bo th
ANG O
Ne ed
Ġcontext s
tra its
09 8
DEL AY
packet s
çĤ º
k top
u j
pro duces
Ġne ar
mu sic
Ġbe am
ĠH and
grid Layout
Ġclose st
gl ance
D ig
de queue
Ġex ploration
q emu
of p
Ġgraph s
ĠData set
fri endly
PRIV ATE
Ġ' ),
ur on
Ġ9 4
58 2
Multi line
ĠModule s
POINT ING
Ġadj usted
V irt
Ġre cipe
Ġw all
URL Y
Ñ ĩ
Ġ der
con trols
inc ref
G reen
ĠS creen
)) ])
um ask
ĠG R
Ġsub titles
fq dn
æ Ģ
Ġbu gs
Lo ok
ĠSup er
Ġquot ing
Ġderiv ative
PARAMET ER
n The
Ġas pect
ho o
Ġpre ference
fil t
GE OM
stand ing
P ED
ĠP il
54 8
socket s
ĠPost GIS
VERS IONS
A verage
F amily
and a
25 49
Ġcol on
AC COUNT
ĠSC SI
test data
cor der
(( -
Ġtop ics
Ġexport Literal
PUL SION
S trict
b en
Ġfield name
iter tools
dis cover
lass o
SV C
E cho
ar ith
V T
NU CLEAR
ĠSt udent
Ġconsist s
s ms
si p
Me dium
off line
Ġus able
Trans lation
Ġtran sitions
trip le
Ġmin idom
Ġhash er
C amera
Ġa pt
ar di
In correct
ON ENT
clu sions
Ġ%} ',
me ga
UM ENT
åħ ¥
ty pename
Ċĉĉ Ċ
ĠRE PULSION
La unch
C DF
R IC
Ġfor tios
TR AN
wi k
modi fiers
ĠMark up
ĠSkip Test
out dir
pre amble
58 1
Update d
Ġimplement ing
Ġm ul
Ġcl c
74 6
n py
'] /
DI O
Stream s
tran script
Ġlicense d
h id
Ġ' //
um flex
Ġr ating
IST ER
s anitize
ee e
Ġconnect ing
J s
Ġi mmutable
Ġs cheduled
Float ing
WH ITE
mpo ol
v box
ci ties
67 8
lookup s
edi ted
PK G
Ġslight ly
B G
Ġ linux
ur is
up pet
und les
Ġad vance
Ġ'< %
Clo sing
ĠTrans form
Generated ProtocolMessageType
S Cons
b lit
t body
Ġin ference
build ing
note book
>` _
VIR T
Ġtri p
Ġassign ments
as pect
end Tag
sys log
x lim
ĠS pa
[' /
Ġg n
od ata
air flow
ot os
queue s
Pre vious
ĠC annot
By Id
Ġ$ @
DB G
uv w
ingu ish
el ly
Char To
VID EO
X T
m ic
in string
ĠA gg
Ġx i
ĠRe direct
QU OT
n il
Ġv l
capital ize
# ------------------------------------------------
P ref
lic ing
Con sumer
Ġappro ach
S en
e vt
ld p
ge bra
Ġpro tected
Pre sent
ret ty
i lf
k h
Node Id
Ġret code
ne cessary
Ġsign ing
fl u
Read y
Ġprob abilities
Ġn dim
Ġ[ --
IL T
S ynchron
č ĊĠĠĠĠĠĠĠĠĠ
54 7
Per missions
ĠQuery Set
F atal
V rf
ä ¼
") ],
Ġx c
De leted
ĠSy ntax
L W
L ite
é Ļ
ro pping
ĊĊĊĊ ĊĊĊĊ
h um
w id
Ġre corded
), ))
ĠA SS
ĠFor ce
0 30
arch itecture
Tensor Product
Ġtes ter
zzzz zzzz
rout ine
S uffix
` _
g let
è ½
ĠP UB
Client Error
Ġinte gr
G DAL
Ł ¥
Ġinter net
Ġseparate ly
EXTENS IONS
S ql
Ġc reds
set Attribute
Ġtime d
ail y
over lay
ĊĠĠĠĠĠĠĠĠĠĠĠĠĠĠĠĠĠĠĠĠĠĠĠĠĠĠĠĠĠĠĠĠĠĠĠĠĠĠĠĠĠĠĠĠĠĠĠĠĠĠĠĠĠĠĠĠ ĠĠĠĠĠ
coeff s
(" ^
ach er
Ġ---------------------------------------------------------------- ---------
æł ĩ
ĠG en
AT ORS
jo e
peri ments
ç¼ ĸ
or row
12 52
Ġvm ware
proc urement
Ġs ke
un parse
Ġreturn code
Ra dius
Ġfont size
vocab ulary
æĸ ĩ
MARK ER
? ")
C AN
L u
pro cedure
ĠRun time
ĠWeb Socket
Ġleg al
0 25
diff s
fici ency
READ ME
Ġo lsr
Ġv ir
Ġon line
og gle
Wor king
w ns
Ġb f
ed o
Se ed
Ġim db
Ġldf lags
ĠN umeric
List Entry
buf size
k n
ile stone
os f
Ġfunc s
poly morphic
+ '.
Ċ ĊĠĠĠĠĠĠĠĠĠĠĠĠĠĠĠĠĠĠĠĠĠĠĠĠĠĠĠ
Ġv endor
pro x
add Handler
context s
Ġspa cing
R ank
Argument Error
ar th
align ed
m utable
v b
Ġp an
() ')
Ġg rpc
)] ))
Ġcor ner
T MP
mo gene
Ġcon tra
Ġ1 69
Ġforce d
ĠApp end
Ġp itch
(' *
rep licas
ĠLe g
ĠSign al
Ã³ n
ĠM B
\\ .
CODE C
Loop back
ĠØ ¯
Ġpor tion
Ġ204 8
Ġtrunc ated
Ġdeclar ations
SVG NS
Ġf ingerprint
Ġm ongo
Ġmo x
Ġ` %
static files
Template SyntaxError
Ġprovider s
X code
` '
TR ACK
Ġstream ing
------------ ---
pur ge
Ġw p
is abs
Ġst able
Ġg oto
cc x
MIS SING
ĠT ake
Ġ{ !
Ġse lenium
Ġp ants
ĠR en
Lo cale
ĠForti Gate
Ġi ma
Ġ" };\
00 20
Ġ2 24
Ġhas n
sig moid
Ġliter als
an za
Ġp ci
ĠU s
()) [
ate l
ĠT yp
code point
ĠG B
Ġag g
Info Extractor
F ALSE
M ixed
Ġm q
sp on
44 8
ĠPri vate
# \
n br
) +"
B z
S el
get attribute
arch ar
MA KE
[ ('
or tions
Ġa ci
ĠUser Profile
ç §
ce ph
ot ing
==== =
Ġout line
system Id
Ġaccess ing
s ay
Ġre boot
Ġe ta
Ġw r
Ġd hcp
ĠB ASE
Ġexp ressed
ĠPro vider
Process Error
p late
Ġs ong
Ġun able
ĠIn dicates
53 1
dist ro
Meta Info
Ø ¨
RE PE
Ġcluster ing
Ġex posed
Ġdi e
ĠU nsupported
Ġsy scalls
Ġ0 5
ĠPro blem
Ġ'_ ')
HTTP Connection
seq s
la ci
RA INT
a uc
ĠC P
Ġsh orter
ja co
) +'
R ound
b untu
Ġ% -
Ġpy lab
mon key
or arily
Ġlow est
ic mp
IN TR
39 7
BO UND
Ġme ant
ĠB us
CO VER
B az
ot onic
rect angle
ĊĠĠĠĠ ĊĠĠĠĠĊĠĠĠ
Image s
di g
Ġcomp ilation
keys pace
44 4
ĠCourse Factory
ĠRo le
ĠGra dient
Ð ´
li days
pro vide
temp file
dat at
ĠPAR ENT
simul ator
g ons
ĠF A
Ġbo ost
Regex Lexer
Ġside bar
6 20
is son
Ġapply ing
in cr
ur y
ĠEx it
Ġturn ed
s us
Ġe ol
out going
PRO XY
Ġbucket s
simp lify
B urst
_ %(
u ids
en force
Ġin structor
ĠT otal
Ġde viation
ĠH andler
BY TE
Ġstand alone
shopping cart
ĠG RE
Ġproto cols
ĠGeo IP
9 69
de os
de tailed
Ġ{ (
fi scal
Ġset ter
Get M
SH IFT
e ol
v k
Ġf loor
tra iler
Ġdec ref
p ho
Ġo mit
s atis
Ġs vc
assert No
tri bs
Get Attribute
ĠCo uld
_ '+
al ic
Ġrep lication
^^ ^^
Ġsca led
c sc
me as
ĠS witch
99 3
CT L
ĠSM TP
Conn ector
o h
s an
Ġimp rove
="" )
) [:
Ġin fer
ct r
Ġb ri
ĠG PU
Ġfail ing
termin es
tex info
Ġdynamic ally
') "
from timestamp
ĠG TEST
Ġen tered
Data Rate
pol ar
Ġcen ters
w est
Ġv t
rom isc
sh ader
Ch at
55 8
article s
b is
an ussi
no stic
UB E
MAP PING
yy yy
b ag
Ù Ĥ
Ġe mitted
56 1
Base TestCase
make Suite
fri ends
PUB LIC
> )
tag Name
Ġad ap
Ġpick led
ĠGL uint
+ )/
c ub
re servation
add le
war ns
ĠUse ful
L V
=" _
Ġ8 3
Ġbound aries
Ġpur ge
Ġal most
work dir
000000 4
Or More
Ġcap tion
ĠTechno logy
éĵ ¶
bo gus
Ġch rome
]+ )\
ĠMAV Link
key pair
Ġper iodic
Ġtra its
Ġqui te
foot note
= ':
x z
ument a
ĠEx ternal
000 8
CE L
ĠsetUp Class
ce an
Ġt bl
ra tic
Ġg cc
Bound ary
> ]
ĠĠĠĠĠĠĠĠĠĠĠĠĠĠĠĠ ĠĠĠĠĠĠĠĠĠĠĠĠĠ
cess arily
so lid
Ġcycle s
MEDI ATE
H ide
k ivy
ĠS AX
Ġ* **
Ġ/ ><
56 2
GR ESS
tar ball
WOR DS
h df
Ġin dented
Ġco uple
'} }
Ġnext char
Ġgra b
atten tion
Ġoverri ding
Ġh aven
NotImplemented Error
s he
stri b
Mode ls
IZ ED
Ġsn mp
> &
F u
Ġs v
Ġm utable
Ġspeci es
09 3
ĠPO SIX
ĠChange s
åħ ¬
æĹ ¶
j is
ag a
gra der
Ġj avascript
e in
Ġn aming
Ġby test
05 2
Ġaccess or
KEY WORD
. ]])
s lider
Ġ3 60
sp ent
av ail
Read able
dat um
ĠY AML
Ġbib doc
r vs
Ġa io
ume rate
B enchmark
m sec
ri a
ca pa
Ignore Arg
ĠDESCRIPT OR
Ġa ug
Ġde t
Ġ4 096
emp t
9999 99
ĠFail ure
ĠH er
Ġper forms
provision ing
Ġex tern
SE EK
Ġnew s
mon ospace
Ġadj ac
ĠC ATEGORY
Ġar row
In dices
ĠU S
Ġpo tentially
deg rees
D ont
Ġh s
pre cedence
current ly
Ð¾Ð ²
Hop Limit
conti guous
m illi
== >
ĠF uture
Ġincre ase
H N
Ġ1 11
THRESH OLD
g olden
Ġ ĊĊĠĠĠ
Di gest
Bo ot
ĠUp load
w an
" |
si stant
Ġun available
arg parse
59 1
g A
(' {{
ci fic
Ex tent
dl p
i ra
Ġf lip
ri sk
ĠG MT
cb c
d ont
g te
i ko
ho les
bo o
CO bject
Ġextra ction
ow ski
D EST
P ad
di x
Ġtest Get
ĠE asy
05 8
######################## #
Named TemporaryFile
PREC ATED
Ġautog enerated
æ µ
ĠM enu
Ġso on
d ri
Ġ1 44
ĠF o
data dir
Ġmax size
39 8
09 7
down loads
ĠEng lish
y i
il s
Ġle ts
74 7
39 2
Ġplain text
b re
x FFFF
re call
ĠL oose
ac me
ĠIn ventory
run pytest
sec utive
PS ILON
! )
F MT
M IME
Ġ= ================================
Ġb d
AL TER
= _(
? ')
CA ST
("/ ")
č ĊĠĠĠĠĠĠĠĠĠĠĠĠĠĠĠĠ
port unity
At trib
Ġabs path
Ġta u
SUP ERUSER
Coun try
Ġsucce eded
= __
re sis
Ġ' ))
ra ms
parse Error
Un ref
Tra in
G IT
ff old
No tes
year s
byte code
movedIn Django
Ġp lots
def late
ĠA ct
date d
19 70
sim ilarity
Ġattach ments
ĠSTAT US
Ġ(' <
so cks
Per cent
432 6
Ġke eps
Ġclassi fiers
o a
set Name
la de
Ġbase dir
\ ""
pe x
Ġdata Size
Ġsup posed
chunk ed
æĸ °
Ġa pache
li g
ĠLookup Error
S quare
re ceipt
Ġh ot
Ġpro pagate
Con version
vm ware
dot ted
IF ICATION
gra ve
free ze
ĠNE W
reconc ile
: **
u um
ing Methods
Ġ... )
Output s
follow ing
declar ations
... ]
54 6
Pl ug
[] ",
EXTR A
+ )?
Ð ²
Ġt an
si l
Ġv dom
IT IES
Get ReferenceCount
ĠCourse Enrollment
cpp class
s pectrum
Ġc g
mat rices
ĠR EC
RE LEASE
Ġoper ate
__ ):
im ates
čĊ čĊčĊĠĠĠ
C OR
ĠS trip
app lied
Up grade
Timeout Error
] ._
n k
Get Output
Ġ\ "%
Man age
TypeId Checker
Callback Checker
Socket Ip
Exec utable
Ġscal ars
Ġknow s
Ġdeveloper s
D om
S ound
d T
h ib
o ffer
x sl
Ġ' ../
assert Template
ati lity
Ġdot ted
Com ments
ingMethods Policy
B RO
Type d
reg ist
use rid
rm dir
ReferenceCount ingMethodsPolicy
N M
ĠP atch
MEM ORY
Ġpeek ref
D er
D raft
Ġ' ;'
=" {
IC IT
)] ],
Ġwar m
Ġscra py
H ESIS
Ġs al
Ġde sk
Ġpri mitive
Ġdisk s
re vert
om it
attr getter
ĠCHE CK
Ġfor get
zz le
NOT E
ffff ffff
irc uit
M IDDLEWARE
p ids
as df
Ġbu ffers
& ,
3 15
l ti
": [
UL ATION
77 1
Ġbatch es
C MS
p ulse
ĠA bs
ST EP
Ġdis cover
dev s
MEN U
S n
Y W
Ġp w
Ġb rowse
Ġpre sence
Ġauthor ized
ĠOr dered
We ak
Ġtrigger s
ĠLD AP
c si
RE DIRECT
Ġ}} </
nex us
PRESENT ATION
K eep
ut ter
que ster
gra des
by ref
ĠReg ular
Security Group
ĠConver ts
Ġ entropy
li ation
RO C
gin x
l te
vn c
Ġa ck
ĠA CT
Ġse cs
Ġal ive
St and
59 3
39 5
tar file
Ġsmal lest
/{} /
getnew address
Ġlib cloud
97 0
H ot
O C
S pectrum
w ell
Parse Action
C ols
k in
v stack
Ġ' ):
mark ed
/' +
y z
ri an
Ġw rapping
Re c
Ġsh rink
comple ter
([' --
Ġs ufficient
EN DI
12 55
pi log
e mulation
Ġ linen
Ġ0 8
con sistency
ĠL LC
Ġl u
m ux
n umerator
ĠM er
sa ver
75 2
ĠOn ce
> %(
é ¢
ar cs
Ġe Error
Ġh ence
int f
Ġ2 02
pro pagate
Ġpre view
Allow s
F W
P ut
Ġp v
co ffset
ib ull
Ġmark down
ĠRequest Factory
LD AP
ele ry
Ġvirt ualenv
re me
sh i
simple filter
live red
Ter m
Ch rome
Ġunder score
Ġimplicit ly
F OLDER
m ong
Ġmin im
Ġconfir mation
Ġspli ts
' (?:
\ -
ĠT AB
ĠL INK
bo ards
balance d
src dir
student s
('.') [
par alle
sign up
EX TERNAL
oc tet
tex it
ĠSign ature
q rst
Ġf etched
Ġpro totype
Ġen dian
ds r
JzKet Coupled
ĠLoose Version
mo vies
ĠM achine
cur ial
ĠRoot Frame
Ġseman tics
@ %
I g
b race
re raise
=' '
Ġexpect ation
Ġaff inity
Ġs z
In ventory
Se g
Path To
Ġ'$ {
Comple ted
Cor rect
an on
Ġu om
ĠS cope
cur ate
ĠLe vel
quant um
B OM
Ġal location
fin diter
REF ER
Ġance stor
S END
Ġi v
ent a
ĠR SA
No thing
"); \
Sy mbols
Ġband width
irm ware
8 50
j v
Ġlo sses
ĠM ar
wa v
back ing
Ġad vanced
Ġhash ed
( ...)
K S
K ER
Ġ( :
ĠT ex
Ġk o
`` :
US AGE
in vite
05 1
select able
# '
(' ==')
ab y
Ġr df
Pre v
train able
PR I
Ġna vigation
ĠComple x
l w
Ġin compatible
test user
Ġde signed
down loaded
Ġkeep dims
Ġen semble
Ġx x
PACK AGE
S i
() [-
Ġpre p
on to
per manent
Ġpar ses
log ic
ject ory
Ġ\ ""
Sta ff
ĠEl se
N F
Ġo id
co w
Ġv cs
ĠL TD
Ġfile Name
54 2
54 3
til t
PRO P
[ ~
b ee
| ,
an umeric
as sertion
Ġsn ippets
Ã§ Ã£o
L AT
Ġw ide
77 2
gin ary
CS V
ĠBo ol
xen api
7 06
Q i
e E
data State
Ġiniti ator
I xn
Ġf q
up graded
AL PHA
ep hemeral
GL uint
sw f
Ġ", ".
es c
ĠF lat
Ġg i
78 5
termin ation
Ġlin ewidth
frag ments
ĠSOL ID
Ġb tn
dev null
C id
E q
Ġ timing
Table s
final ized
ABC DEF
horizontal Layout
Y EAR
Ġs pider
ra ined
te sian
le ader
Ġw c
ĊĠĠĠĠĠĠĠĠĠĠĠĠĠĠĠĠĠĠĠĠĠĠĠĠĠĠĠĠĠĠĠĠĠĠĠĠĠĠĠĠĠĠĠĠĠĠĠĠĠĠĠĠĠĠĠĠ ĠĠĠĠĠĠĠ
Wait ing
th metic
ck e
Ġ'# '
ä¸ į
m ite
Ġs at
ri or
08 5
ĠEn coding
ĠLog ging
Ġ( ("
set Size
ĠD river
we ets
comm its
07 2
assertDict Equal
Ġs cr
AD ER
graph y
Ġpatch ed
anti ate
Ġtool set
IF EST
ĠModule Store
Ġreceiv ing
ĠOrg anization
" /
Ġ1 03
]) *
mb ic
tp ort
fail If
Ġcourse ware
eff ective
pick led
Env Var
h U
st udio
Ġcon ti
Ġal arm
)] :
ĠUn ique
peak er
ĠAnaly sis
D ST
P W
v hd
de tector
check ing
Acti vation
Ġcle ared
: %(
æ ³
get opt
fa sta
Byte Size
Ġstick y
a W
m ann
Ġ( ((
ĠG ather
Ġperform ing
ĠTra ck
BY TES
ĠPi peline
' @
ab br
05 88
visit or
Ġsaf ely
Ġ1 25
Ġsp in
phy sics
Ġ"'' ",
V LAN
X C
Z ERO
Ġw kt
ĠT Transport
to y
RE PO
Ġclass method
Ġ10 5
0 24
w kb
z k
ĠC URLY
sy scall
pop ulation
ĠRet ry
Expi red
F un
Ġkey ed
ĠFin ally
f onts
Ġ\ '%
ĠEn code
4 76
D W
Ġl ab
Ġsub strate
open file
cc c
Ġpri vileges
Index ed
Routing Table
text s
Ġtrans forms
FI ED
ĠCol lect
re ame
SM TP
Some thing
Ġxmlrpc lib
A xes
Ġa texit
RL F
FIX ED
Ġstudent s
Bounded PositiveIntegerField
h k
čĊ ĠĠĠĠĠĠ
ĠCon structor
Success ful
4 68
e thernet
Ġp as
Ġt rap
Ġin direct
X MM
n ume
Ġre ly
Ġ1 000000
ĠE lastic
ca o
Ġso lid
F ONT
Ġ" //
ma ko
ho c
ĊĠĠĠĠ ĉ
save fig
Jo bs
SEQU ENCE
/ %(
å ¾
ed Array
De li
ĠÐ ¿
altern ative
3 50
s mooth
sub classes
ACT IV
modi fication
OFF IC
Ġs te
Ġ[' .
Ex ponential
Ġ9 2
Str Opt
ĠPR IMARY
ĠINTE GER
= <
Ġ č
CT X
const s
Ġ(" -
Ġ199 8
rie ves
Push Button
] ==
x FE
re serve
__ ('
ver ts
Ġint f
Ġph oto
Ġmonth s
T B
ĠMP x
r dd
00 11
IT ICAL
min imize
ren ti
Get Next
.* \
Ġgra ce
Ġcap ability
Ġassoci ate
, )))
3 13
Z A
pos sibly
Ġcmd line
MetaInfo Class
V I
Ġ utc
Ġ' â
ance stor
Ġra ce
Sh utdown
abb ix
T s
Ġh its
im mediate
Ġdescription s
Ġweek day
Uan Phy
ĠPARENT HESIS
ca ch
07 5
A ut
Ġm ixin
ĠF K
Ġpl at
ib m
ves ter
ĠBu ilder
09 5
Ġsee also
Ġob servation
Ġob servations
ĠSOLID US
H int
r ust
le e
US B
Ġshift width
Ġ'.. ',
) ^
b illing
IT ESPACE
Ġ) /
St udent
level name
Ġapprox imate
Ġremo val
ing ress
ht t
open ed
Ġb om
vile ge
N d
Ġ' +'
Ġtag ged
He alth
ater n
Ver sions
mn op
ð Ŀ
Ġh el
ance led
ĠY our
ĠOp tim
C pp
se verity
() ._
ĠA void
am t
ĠCal cul
substit ute
h mac
Ġ1 12
Ġhe at
cy thon
Th an
Line String
Ġsuffix es
Ġty pename
Ġg rep
ag ios
Ġitem list
000 9
cent ration
Gener ation
br and
screen shot
ĠMS Build
B I
O D
re sid
doc name
oc cur
HTTP Request
Ġfan art
M utable
Ġ(' *.
De precated
ĠSub classes
W I
ĠP RE
Ġprint f
group dict
000 5
Le af
Ad ded
ĠName space
-- -\
ĠS pace
Ġmen tion
Ġhar ness
Ġ served
Ġone ofs
Ġauto escape
ĠNo thing
load able
55 9
ĠPo wer
Fn v
0 22
b asket
ç «
ĠC UR
SY NTAX
gri m
w file
co uple
he v
Me ans
FI FO
arge ted
Plugin s
j unk
z f
ile s
AN CH
we i
ĠLOG GER
K NOWN
s cheduled
z ing
ĠC rypto
res ted
ĠD AG
ĠEx port
Ġob served
named tuple
assertTemplate Used
Ġf out
TestCase s
ĠApp le
æĬ ¥
get block
tri angle
wa f
be red
00000000 0000
ATTR IBUTES
.*? \
deri ved
âĶĢ âĶĢ
==== ===
cell aneous
associ ation
Ġm ux
CH UNK
PO LY
409 6
[ #
a ug
i ri
m h
Ġ ĉ
Ġs b
SE CURE
ia o
iden tical
mbig uous
from keys
pen sive
55 6
trans formed
Tree Builder
ĠInte l
Ġscra per
SECON D
w anted
æ ŀ
Ġb w
Ġfor um
pon y
Ver tical
Ġrep laces
who le
R AD
ST O
ROUT ER
+ )"
Ġl atter
qui va
Ġover written
ĠAr ch
ĠGL int
EG ATIVE
ĠError s
m ute
Ġan alog
do or
no me
/ '),
e igen
ad vance
pro vides
ho ut
im ic
tx s
Ġsym links
\ ",
c riteria
ĠD avid
Ġso cial
Sub set
ISH ED
)) *
Ġg row
Ġ) ),
'} ]
like lihood
Ġ'{} '
p al
Ġi rc
sh or
ĠExtra ctor
Ġdra wn
B ATCH
C U
J an
e lect
mo ds
Ġ(' {%
write line
79 8
Ġre pl
Ġ3 01
cap ability
basic Config
break s
ĠSQL ite
Ġboto core
Ġparticle s
ufacture r
O racle
le sky
ĠQ ual
čĊč ĊĠ
BL ANK
Named Type
M bps
P ub
sp r
contrib utors
Tlv Value
TIM ESTAMP
Ġc red
(' |
00 12
is olation
ĠI terable
N i
Ġc make
(" {}
md k
Sh uffle
Ġchain er
č ĊĠĠĠĠĠĠĠĠĠĠ
dd y
Build Phase
Order Map
interpre ter
F s
un install
ĠN ational
ID X
07 8
subscription Id
O w
å ĳ
ĠS a
ĠG H
cre ating
sym links
M ath
x axis
y r
ro d
Ġun safe
39 6
#---------------------------------------------------------------- --------------
é ½
ce eded
Ġpro bs
Set Up
Ġattemp ting
delay ed
Tran sition
ĠLen gth
e red
ti facts
ari ate
ĠPro gram
ĠSpeci fic
p ca
x FC
Ġc n
av codec
Ġest imated
/ *.
Ġn db
Ġpost gres
Ġdeci de
A frica
ĠA DD
ap ic
Ġde clare
Text Input
ãĢ Ĥ
Ġc ame
Ġf iscal
Ġ# "
Ġw allet
du lo
=' +
ĠW rap
Ġti cks
METHO DS
DEP TH
x id
Ġ(" %
ĠUser s
:`~ .
Ġi l
ĠN umpy
ĠCOM M
Ġk b
Lo ading
The se
Place holder
rist mas
R P
li day
quest s
',' =',
Mode s
flow s
profile r
Make file
COMP ONENT
ĠItem Factory
t re
Ġ' ::
Ġh p
ĠGet ting
> {{
y um
ti les
Ġi cmp
Ġq os
Ne ighbors
ĠExp ression
Sa ver
PLUG IN
P ENDING
Qu antity
ĠNet scape
Ġcontin uous
F UT
t lv
si tivity
ma intain
alph as
(' +
Ġd ri
Var int
res ample
og onal
o ul
s co
ĠS tyle
Error Model
Ġl db
min imal
fil ing
56 78
ĠProcess ing
Register Message
File Type
][ :
67 9
ear ly
Wi ki
W kt
g v
000 6
Could n
Ġsubstit ution
ĠD est
Task s
eng ali
Ġmicro seconds
f re
m ixin
Ġr nd
Ġq name
F allback
L U
L r
to array
(" >
time line
Ġsa ys
ĠRequest s
D Value
z mq
(' &
Ġ201 9
rpc api
Ġanaly se
D aemon
assert Items
Ġr pm
url patterns
Ġne cessarily
ĠEX PECT
sn at
reduce d
Wh ite
aaaaaaaa aaaaaaaa
b ond
fi f
ST ANDARD
Connection Error
ĠTh us
Ġoptim ized
åı ¸
ĠPost greSQL
B lob
M urmur
R c
Ġf re
nt l
the tic
ĠExp and
consume d
. """,
on o
pl anned
oo keeper
conf test
COMM IT
recipient s
ĠNormal ize
. ]
:: __
Ġrandom ly
ĠSHA DE
Pur chase
B oto
G uid
p si
file size
St arted
link er
55 2
ZZ ZZ
o paque
Ġin i
In vestor
pre ci
Ġ< %
main tenance
Ġper manent
pop ulated
mi ters
ĠZ ERO
ĠEX T
rac tice
Ġ209 2
declar ator
M AGIC
Get Name
QU OTE
TO M
STAT S
SSL v
Cal c
Phy sical
re locate
urn ame
args ort
IS K
ĠCon sole
Request Error
ĠFree CAD
fr m
IDENT IFIER
W hat
t ml
for wards
Ġch at
Lo aded
Ġassoci ation
vertical Layout
Ġprovision ing
èĢ ħ
scri minator
om an
Has Field
de partment
Ġin str
Ġw d
ex cel
zip file
FUN C
TOOL S
full path
SER IAL
Ġdrop out
xi mation
EPS G
COLUM N
l bl
Ġf its
Ġdoc strings
ump tions
as p
ĠRES ULT
k et
p ants
Ġf uzzy
Gener ates
PATH S
Graph Keys
Ġrecipient s
con da
Ġm b
=' ''
12 51
format ting
67 6
ale tte
GL enum
Ġtri ck
fort un
Separ ated
? |
in structions
en te
ad os
St ar
Ġxy z
ge thost
EN DS
Ġnet mask
67 0
Ġbuild bot
bi di
Represent ation
I STR
[ ...,
h ed
'] *
39 4
Ġad v
bb b
BU CKET
Ġ39 54
W ill
l just
Ġ ERR
Ġv r
net scaler
Ar r
Reg istered
Ġjo int
C ells
ĠF lag
Ġauthor ize
Ġcancel led
HAND L
tan h
n ia
Un ary
ĠMake file
contin uation
D X
F K
G RA
if rame
the ad
Ð° Ð½
Ġrec id
Ġele ms
Descri be
un os
ĠCON ST
catalog ue
ENO ENT
Ġb py
ic a
Ġx max
ne tif
Ġup stream
So ft
Sup press
datas ource
Add on
RA CTION
Wor ds
(", ")
oooo oooo
M gr
Ġmo bile
xb mc
play ers
Member ship
know s
PRESENTATION NS
i mmutable
ĠA F
Ġ{ :
no on
read ing
lib c
ĠRe po
Ġro l
ERS CRIPT
1 00000
s bin
Ġ3 04
Ġpo ols
Ġlib s
Ġpri o
Ġpost s
As set
Ġmost ly
CONFIG URATION
Wait For
ĠCre ating
H orizontal
ge theader
Ġw ake
74 8
Ġ'. ')
rand range
bd m
OFFIC ENS
X z
e quiv
Ġd lg
no tice
sub section
Ġpoint ing
addr s
Ġdecor ators
ĠPil grim
D l
Ġ2 14
Ġon change
Ġcomp arisons
ĠReturn ed
Ġ9 1
local context
He ap
Ġbreak point
'[ \
lab e
Ġnat ural
: __
C ENTER
P list
P lain
v cpus
ë ĭ
Ġo gr
Ġpro be
import ant
Ġsub string
close st
C fg
Ġs mooth
Ġinterest ing
Ġs pectrum
group ing
NetDevice Queue
Ġpag inator
B est
ĠC LC
Ġr b
so li
men ian
Ġrot ate
pie ce
Ġeli min
c ust
c ros
Ġ) ;
WINDO WS
ĠTk inter
Ġt n
Ġso und
Ġz ones
Tra ining
times heet
confir mation
ĠTemp orary
ĠF ixed
ĠU tility
ĠR DD
Add ing
Trans former
\. )?
Ġ? ,
Github Object
! [
C ANCEL
Ġd ashes
", ),
Ġy um
======== ===
Mo ved
Ġsingle ton
l gdal
Ġh mac
Ġpro f
Ġout going
local ized
Ġpk gs
Ġsqu ared
P in
R ich
o cc
le f
fa ction
pri o
ĠCon v
dep ot
b el
Ġd atum
byte order
Cookie Jar
get frame
Ġv port
late ncy
25 00
cat ter
TAG L
Fl ush
Ġrelationship s
met al
åħ¬ åı¸
A nswer
multi array
è¯ ģ
A cl
n curses
Ġd bus
Ġinte grate
C ATEGORY
m nt
Ġpre f
FOR WAR
123456789 0
di cation
Ġbu ffered
Ġmach ines
Ġl w
Ġconfig parser
bit map
LI KE
Ġquot as
F oreign
V r
=" \
min fo
Mo zilla
Al tern
Dis patch
Socket Ipv
sha res
Ass oc
requi site
lf ield
text area
Ġdist ro
+ |
L ITERAL
R AT
ĠA gent
OR ATION
cor ner
Ġapp name
QSize Policy
B tn
Ġ" ..
ur g
Ġ1 04
Ġl an
Ġ< >
My SQL
Ġdesk top
P AL
en velope
ur istic
class name
ĠLO W
sn ake
uma ble
) $',
di mer
ĠP OL
Ġat tention
AL T
config name
16 66666666
Format ting
Ġtab stop
ĠA CK
lock s
tra verse
tax onomy
Ġhyper visor
n itro
mb H
ĠV ar
Ġ'- ':
T witter
str ateg
od oo
diag onal
Ġmar shal
(" (
Pro mpt
Ġdisplay ing
H older
] ].
ĠF i
min al
Ġad apt
Byte CharSetProber
Ġidentify ing
ĠSim ilar
W eek
() ."""
per iodic
Ex periment
`` ).
Response Error
ĠAS C
Ġ1 60
Ġres hape
ham let
Ġo virt
Ġ( ['
Ġst ale
Ġy y
AS ES
++++ ++++
ĠDe p
acteri a
capt cha
ELL IPSIS
C li
in teraction
ex pose
ĠF eb
form field
be cause
ĠInter val
a id
ass andra
ns y
Ġpart ners
Parser Error
MENT S
Ġsl ashes
Const ants
MULT I
u ary
Ġh al
Ġm gr
ĠG UID
ON S
Ġ[[ [
trunc ated
O US
V o
a len
Ġ1 30
Ġav atar
DIS PLAY
Comple tion
ĠSUP ERSCRIPT
Ġask ed
L IGHT
Y i
å Į
di l
and o
06 9
uby te
P are
tern ational
OPTION AL
3 11
li e
is link
Ġv di
Ġm type
dic ator
Ġedi ting
assert Operation
ĠD imen
Pro jection
Ġconfig name
Ġexpect ing
SA VE
Q ry
st rerror
Ġc k
', )",
min e
Ġend block
WH ITESPACE
Inst alled
Ġ################################ ################
Ġve locity
C USTOM
H alf
T class
de ci
Ġ_ )
mail box
Ġman agers
Mark et
ĠExtractor Error
b fd
c ca
mp ify
ex ports
ĊĠ ĊĠĠĠ
sum maries
Cl one
ĠHttp Request
Ġaut odetector
Qual ity
A p
C he
Ġp added
ab a
ĠA ST
Ġkey board
ĠIn voice
T or
p ins
Ġi llegal
app able
by pass
Ġany more
Ġfol d
Ġav ail
Repe ated
a decimal
p lays
Ø ®
ĠP ublish
pp c
fit ted
!= ')
ĠRel ated
S eek
ub ric
Ġpass words
74 2
ĠIN PUT
07 9
Le arn
nu ma
Ġp aste
ĠG mbH
Ġunder stand
GP IO
A ff
j query
sig ns
s da
si zed
ul ating
inter vals
Ġurl join
Ġtr usted
Plan e
Ġcalib re
Ġi pa
ĠB ib
Ġus ual
multi line
ĠAl ready
Ġ######################## #
]? [
Dimen sions
D IM
h ack
m map
() [:
OT H
Ġhash ables
Ġshow ing
Pbb Tlv
Wimax Phy
al go
el m
Ġ+ \
OP S
ĠYou Tube
yp al
rt ol
Ġsim ulate
M ag
b ay
l h
Ġr mtree
Ġpro ceed
Ġx p
Ġsub scriber
SY NC
('_ ',
4 20
Ġre pos
ĠL exer
In ner
doc format
Ġfa ces
06 7
_( ['
ĠLO CAL
Ver ifies
ĠBit coin
M EG
ab ili
De tect
000 7
Clo stri
ĠBase d
ros pect
Ġorigin ally
Ġgl ance
coef ficient
MACH INE
ENDI AN
B Z
i h
j n
j ack
r uby
} ).
Ġ ly
Ġv an
64 00
Ġblock ed
modify ing
) `.
0 66
Ġex er
speci fier
iden tify
ĠNum Py
h onor
se m
Ġre m
py tz
Ġpre amble
rag ana
Play list
aggreg ates
Ġcon cept
Ġfunction al
so ap
View s
ĠThere fore
ĠD ump
no wait
Ġstart Tag
Ġ'/ ':
Ġbuffer ing
RES ER
ĠSH IFT
Web Kit
ç» ı
Ġcompo site
+ '\
M j
Y PH
à ł
in ference
ge ometries
Ġde nominator
doc umented
('< %
DIS K
disc rete
Inte gration
g ml
y x
re cover
cur s
logger s
) ``.
v ations
v fs
(' ~
ĠP ID
py py
Py Object
commit ted
regular ization
Y AML
e lev
k arma
Ġa ware
ad c
ne goti
Ġcomp aring
Ġsh if
AC EMENT
dev a
Th ree
Write s
PAR ENT
Ġzer ver
+ ",
+ (\
s preadsheet
(" '%
Ċĉ Ġ
Ġl v
10 80
Ġca mpaign
Up loaded
Ġrect angle
' ([
H EX
U dp
Ġt re
am d
49 6
VER SE
home assistant
a ul
Ġm ult
no bject
ĠUnicode Error
o vs
å §
get size
pa ger
Def ined
su er
Encode Error
Ġs pi
dis position
ĠReg istration
watch er
interpre t
f lavors
co ind
app lic
Ġra dio
ĠU CS
Ġca ref
Col ors
He re
card inality
Ġlisten ers
A ppro
D d
a ci
(' "',
Ġtype def
heb ang
Ġbra ckets
S HE
Ġ` .
44 44
Ġpublish er
f ab
m ip
ar able
ro i
Ġs lim
ĠT EMPL
Ġst ra
CT IONS
gr ind
Ġcould n
Ġmk dir
} %
Ġa vi
Ġp u
Ġm f
db m
'} ))
ION AL
Par ses
FORM ATION
åı ¯
appro ved
Ġdigit al
ĠFA KE
) %
> {
I terable
Ġ@ _
TR ACE
wo od
bul let
b am
is subclass
Ġ1 999
len e
ĠE scape
ach o
Sta tistics
'[ ?]
S DO
Ġf lex
Ġs uspend
ĊĠĠĠĠĠĠĠĠĠĠĠĠĠĠĠĠ ĊĠĠĠĠĠĠĠ
add Item
Ġr aster
Get Multicast
mail ing
Ġevent let
Ġcomm its
Ġ---------------------------------------------------------------- ------
Ġcen tral
mand atory
ilf ast
< %
u h
Ġb dm
(' !=')
lower case
ĠAt tach
Ġexc info
Int o
Ġ"' "
Q uick
k J
get Element
__ ")
ve hicle
Ġ2 40
py x
Ġpre pended
Ġmax length
And roid
bib doc
w g
Ġn dimage
ile n
mat ure
cre asing
raw l
Ġprocess ors
Ġstruct ured
Ġfit ting
ĠØ ª
E ffect
v able
al ice
ser ves
rom an
entic ator
SIG INT
M ongo
key file
05 3
ick start
Des ktop
Ġdot s
x range
(" *
Ġbe yond
face t
Ne utron
Ġanaly ze
S trip
Ġi val
Ġc name
li o
un escape
sh util
47 0
Ġcirc uit
Ġsubstit utions
S AME
V D
Ġex its
(" //
Data Type
ĠIN ST
tool chain
uvw xyz
G AR
ul ner
Ġ---- --
builder s
ĠPri ce
psy copg
D lg
Ġre cording
ex og
side s
Ġregular ization
ĠEOF Error
K G
K R
U uid
Ġ" )"
ĠP ortions
do it
Ġ4 29
... ',
byte array
WifiRemoteStation Manager
ĠPI PE
abcdefghi jkl
D r
} })
Ġw ww
vi g
cho wn
åĪ Ĩ
g pio
ĠP ur
06 8
ĠAt tr
Var Int
Ġre visions
ĠA UT
char quest
ĠNO QA
inf ra
character quests
5 37
l ash
00 18
key board
ĠW i
ms vc
Ġtype d
An not
Ġstep per
D et
Pro b
ili ary
Check Box
prin cipal
me ters
al ia
en codings
Ġg ri
pro v
pro ber
Ġr an
Ġoption flags
Ġcomp utes
ili es
Image Field
Ġtool chain
Host s
controller s
D rag
P V
st rength
Ġs uggestion
(" &
db api
:// {
vo w
analy ze
Ġhappen ed
perform ance
æ Ł¥
mo ji
ĠA PP
Ġg w
od bc
item size
ref lect
Len Table
blob s
E di
Ġto c
ĠF ri
44 6
ital ic
199 8
h box
Ñ ĸ
Ġi x
ol a
Ġvari ants
Ġmem cache
SN AP
og us
Start up
ga ussian
li z
Ġde crypt
]) ',
line sep
55 4
67 5
Ġtemp dir
ĠST OP
PROPER TY
X B
c time
st p
Ġ' ['
Test Mixin
Ġtime line
St udio
print able
Ġ'/ '.
79 0
oper and
Ġ%} ",
ĠBo x
ims how
h or
i SCSI
s lide
Ġb race
Set Value
Bo ard
score r
END POINT
item getter
Un ix
ion s
Ġdir path
ĊĠĠĠĠĠĠĠĠĠĠĠĠĠĠĠĠĠĠĠĠĠĠĠĠĠĠĠĠĠĠĠĠĠĠĠĠĠĠĠĠĠĠĠĠĠĠĠĠĠĠĠĠĠĠĠĠ ĠĠĠĠĠĠ
Ġskb len
udi ence
ĠGu ang
: ]]
v an
00 80
so uth
Ġcor rection
ynap se
3 000
V ault
di p
py websocket
Ġ( !
08 2
Ġpool ing
ĠRE FER
Go od
ĠRepresent s
mnop qrst
q i
Ġf ac
es ome
ject or
Ġ9 3
Ġchunk size
sur f
Additional Options
Ma jor
N Z
ul li
Ġ4 09
',' .
Ġmilli seconds
r aster
ĠE q
Ġapp liance
76 5
Ca pacity
é½ Ĵ
er ase
ĠS EM
ĠF C
che b
Test Run
iter ate
F X
b rightness
t type
ĠP ASS
col lapse
ĠV ari
place ment
ĠDi rect
remain der
b h
f ly
g ly
Ã ¨
Ġt ty
is Valid
Ġm gt
Ġ3 27
74 3
Ġobj ective
ĠDi stance
ĠDo cker
inte l
199 7
ĠCoun try
123456 78
C c
o pacity
Ġe i
Ġ(' .
Ġsys vals
mal loc
ĠPro vides
ĠConver ting
ĠScen ario
0 32
: _
c ash
v ary
in ery
00 15
Do ctype
Ġnamespace def
tz name
Local LB
ĠVAL ID
rich let
NOW LED
Ġo vs
Ġde lim
Ġpre compiled
Ġback ref
Ġrelative delta
ub untu
Ġpro mp
wn d
ph ys
06 1
install able
Sc anner
ObjectFactory Checker
Ġre member
ref er
ji ang
sth rough
/ __
S ID
s cons
un handled
__ ['
read th
assertNot Contains
Ðµ ÑĢ
Unicode UTF
f ro
å Ģ
ten na
ask bot
AP H
ĠOF T
Ġlogger s
analy tics
lo st
ck pt
ad apters
ĠR ename
AC C
Device EnergyModel
black list
assertItems Equal
u os
č Ċĉĉĉĉ
Ġprint able
cor ing
Is Equal
Cur rency
urlencode d
MODUL ES
ĠPro gress
Ġvar name
ura dio
ĠAgg reg
th rottle
set Font
ex ploration
max int
Ġz f
lon gest
æľ ī
P ulse
Ġpre processor
create Element
RO KE
55 7
Base d
Base Test
Ep isode
mpi rical
p seudo
ĠT om
mi um
={ })
H ow
p fc
pb x
ĠDocument s
Ġin active
sc ar
feren cing
]] ]
Ġnote book
ĠForti OS
E thernet
Ġar ange
$ $
Ġ #####
field sets
LO Y
dy lib
Pay ment
Ġfri endly
S rc
res cue
no se
open ing
Ġover all
gl u
BO OT
Ġance stors
Ġmq tt
M Hz
Ġp x
Ġb n
he els
ap on
ĠF UN
Ġcur s
stand alone
b iases
(' +',
ĠC s
US R
Normal ize
NC n
) <
Ġre ST
ĠL ESS
Ġresi dual
ĠFE ED
F M
V s
ĠG er
qui sition
inter polate
Ġ`` .
content type
ven ience
graph ic
Ġsystem Id
Ġgui de
Ġesc aping
EXECUT ABLE
0 50
; ;
54 1
fore ver
Sh ader
Ġinstall ing
Ġfix er
* [
th readed
Ġb anner
par ti
sp her
67 2
49 4
gen es
å¼ ı
W izard
Ġt unnel
') }
Ġg one
Th resh
sx w
Ġthresh olds
k le
æ ģ
Ġt ap
Re stri
pre pend
Ġra m
Ġmock s
ĠHeader s
BOT O
b one
pe s
Ġof proto
=' ""
]) ;
ĠO k
64 64
De tector
equal ity
ĠDe code
Ġopen edx
Ġ... ]
Ġdele tes
Ġlon gest
team s
DQ p
OLE AN
r in
v f
sub domain
Out Of
Ġest imators
er ver
Ġb t
Ġde tach
Ġy outube
Ġlog out
000000 01
47 2
XXXXXXXX XXXXXXXX
Ofdm Rate
g mt
Ġre sid
Ġparser s
08 3
ĠUN IX
Ġpen alty
( &
N u
S INGLE
datat ree
Q P
ĠT urtle
par dir
ĠE L
44 5
Ġ'' ')
Ġqueue s
ĠAc ti
weak ref
E s
N K
S yn
de al
Ġ[] ;
ĠType s
N EXT
y t
Ġf requencies
ss a
Ġcon nectivity
=" *"
Packet Type
Ġstandard Msg
circ umflex
S teps
W T
å ĵ
Ġ Â
ĠL R
ĠH ard
ID R
09 1
Ġform field
virt ualenv
Ġcast ing
labe led
Re store
Pa cific
ĠBe fore
atel lite
W P
č ĊĠĠĠĠĠĠĠĠĠĠĠĠĠĠĠĠĠĠĠĠĠĠĠĠĠĠĠĠĠĠĠ
Ġd ont
ĠA ir
ho sted
ĠO ld
ĠR ational
sta le
Ġpe ak
jar ati
rab ic
' />
S PI
Î ±
ç ¬
Ġ ################
ĠC Make
Ġx en
DB C
å® ļ
æĬ ķ
ein sum
acho ir
a way
p ct
Re ceiver
mb re
lic ate
ĠR ect
Ġtk inter
St retch
uni ties
("" ).
recur sion
Ġsubstit ute
h stack
æ Ľ
ma tions
'] ._
Ġun ary
build dir
ef ficient
Invalid Operation
ĠCSR F
Ġ' >'
Ġre build
Ġst ops
par m
Ġde serialize
ĠÐ ²
R ational
z api
Ġ 999
Ġc uda
00 30
Ġm or
)) ?
app liance
List Type
copy file
Ġindic ated
ĠQgsProcessing Parameter
Ġ""" ))
ĠU DP
(* )
Ø§ Ø±
Ġmonitor ing
ĠMEDI UM
G M
g x
Ð ¿
00 14
ang led
pi gs
Ġna ive
' &
( $
? ,
O WNER
ĠF RACTION
que t
Ġ5 000
æ ¨
ç ½
Ġ Ċĉĉ
ul arity
Ġex ports
ĠN orm
ip sec
resource GroupName
Ġsp ot
DT D
Ġprevent s
Q S
d pi
n op
ro ug
ĠA ES
ĠD ig
Token izer
Ġmulti line
Ġworks heet
HOST NAME
Ġgu ard
def inite
Ġis csi
Ġco in
Ġ", "
- "
A ge
01 96
Get Size
inter polation
mis match
NOWLED GE
ê °
an si
Ġv ms
Ġpro pag
Ex c
Ġadd ons
Ġpy tree
AC Y
Ġtra de
Comp utes
Build Setting
ipt ables
al ong
Ġh orizon
ĠO ID
ca mp
Type Name
Ġinclu sion
([^ \
presen ce
Ġaggreg ation
anger ous
v dom
mo z
ĠF ilters
Ġpo inters
HEAD ERS
) =
Ġn ix
mp u
Ġb ash
ĠE NS
44 9
imple ment
Ġmain tenance
RA IN
norm case
adj usted
ct ures
') })
ĠF ortran
ĠNo tification
Component s
Ġhex adecimal
eng lish
ĠRel ative
charquest print
s la
Ġv is
pre cate
ET H
Ġdb name
termin als
Lock ed
U ses
lo ops
id ge
Ġto wer
no stics
Ġpy mongo
Ġ"- //
ĠComm it
Y ield
re lay
st ones
:: ::
ĠI tems
Ġ2 54
ĠW IN
99 1
tra cing
Cancel led
ĠParser Element
v w
Ġs andbox
Ġde s
(" $
ms rest
04 30
ĠZ IP
ram disk
Ph oto
Attr s
Ġtor ch
PIX EL
Ġ ĊĠĠĠĠĠĠĠĠĠ
Ġ' '):
po tential
ĠR UN
Set Attribute
font size
COMM ON
succe eded
+ [
Ġf m
ĠS uccess
Ġmo der
ĠU til
]+ \
br ush
Ġbit map
ĠCourse Key
LOCAL E
033 8
w pan
Ð ¼
ar win
Ġv box
Ġch ance
AS C
ĠIN IT
ĠNot Found
Map ped
Copy From
Ġattemp ted
Proto s
k j
se linux
ch astic
si o
et cd
ĠM ath
write s
Ġsys config
msg str
Ġab b
ha an
mask s
Ġfetch ing
ĠJson Response
> |
or ry
Ġs anitize
Ġ(' #
ĠW rapper
Ġby pass
0000 01
check equal
Ġ. *
err check
Ar n
('\\ ',
G zip
p ly
Ġm n
py game
da o
Ġag o
ĠMan ages
)) ',
Ġg h
HTTP BadRequest
usage s
ĠHy per
3 19
per centile
dd b
11 01
')) ),
Ġtri ple
Constraint s
éĵ¶ è¡Į
s as
ro ck
Ġre cover
data frame
ak o
CL AM
elastic search
DJ ANGO
H J
e ither
l x
Ġc sr
un bound
Ġd ual
par s
Con sume
min idom
ie ce
how to
Ġfl ux
An onymous
Member s
Ġimp lies
08 1
ĠReg istry
ĠInfo Extractor
k all
en dix
lob ber
REG ION
U r
x fail
} [
Ġw ent
ĠM utable
om aly
ĠV ER
ĠH eb
default dict
\\ "
Ġdoc name
Ġmin us
imp lied
+ ")
Ġcom mented
Prefix Checker
Ġinte gral
Mask Checker
ĠParse Exception
ĠLim ited
} `
on ing
or ient
ĠF inal
bar code
Ġass oc
ĠGRE ATER
V pn
Ġper sist
send to
Ġbin aries
Auth enticate
un ched
gra b
/ -
j y
Ġ" {%
ct an
() -
get Data
Ġy max
To Point
width s
Ġstub s
Ã ±
si gs
Ġan n
up loads
ol t
Ġ10 6
mark et
Sub process
'^ [
rho g
IDD EN
mnopqrst uvwxyz
: (
int rospection
Ċĉ ĠĠ
Ġassert Equal
". "
sy mbolic
Ġhash able
Ġ'| '.
pagin ator
ĠPUB LIC
fortun ately
Q Color
g row
20 21
let t
none xistent
Dele gate
tist ic
peak s
R SS
S un
T U
Ġp f
set ParseAction
AB IL
wrapper s
Ġissue d
TL M
Ġscheme s
sib ilities
ĠCho reo
h q
ma gn
00 13
ne ar
Ġsupport ing
tool tip
å¼ Ģ
J OIN
Ġme dium
ĠD ynamic
Ġl and
ds a
Ġtime utils
predi cted
Ġmultip ly
robot parser
radi ans
C ipher
n fs
an cers
St age
Ġfa cility
ĠGener ates
åĲ į
Ġprin cipal
4 10
5 20
T ester
Ġv ote
po sit
De termine
"] ):
ash ed
Ġmin i
Ġq r
Date time
Ġsearch es
Ġappropriate ly
ĠParse Error
Ġincre asing
3 80
al axy
Ġth umb
data Received
Ġinter pol
other s
Ġge vent
Al locator
sol ink
coordin ate
REPL Y
Ve locity
favor ite
s anity
('- ')
0001 0
Ġconver gence
reference d
Tool Tip
Ġ(_ ('
Ġacti vated
ĠConst ants
; )"
m ichael
pro blems
Ġstati stic
ĠMay be
: <
I AN
t lene
ul y
Ġ/ >')
Hard ware
C b
e z
p key
Ġsub command
Ġcor relation
} ],
in ted
pa rer
Ġun handled
ĠN T
ĠTest Suite
tifi c
cen tered
UST ER
CHANG ED
$ %
f path
Å ¡
de re
th ai
Red uce
ĠHeb rew
à ¥
set Property
Ġ10 7
Ġtool bar
tia Lite
Ġintro duced
LibvirtConfig Guest
M R
d ance
st ro
lo od
Ver bose
Sequence Equal
e ig
Ġ" ="
up y
type code
"] })
Request Header
Ġ'@ '
Bot tom
g old
Ġe ager
ip address
ĠIn iti
OL LOW
Pre pare
tera ctions
ĠGroup ing
Ġeigen values
ticip ants
K P
g pg
:: -
ĠA xis
Ġr yu
ĠH YPH
FA ST
COMP R
DIST ANCE
ç¼ĸ åı·
f le
f all
o ol
Ġ1 15
ĠL ANG
option flags
ob served
Ro bot
r file
() "),
is in
pa used
gener ators
sock opt
Ġcla im
ĠService s
ĠAllow s
ca iro
are r
OK UP
Vector Layer
ĠHYPH EN
4 000
L ater
k free
è ¦
Ġ ########
ap k
=' $
auto mation
N inja
in struction
Ġp unctuation
ch errypy
() ["
Ġd yn
Ġh unk
Ġst s
Ġdi rected
Check point
Pare to
P seudo
re levant
est imate
ĠG ame
Test Class
ĠRe store
ĠQ uestion
Ġab ility
ene fit
monitor ing
Ġ"* "
l ators
u ler
se x
00 16
List View
',' -
over laps
CR ITICAL
D IG
k atakana
re hen
ti ble
Ġf rontend
Ġw ater
Ġu ti
100 1
PAR EN
Open SSL
d ings
Ġ* _
Ġlo cks
Ġun escape
Ġ10 9
Ġconsist ing
/ ~
J IS
s uggestion
ç ī
Ġs ales
Ġb irth
ĠI dentity
ĠR ot
ID S
Dele ting
Ġsim ilarity
; /
c db
u ing
", \
ĠI g
bo w
IC ATE
Ġac company
Ġattrs D
Ġredi rected
indent ation
6 01
app name
ĠB lue
comp uter
tmp file
Stream ing
Ġkeep ing
] ?\
h orted
ra id
ĠU rl
gra ce
File Field
Ġvi deos
AUTH ENT
_ ()
Ġd w
éĩ ı
E U
c amel
p thread
x min
Ġp ep
ĠA g
(" ~
ĠL i
ĠD T
Sign ed
IST S
ENC ES
ĠGP IO
er g
Ġs ib
Ġoper ands
Ġpatch er
conver ted
ĠTAB ULATION
\ /
Ġt runk
Ġmod al
READ Y
associ ated
Ġalph abe
ĠSpark Context
æ ±
44 7
web app
Stream Handler
Ġcap s
ĠQU ESTION
VO ID
} |
ro red
PR INT
Ġhel ps
se ns
ĠS anity
is olated
], "
48 5
Module Type
Ġspecific ally
cm x
indi c
Ġcoun ters
Ġtrack ed
poly nomial
Ġred undant
RGB A
, :]
; )"),
v mo
y axis
it o
bu y
ĠI dentifier
Ġma lformed
Ġun specified
Di alect
AC ES
Ġ... "
ide mpotent
T Type
] ``
] `.
li ant
pe ers
add Child
uk hi
Ġfin ite
Ġdir names
]+ )?
Ġlook ed
ĠFrame work
urm ukhi
memo ized
be a
06 3
Ġtemp orarily
ĠFile System
ĠLim it
ĠTRANS MISSION
lf ill
ĠV S
ĠV UL
comp act
Qu ad
commend ation
M K
U tilities
re strict
Ġe lect
() '),
type d
Ġr nn
Ġ< ==>
39 3
Ġ'. ',
Ġoccur rences
frozen set
A H
S PAR
\ ":
Ġf am
00 17
ĠF ollow
De mo
Ġmax len
ĠGL sizei
Ġed x
Tri angular
Ġfrag ments
C BC
ti e
an i
as numpy
to hU
Par ame
BO OK
Ġalign ed
ĠTi cket
ad z
url conf
Ġsub section
+' /
episode s
Ġexce eded
ĠACK NOWLEDGE
N y
09 2
ĠBase Command
ĊĠĠĠĠĠĠĠĠĠĠĠĠĠĠĠĠĠĠĠĠĠĠĠĠĠĠĠĠĠĠĠĠĠĠĠĠĠĠĠĠĠĠĠĠĠĠĠĠĠĠĠĠĠĠĠĠ ĠĠĠĠĠĠĠĠ
times lices
ĠInter net
E very
R ATION
ck o
ĠS K
sub plots
uc lidean
Ġtable name
ĠDo uble
nor th
Ġnx os
ĠMatch es
REPE AT
g rouped
ĠS W
change log
Ġlike lihood
SUB LANG
Alter Field
> .+
B AS
l ng
Ġr sa
ys hev
Ġpre process
################################ ################
char ref
We ights
Ġenviron ments
Ġconfir med
âķ Ĳ
vi sited
OR IG
Ġper mutation
sum s
stack overflow
press ure
ws dl
ĠCOM MA
Ġpag in
Ġpag ination
G m
L J
re ferer
Ġin tent
up stream
Ġdist s
Ġdiff ers
LD FLAGS
edo cs
D rive
s sid
w al
} (
ti zed
Ġas sembly
pro du
Ġr hn
Ġcomp ose
UP DAT
Menu Item
Ġlisten ing
Ġmultip lier
________________ ________________
U CS
c mb
it a
Ġdi vide
que s
sal ary
Ġmoment um
roug hout
sis ted
Ġconstruct ing
Ġri sk
. <
T en
li sion
lo ut
Ġex ha
ĠRe fer
Ġpre fetch
ĠST ROKE
break point
OPT S
fol ds
ABC Meta
thresh olds
APPL ICATION
/ :
Ġn itro
ĠRe fs
06 5
Response Header
mer s
rt c
Den sity
rg ba
Ġ#---------------------------------------------------------------- ------
PbbAddress Block
ĠS trict
Ġme ter
SET UP
calc size
ĠModi fy
Ġan imation
he artbeat
Ġen caps
([ [-
tag name
ĠLo ader
COL LECT
irc ular
copi ed
Ġsatis fy
S ucce
U s
ĠE ven
http d
Ġdist inguish
Ġref erring
Ġconver ters
Pool ing
S lices
k ml
q c
Ġp assive
ĠF TP
69 4
true div
ĠImple ment
Ġg cp
per sist
no ulli
Ġro uters
Ġerr msg
tran sitions
aut ospec
G ON
G ING
f red
Ġs aves
test file
ĠIN FO
No va
hi ragana
Queue Item
circ ular
Ġdead line
ĠB ound
ĠIn it
74 1
ĠCon tains
Ġph ases
+" /
slash es
ç» ĵ
x FA
Ġ ########################################################################
ĠRe moves
back wards
Get ter
Ġarg str
Ġ'. /
mon itors
Sh adow
Ġdeli mited
Ġang les
A ug
Ġ' (?
lin ewidth
Ġmo ds
bo ston
ĠV ec
Ġsub domain
first Child
BU F
Result Set
Ġbeh ind
V lan
Ġa chie
Ġv g
ĠL java
RE V
Do Get
ĠMe asure
Ġph rase
SPE CI
* (\
B eta
E ff
at ol
id a
ĠF ast
GR ID
track ed
Ġbra cket
W dg
m ne
n able
t alk
Ġb ul
Ġd uplicated
Ġ1 26
ĠD H
Ġcomp lain
Ġevent ually
53 17
Connection s
Read ing
ĠHTML Parser
Range s
firm ware
N z
T a
U MP
ar ns
Ġc elery
ist a
lock ing
Ġpy glet
Ġ'% %
ĠSt d
STAT ES
Ġbad ge
ĠRequest Context
Ġ'\\ '
. {
4 50
A O
Ù ¾
__ ``
ĠA nother
py o
TR UNC
ĠGo od
Ġfeed s
Qual ified
mogene ous
re duction
test server
Con ditional
Ġedi ted
Ġgn uradio
2 89
6 25
Ġi ll
Ġf b
ss o
ĊĊ ĊĠĠĠĠĠĠĠĠĠĠĠ
": {"
Message Begin
Ġconstruct s
g cp
p tive
Ġp nt
Ġs ip
il ab
ts k
Initial ized
è¡ ¨
ĠVUL GAR
Ø ¬
ad apt
is atty
Ġ2 05
SE G
bit coin
ĠLa zy
Pbb Message
OP CODE
Ġnetwork x
follow ers
Termin al
Ġkey file
ha z
View Middleware
bl as
VAR S
MULT IP
ç® Ĺ
Q o
b mp
Ġs lope
cl c
Ġ3 33
Ġdisc arded
revi sions
STO CK
B GP
g mtime
per sistence
AS ET
ome ga
ĠSo uth
ram id
Ġrel path
hand ling
Ġeffect s
dead line
) ->
4 24
D s
I VER
S pan
j c
Ġin ferred
assert Output
]) /
ati le
Ġsp end
Ġexit ing
ĠAc tivity
ĠCur sor
ĠSec ret
vile ged
Java Script
a Buf
b urst
ver sioneer
Ġch i
ĠR oute
quanti ze
ĠGEOS Geometry
åľ ¨
Inet SocketAddress
> '.
pre ter
context lib
P CI
Ġin sertion
Ġin finity
op h
assert SequenceEqual
pre processing
Ġgra ding
Help Formatter
ĠModi fied
r us
In voice
Ġ} ))
ind x
write row
ĠDe termines
Ġover lay
Line Edit
moo thing
Ġs he
00 19
(" =
Ġdata path
Ġat ten
Ġinte rested
IZ ATION
Ġhighlight ing
o z
ad or
qu iring
Ġco mbo
# "
J ust
L at
ĠB ug
cancel led
Ġg ray
Ġg pu
Ġl as
Ġover view
Auth Handler
cd c
Op Error
inline Callbacks
istic Regression
214 7483
EXP AND
Ġb ogus
') ]),
Ġ} ],
web hook
REG ISTER
ver ifier
SE P
Par titions
END ER
owner ship
uni q
review er
fan art
ĠPL ATFORM
ĠGyp Error
Ġre servation
Ġt alk
__ )),
xy gen
49 7
Ċĉĉĉĉĉĉ ĉĉ
DET AIL
P ci
an im
ww arning
ib atch
MO USE
Ġinclu sive
GRE EN
$ ")
ĠS RE
ĠY ield
Ġad joint
Ġjson ify
Ġreport lab
Ġbegin s
" \\
E mployee
H Z
I Q
P ag
k p
ad get
Ġ: -
ry thon
av y
NAME LEN
Ġ"< %
åı ĸ
Preprocessor Definitions
ĠAttemp t
3 16
or ange
Ġu v
Ġ1 22
Ġl ms
De ad
CR Y
Ġappro ximation
Ġes sen
ĠT MessageType
AR C
Ġdate util
He ading
PRO VID
raise d
Thread s
Ġsol utions
mid l
æģ ¯
B b
Ã º
un get
==== ==
write ln
dition ally
49 5
Ġeg gs
f ra
i loc
v gg
ser s
Ġen ded
net s
Pri mitive
Ġrespon d
åĽ ŀ
b by
p next
lo red
ĠG EN
En viron
Ġchunk ed
We ibull
v env
as i
Er lang
Ġra re
Ġsome where
hex lify
resi dual
å ī
ĠO O
TR Y
local ize
F our
g cd
k args
Î ¹
(' *',
Ġ1 14
Ġco up
Ġcomp act
ĠOption ally
čĊĉ ĠĠĠ
ĠStream Reader
Ġskb addr
gal axy
8 01
00 50
description s
ĠQgs WkbTypes
Sp rite
peri ence
ĠCO DE
Ori ent
ĠBus iness
I ED
R IX
Ġt port
Ġ( ):
Un recognized
Ġreplace ments
au di
Ð° ÑĤ
Ġsuc cesses
C ORE
il ler
Ġh eld
ĠA lex
ĠX CObject
na ive
Ġhead line
Ġsupp lier
cycle s
"? >
ĠMET HO
- {
Ġt weet
con nectivity
CT RL
En cryption
Ġcomm unity
Ġnon zero
Inter pol
ĠSum mary
Bal ancer
iel ded
B order
pa k
ĠU ID
og g
Id le
',' ')
69 5
PL ACE
fd open
multi cast
4 78
k el
r ds
)) ).
Re moves
Ġwe ird
69 8
49 0
ati m
Out line
display ed
ĠGE O
ĠCORP ORATION
cach ing
T yp
b ands
lo rer
Ġl m
Mo tion
Ġcontrol led
sd v
BO DY
ĠWh ile
amazon aws
è ¨
Ġre action
ĠP E
Ġl int
ener ate
ET O
Ġsub module
Ġac curate
=( -
Ġsum marize
C d
d ct
} ):
co ur
Ġm t
12 00
Ġal one
Ġsh ut
RO SS
Ġfa ctories
patch ed
restri ction
ĠENS MUSG
) ].
= ()):
B AND
C pu
P USH
Q os
s db
co o
]) ])
convert To
8859 1
Ġpop up
Ġbrowser s
Ġentire ly
ä¿ Ŀ
A zure
_ $(
)) '
ĠA rea
ĠRe movedInDjango
ou ght
re fid
Ġh am
Ġ[" --
Al locate
Frame s
INTER MEDIATE
Over view
Ġden ied
har ness
Ġser ving
Ġsys log
speci ally
ĠLI ST
ĠTo ols
ĠExp licit
Ġprece ding
SPE C
" [
do e
ac ct
69 7
fc ntl
Initial izes
ĠMin imum
AJ AJ
M aker
Ġs x
fa vicon
ĠH tml
im ing
act s
xxxxxxxx xxxxxxxx
L ambda
ĠM ixed
ĠN umenta
ĠIn ner
std dev
~~ ~
ĠRun s
Ġtimestamp s
Abs olute
U integer
m di
th in
Ġ= ==
en tific
ch er
ĠB ind
fe red
ua wei
Ġtag name
Str at
MAN IFEST
T abs
Ġf ld
(" \\
Ne g
SUP PRESS
aggreg ation
I FF
T Security
se ri
fi sc
ub ar
per imen
AL OG
69 0
Ġpri me
+\ .\
O s
account ing
ĠLo cale
ĠTime r
supp lied
Ġe lastic
di vision
fa kes
Ġcol l
String Type
ĠEX ISTS
ĠReg ion
tax es
Ġpush ed
VARI ABLES
S ix
Ġf obj
', ',
Ġt xn
ĠS un
um bs
ĠB ACK
Ġver ifies
host vars
vs witch
vn f
Ġsur f
silent ly
X F
ĠT F
ĠC ustomer
ĠM od
ne y
Ġ4 43
pos ted
")) .
Ġcount ing
scope d
extra ction
Second ary
Leg acy
E FF
W B
s ation
or k
Ġ(' __
IND IC
mk temp
Fin ish
ĠA vi
bit rate
Ġip address
Ġsql types
('< ')
ĠTe le
âĢ ĵ
MetaInfoClass Member
de construct
Ġin herits
data structures
De termin
State Machine
Count s
play ing
FEAT URE
ĠRET URN
å ½
er son
Ġm map
Ġun install
Ġal though
(( ((
ĠID LE
Ġ%} '
Ġenable s
LIB S
ĠStruct ure
CLAM ATION
U int
s rt
Ġre prec
out side
module name
Ġon error
Ġal i
skip if
Button s
Ġincorrect ly
) \\
M IG
h an
x os
Type Sub
skip Test
Number s
Ha an
g cs
i python
p ivot
tri ggered
write lines
ach ing
IO Loop
Pl us
ĠDeveloper s
Ġreceiv es
ĠIM AGE
K Q
L m
Ġa head
Ġs re
ĠE lect
back off
:// '
St ory
IS C
ĠDe Haan
cer tain
SG IX
Ġcut test
> }
m lag
get list
Ġse ct
ĠG ot
ration al
na vigation
33333333 3333
8888 8888
G nuplot
f bd
m ts
n ice
di rectives
con ductor
Ġh op
ĠS ync
inter wiki
Sub class
tera tions
SH UT
ĠContrib utors
EnumValue Descriptor
EXPECT ED
x X
ĠF ace
aly ear
Ġfree ze
CC C
Mac ro
Ġmer ging
dr v
ĠJo urnal
Separ ator
Relative Path
ĠBU ILD
fisc alyear
S aved
] ][
Ġr l
AR P
Ġtra verse
filter warnings
OL ON
Class Name
Or dered
adap tor
D ONE
P ing
Ġth roughout
sub tract
EXIST S
ĠPARAM ET
âĸ Ī
7 50
f ps
s le
Ġre covery
Ġe b
time tuple
0000 1
()) ),
File Descriptor
Ġ8 00
Ad vanced
NO S
Ġgen der
--+--+ --+--+
P s
S MB
s li
as in
con tro
Man ual
Ġprofile r
HOST S
skipUnless DBFeature
forma tive
ĠFIL TER
Ġ0 9
ĠA ctions
ĠR outer
Ġdisc rete
ĠHO ST
Ġ" `
Ġt l
", '
Ġpa x
if s
Ġdoc umented
Ġbook mark
Ġrsp file
åĩ º
Ġidentifi es
B acteria
P db
Ġ čĊĠĠĠ
Ġ' }'
Ġf ed
ul ations
ĠS ensor
55 1
mk time
CHAR SET
E mpirical
S ENSOR
Ġf ip
co upon
ad joint
Ġdi ffic
ĠRe pe
Ġro spy
round s
Ġanaly tic
Ġna vigate
M V
Î ¿
Ġcon tour
'] +
Ġpos ted
8 66
M ut
S cheme
U U
se nsors
ti an
ate x
fi ve
']) ]
ĠEx periment
HE L
Ġop timal
S q
Ġp ivot
"" .
ĠC ircuit
(" |
EL D
Ġexpr s
pagin ation
ĠSR ID
R IES
ass ume
ĠM akes
Read Only
Ġblack list
GO Protos
='"" '),
A udit
M z
o ber
Ġ Ñģ
() })
ad v
Ġvi ol
Ġunder scores
ĠSt ub
MA STER
home page
appro val
Ġwhite list
Fore st
J u
N W
Ġ" ['
Ġn w
ot le
__ ]
ĠC ALL
Ġex clusions
ĠI ts
fa ther
und ay
Ġk inds
meta var
conf licts
ĠNo Such
edge list
ĠAb out
Linear Operator
# %
> ".
om ated
ET CH
Field Set
Ġle aving
ERROR S
Ġdeal ing
de leg
00 40
AS SERT
En tities
normal s
document Element
(': ')[
ĠScal ar
Ġlu igi
4 30
Q Icon
Ġre lay
es sian
61 32
Auto configured
Ġtx id
floating ip
A nother
U LE
y l
Ġexpect ations
Ġpad x
represent ation
T oggle
p ch
en trance
Ġb unch
ĠS ch
Point ToPoint
Ġselect able
Ġbar code
ä¸ Ĭ
Ġlearn er
Let ter
q web
at least
ĠV CS
Ġmethod Name
ĠIN D
down loader
ĠPro b
ä¸ º
è¯ ¢
Ġser ves
ĠPe ter
Ġa id
Ġde queue
fl v
ĠISO lat
rit ory
0 80
5 10
; <
Ġ Ú©
Ġb on
Ġ) ?
sign ing
Has Next
TOP IC
4 02
6 50
M G
re index
Ġp ts
pid file
Ġreason able
ĠModule Manager
placeholder s
ĠTri gger
mach ines
Ġavo ids
b q
b ab
se ctor
la ined
ĠC atalog
Ġex ited
In dicator
25 88
Mark up
car rier
Ġex pose
we bob
any thing
FR AG
Ġdelay ed
O U
di rector
Ġas array
table t
admin s
ĠDIR AC
S lider
is space
end tag
ĠE nt
CH ART
Ġ] ))
S CE
b isect
e uro
Ġth er
ĠT ab
Re size
Ġgroup by
ä½ ľ
* )"
0 54
z b
Ġ' |'
Ġb ond
ĠC enter
per l
CH ROM
Ġbook s
MSBuild Only
aco bian
u math
Ġ[] }
Bu ffered
sen ding
AUTH ORIZ
IMPL ICIT
F AT
S orted
i mm
å İ
si mulation
get root
type id
ĠW hitespace
Ġj id
'" ',
effect s
contin uous
abcdefghijkl mnopqrstuvwxyz
CRY PT
o x
Ġ= =========
Ġp ul
ĠT oo
AR IES
EX E
tran scripts
Ġinvok ing
ç Ń
ĠC FLAGS
str y
reg ress
exp orted
Ġnum s
Port s
Exists Error
Ġtrim med
éĹ ´
: ^
Equal ity
Ex amples
arch s
Ġsh allow
ĠSt ates
send all
loop back
Ġaccording ly
Ġwind ll
Ġas m
com mer
"> &
now ledge
show s
direction al
Ġexperiment al
N j
e quivalent
h rm
Ġ1 16
Ġ/ >'
ĠEX CLAMATION
Handle s
adjust ment
E ach
V iz
de termine
py lint
Ð½ Ð°
Ġsever ity
mess aging
K O
Y u
] ;\
_ ():
o sh
li city
um l
=' /',
log istic
ID LE
Ġ10 8
gr and
Ver ification
ĠDis k
adj ac
ĠResult s
Attach ment
e h
Ġn br
od ay
De g
Pre dicate
Ġpick ling
Ġown ed
Ġ'* ':
Gyp PathTo
Deli very
: '):
p name
se gs
ri ck
il legal
py doc
Ġ(" {%
Ġattr getter
public Id
Cho ose
expect ation
Mis match
= &
te ro
fi fo
ot s
fa cility
Con trols
Ġpost builds
ĠEd ge
C f
I H
b ec
get file
up t
arg ins
tes ted
Ġpy rax
source forge
ĠIN SERT
07 6
Ġlink age
Ġqu ants
75 1
ob solete
inst allation
Ġcateg orical
f und
lo se
ĠP EM
Ġarg list
Res ume
Foo Test
ĠStart ing
E lem
Ġkey pair
return ing
Text TestRunner
mal ler
Ġref lection
fol lower
blue tooth
ĠCall ing
ĠCL ASS
A sk
B ib
ç İ
al gorithms
Ġa z
(* [
gl Get
Inte grityError
Ob server
PAY LOAD
tlene ck
Ġ[ ["
Ġst anza
ĠW erkzeug
Ġpre sen
arg str
cor por
short cut
æľ Ī
Ġrestri ctions
Ġpipe s
Ġconven ient
ARG UMENT
ĠSpa tiaLite
W arn
i ten
ĠM c
Ġderi ve
Ġast roid
ĠGeo QuerySet
çĶ¨ æĪ·
D iv
f uzzy
n rows
an imation
Ġ* .
Un used
ĠAn onymous
recur se
Ġevalu ates
Language Codes
Cross Ref
li x
Get OfdmRate
Di Graph
~~~~~~~~ ~~~~
Ġtermin ation
ĠCre dentials
Spa cing
ĠAv ailable
Predi ction
R W
in box
in herits
es cap
data path
Ġrequest ing
ĠPro vide
Sh ip
book marks
HTTP RequestHandler
Global s
Ġt axes
the mes
Ġstop ping
Ġplot ting
El lip
C ut
C IT
o virt
p ragma
Ġre vert
Ġt ro
Ġy min
Pro ps
PRO GRESS
ĠForm Set
ä¿ ¡
C m
P BX
Ġ mpl
um s
ĠB er
Con firm
Ġ{} }
Value Dict
TO K
Ġfl uid
Ġweb socket
NOT IFICATION
x form
ur andom
ĠL android
Ġro unded
cluster ing
Sp here
S olution
re jected
op codes
VER IFY
76 3
F G
Ġn ex
as sessment
li kely
Ġ1 13
ĠC ateg
ĠIn strument
rf ViewMiddleware
Ġprice list
ĠRunqueue Event
RESER VED
S ha
u ched
ro te
Ġre play
Ġlog o
arg list
Get All
cen ame
cent roid
BL ACK
al ist
fo od
:// /
og rams
Man aged
Ġrep licas
WR AP
Exist ing
Iden tical
Ġ lic
Ġ2 70
sub mitted
cor relation
/ ">
x h
Ġis olated
ab ber
ĠF irefox
pre set
Con tin
IC MP
FF FE
68 5
lex pos
cos x
ĠDES C
ues sed
Publish er
Ġaccompany ing
- >"
H MAC
g auss
n as
Ġ( {'
du s
Ġ{} :
fic ulty
79 2
Over flowError
Ġquestion s
AAAAAAAA AAAAAAAA
4 22
B P
Q Widget
x link
de m
con cept
Ġex pensive
Ġr g
ĠD one
** -
exec uting
65 2
Ġlate ncy
* (?
L l
R ad
] =='
Ġi map
Ġan on
'] (
ĠA E
bu sy
ho ver
Ġinfo s
super mod
Ġmagn itude
7 89
f info
s dist
ra dd
Ġmo tor
ĠW KT
read MessageEnd
ET RY
Ġsub tract
gen re
xff ffffff
Ġmodification s
ĠRule s
o li
u time
ter r
Ġ[ .
pro mote
Ġl t
low pan
Make Autoconfigured
under line
Ġexis tence
] '),
c riterion
ĊĠĠĠĠĠĠĠĠĠĠĠĠĠĠĠĠ ĊĠĠĠĠĠĠĠĠĠĠĠ
ep g
ĠZ one
Av atar
Ġrecent ly
Ġretrie ving
<! --
DEC IMAL
Ġshor ten
5 14
H ier
b v
s par
ur s
(' =')
ark w
Ġexec file
separ ate
ung arian
BOUND ARY
G r
S ORT
un load
ser vo
et ools
Ġh ue
ĠC ython
"] }},
Up dating
Read CrossRef
BO ARD
ĠTra ining
MIS S
Ġquot ation
atern ion
C atch
C ED
r val
in stead
si ght
int ools
Ġsub scribe
Ġtemp est
NUMBER NS
prin ters
-+-+-+-+ -+-+-+-+
ĠL atin
Re moved
ĠM ULT
ĠM aps
col lected
cd n
ï¼ ļ
ĠOPT IONS
de bian
ti ght
Ġa ffi
Ġun bound
ĠH ello
Ġsize Policy
ustr alia
COUN TER
in cremental
ti sh
Ġ' **
Ġd pi
ĠE thernet
Get Property
OUT UBE
Vi sibility
Parameter Value
Ġiniti ally
ãĢ ģ
Ġsprite s
K W
u ity
ç ¨
Ġcomm as
Ġ.. /
ĠAl gorithm
BL UE
( ([
Ġc ards
Ġbe have
=" ([^"]
Ġwe e
uc s
multi processing
inte gral
Ġupper case
Real time
Ġce ph
Cs ma
ĠGit Hub
PcapFile Wrapper
ĠSYSTEM S
T REE
c group
re ward
ce dil
ec s
oper ands
ins pection
Ġcp us
ĠPermission Denied
ĠAP IC
: ':
qu arter
Ġcon current
lin d
rent z
RO ID
Ġdifferent ly
Ġcla uses
Ġsatis fied
Reverse Match
æĬķ èµĦ
C xx
b attery
ĠA re
stri pe
Ġtotal s
Min or
Ġps util
Ġarticle s
Dont Fragment
> /<
Y Z
l xml
Î µ
Ġ' ]'
Ġd rv
ĠF our
Ġ_ :
ĠL C
ĠB ot
sub scribed
File Handler
EX PI
Ġstrict ly
Ġconj unction
) [:,
c j
Ġs us
un ordered
fix er
AG G
exec uted
mar ty
Raw Response
ĠStream Writer
mono A
ç µ
ro ps
Ġp si
set Current
Ġg d
Ġar t
ĠN ested
ĠW o
write String
iv ative
15 00
)] ]),
([' -
Sec ure
A u
po le
[: ],
Log ical
stit ute
Ġestablish ed
Chooser Block
PAL ET
1 000000
H uman
b ip
Ġcon secutive
do bj
ĠRe verse
Ġ{} \
Pack ages
GL int
switch es
MESS AGES
Band width
Z i
c var
p unctuation
sub sets
Packet s
Ġunicode data
Attemp t
alen coder
b cc
Ġse crets
valid ated
{} .
Ġ12 345
æľ Ģ
Ġguarante e
ĠRuntime Warning
pa yslip
CH ED
Ġopen id
Ġsy ms
allow s
ĠAc tive
ĠHandle s
Ġmacro op
Ġcommunic ation
Matching Type
S te
S paces
l k
Ġh ub
Ġco res
Ġun necessary
has is
has Content
Ġweb notes
]* ',
Boost ing
H IST
T ar
g ran
Ġb ench
Ġse ntry
""" .
Test ModelAdmin
De velopment
'} ],
auto matic
Link Local
(?: [
Can didate
ĠDimen sion
# _
p assive
as sis
Ġ- (
Ġr ates
art s
". '
App le
extra ctor
JSON Encoder
Ġpad y
squ ares
Mod al
W V
W ake
Ġf lavors
Ġre used
sys config
An chor
'^ (?
Ġagent s
dv d
ĠStr ings
ĠRandom State
cum sum
g dk
æ ¬
il de
Ġ1 17
ĠA lert
Ġg y
log dir
Ġge ometries
Ġtimeout s
ĠOpen GL
ĠAuthor ization
look ahead
G s
S ty
S us
e lf
h ue
s wa
mo tor
ex n
ĠE mployee
Ġx min
ten ants
64 32
Is MatchingType
rt l
Wor ks
Ġ'" ':
Ġhome page
Ġ---------------------------------------------------------------- ----
ĠIncremental Encoder
Q R
] '))
or ge
Ġr q
ac ao
LE U
PE M
public ation
C ls
E H
R NA
Ġ" !
fo reg
5 30
Ġco vered
Ġ2 53
ĠB al
Pro j
emp loyees
re de
Ġf rac
Ġp ractice
Ġu gly
Ġl abeled
De sign
85 1
termin ator
Ġpublic Id
nomi als
. -
. [
ç Ĳ
st dio
lo ver
Ġe thernet
AP E
48 3
stack ed
= |
M ES
fi able
Ġan ti
(" @
ĠH AVE
02 00
most at
Ġescape s
Te le
GP U
Ðº Ð°
ĠIncremental Decoder
ĠRequire ment
A FF
C MP
N or
ĠD an
SE ED
Ġle ader
OO OO
Ġcaller s
ĠIter ate
ĠAbs olute
/ +
L y
l us
an ies
Ġ" ?
ĠS hared
sub tree
Ġfil t
{} \
ĠOver flowError
ĠJo in
ĠMet ric
ABCDEF G
B anner
P rep
l z
Ġt vm
Ip Address
ĠWor ker
Ġdescri bes
material s
. ]],
g as
ĊĠĠĠĠĠĠĠĠ ĊĠĠĠĠĠĠĠĠ
an chors
Ġme ters
Ġfile type
Mode Keys
ĠPro duction
ĠQgs Point
Host name
Ġfix es
period s
âķĲ âķĲ
w ed
x iv
pa ypal
ĠD N
do ck
read String
tra c
imple ments
parent Node
speci fication
namespace d
repo sitories
Com ma
ABS Parser
Lr W
P od
h ol
Ġf ive
00 60
con om
ĠH DF
UR CES
CO ORD
the ma
expan sion
4 37
h v
Ġapp endix
96 3
Ġswitch es
H it
Z eta
\ [
Re moving
SE xception
xF D
M icro
d as
Ä į
Ø ´
lin der
Ġde composition
ĠP ush
ĠB reak
Ġmodify ing
Schema Migration
LrW pan
* =\
Q V
g auge
Ġe specially
') \
ĠL A
Ġse quential
ci te
external s
ä» ¥
Ġcen tered
ilo ver
ĠSchema Migration
H u
u ated
un processed
Ġd ark
pro posal
ĠThe me
11 00
format ters
ASS IGN
mem cache
car on
æĸ ¹
sam ba
G ATE
e os
p rune
Ġre raise
Ġre ferred
Ġde dent
Ġ2 06
data gram
In teractive
by name
tra de
En queue
bin ds
User Factory
fs m
PRE D
ĠLay out
u gettext
ç ķ
re gs
Ġ= \
Ġs vm
name list
(" </
Ġr dd
Ġx xx
ne gate
Ġcomp licated
Po w
open shift
Ġdownload ing
under score
DEP LOY
] ':
re cs
Ġt pl
it ution
Ġse m
ĠM aster
ĠH B
ak a
Ġhost vars
Assign Streams
accum ulator
GOO GLE
F rag
ĠP CA
mit ter
US ERS
filter ing
ĠIN F
DI STR
Ġab i
namespace URI
Ġredi rection
Ġmon itors
developer s
Geom Type
foreg round
Z m
g rep
Ġ" ").
ĠC ERN
Ġest imates
IMP LE
cele ry
JO INT
B rowse
d an
p added
de mand
Ġ0 6
om orph
################################ ########
Lib raries
ĠAss oci
satis fied
d ong
sm ar
dot s
Ġcy gwin
relationship s
Readable Transport
quiva lence
_ ]+
Con cat
'} )]],
AS M
sk ill
round trip
Ġob solete
Ġdep ot
([[ [
Skip Test
è¯ ·
ĊĊĠĠĠĠ ĊĠĠĠ
Ġparen theses
H G
ti ps
ĠC la
Ġfile no
65 1
penden ce
Ġvar args
ĠRE PORT
æŁ¥ è¯¢
N eeded
b ird
de que
Ġf reed
per mutation
Ġnew node
main loop
Ġsub directories
Base Command
DS A
Ġloader s
Ġexpi ry
Ġcalcul ations
ĠTEMPL ATE
E CH
L ab
p format
fi p
parame terized
ĠZero DivisionError
p q
in str
Ġ2 10
ml lib
Message Header
ĠUN KNOWN
coordin ator
ĠFa ctory
T w
r k
ult aneous
Set Input
Ġsum maries
eff ort
Ġrepo sitories
d pid
j b
æ ĵ
bu mp
ener ation
79 7
Block s
ĠREC ORD
S pider
e ty
Ġas sertions
At Start
Ġreg ist
79 4
cla uses
Application Exception
Ġstat uses
Ġperf ect
Ġ------------------------------------------------ --
ĠImple ments
Ġbackslash es
G PS
s lope
li sm
un iversal
Ġch k
link age
ank s
ulation Type
ĠSER VER
Phone Number
Ġbytest ring
Ġscraper tools
D yn
ch oo
Ġ1 98
Ġdo Actions
Ġfe el
49 8
DBG KD
R er
S at
in secure
(' ../
Ġex ponential
Ġpro tection
ĠH AND
Comp ound
ĠCall Tree
Ġscra ped
ĠBro ken
D WORD
N at
W elcome
ar ctan
ub ble
AM D
Ġ`` <
IG GER
Ġover head
ĠImport s
Connection Pool
cision Tree
Cre dit
Err no
Relation ship
X Path
k ed
re views
Ġcon versions
Ġcreate Fields
ĠSO CK
äº¤æĺĵ æīĢ
Ġstra ight
+ ".
A live
G W
L M
S OR
o spf
ch ant
Ġde compress
str Repr
sh rink
Ġpa inter
32 32
'. *
IO US
Comp arison
Ġfunc name
lat able
9 78
W GS
æ ¡
Ġi ri
Ġi ronic
Ġe mb
Ġ1 35
ĠP layer
Pro d
ili o
ĠUn der
author ity
.* \.
ĠĠĠĠĠĠĠĠĠĠĠĠĠĠĠĠĠĠĠĠĠĠĠĠĠĠĠĠĠĠĠĠ Ġ
Ġexce eds
G Data
I llegal
time d
Ġun ified
39 1
Ġplay ing
alf ormed
Ġquick ly
uer re
Under lying
ĠAli as
FIFO Queue
æĬķèµĦ èĢħ
B et
P al
e i
Ġp ulse
un iv
Ġ1 63
ĠD ST
Ġcol lapse
Bo b
ob servation
Ġpb x
Ġequ ations
Ġnl tk
m ys
ance stors
Ġme s
List Item
sample r
NOT IFY
ĠWith out
Ġexce ed
O AUTH
Ġ ĊĊĠĠĠĠĠĠĠ
Ġ1 53
ĠB IN
79 6
Qu it
ACT IONS
sim ilar
Bound s
Called ProcessError
Ġ################################ ########################
Ġhier archical
Acc um
4 13
T MPL
r ms
Ġ' `
', [[
Ġ# %
ĠE quivalent
Ġwhen ce
Ġnet addr
ĠUn expected
Le ave
Ġmon itored
pick ling
Ġmp f
in complete
ĠF ore
back slash
20 29
Fa cts
No ise
cf b
45 1
push Button
Ġcas cade
TSecurity Ftdc
S u
l um
Ġan no
Ġ1 29
ĠP hy
Ġr dtype
Ġout dir
Ġpy parsing
Ġback ing
SC AN
ĠCF Name
SM IL
assertNo Output
perimen ter
B log
D UP
b ly
c rawler
pro grams
20 28
Ċĉĉĉ ĠĠĠ
mi tives
Oper ating
Track ing
Rot ation
Ġnick name
MER GE
2 87
H KEY
ĠB AR
Ġinter p
68 3
dentifi cation
Multi Dict
New s
Positive SmallIntegerField
Ġc nf
Ġu m
ĠL ive
ĠE mbed
Pro duction
Ġsh ards
split ter
ĠTest Result
TH IS
chno logy
X P
Ġre create
Ġlo ts
node acl
ĠEx change
of c
Ar p
79 5
Ġig nores
tv db
fm sec
Ġsit uations
f get
in come
in cident
ra ki
od o
IN C
IT T
Ġback off
ink er
ĠComp ile
Ġperson al
orph an
lli gent
0 34
Ġiter values
H F
W a
Ġ' :',
Ġth rows
Ġelse where
pre fer
ac cessible
work sheet
version file
/> "
Ġip addr
++ )
SC RE
inte gr
ĠMark down
Defin es
spatial ite
ĠOGR Geometry
' ."""
B lack
S ince
Ġc rypt
Ġcon tro
ĠE ns
Ġcheck box
Ġmax val
ĠCon sider
Ġtra cing
Ġmin imize
Ġsen tences
vol tage
ĠRel ation
AsciiTrace HelperForDevice
Ġ2 20
Ex ceeded
Wh ile
b link
re vs
at on
Ġs coring
one t
to ver
comp s
Ġpass phrase
GR APH
Ġdecor ate
Ġ84 6
Ġplaceholder s
K nown
u A
se ll
Ġs rv
ol ler
Ġ1 18
Ġun recognized
timestamp s
ä» ĵ
Comb ine
Ġabb revi
C ircle
M LE
---------------- ----
mi os
VARI ABLE
Ġplug intools
Guard Interval
To File
ld flags
}) ".
Ġge ographic
Output File
analy se
ĠSimple TestCase
ĠSup ported
ĠPri mary
Fragment a
3 66
F avor
L ES
ĠC amp
ub ic
Ġun modified
Add AtEnd
PRO TE
ĠOpen ID
6666 7
Ġcar ry
Mu sic
euc lidean
U K
p write
Ġre factor
un te
get Property
test Data
ĠP ORT
ber os
Get Address
Ġindex er
('. '))
Ġord inal
fri end
C e
er as
Ġw ildcards
(" :")
ĠP ress
Ġal go
ĠRe ader
Read s
PER IM
[^ "]
Ø§ Øª
Ġpol ler
ĠMAC RON
f utures
Ġfor warded
is s
ĠO bj
>> >>
HTML Parser
Ġhook env
BR ANCH
ĠCookie Jar
- ')
D a
ap ro
ĠN B
Ġ(' (
Ġle ak
Ch an
Pre view
reed y
spe ech
ĠBL ACK
T ap
T TL
ud nn
Status Code
big int
WE IGHT
Hidden Input
C ent
S ender
Ġa mt
an imate
', [
Ġsh ader
List Filter
post fix
ifi ers
As sistant
ĠAS N
Ġord inary
99999999 9999
J K
p unct
z c
de tected
ri k
(' =',
ĠI terator
Ġpro v
** \
main ing
ĠIn line
ĠName s
/* /
romisc uous
Ï Ħ
ge l
ul g
Ġ1 46
ĠC ell
ĠE DIT
IM G
Ġpack aging
Av ailability
vv v
åŃ Ĺ
Ġcaref ul
R aga
X L
Î ½
ĠT ARGET
ĠO ur
Ġun register
Ġsub tree
cer n
fl t
ĠPBX Group
oll ar
SECON DS
Ġbeh aves
readStruct End
readStruct Begin
readField End
readField Begin
3 89
f light
() (
), '
()) ]
hash lib
del tas
96 1
Py Qt
ĠDE F
Ð¾ ÑĢ
PN G
Baz Test
') ['
Ġfull path
Ġsched uling
amo db
çº ¦
ĠNorm ally
o asis
Ġe h
mat vec
Ġac cident
ie u
Ġ'< '
Ġsa id
ĠApp lications
Ġfit ted
ĠSh ell
abe tes
Zip f
?:// (?:
writeStruct End
writeStruct Begin
Mix In
> '''
th r
co efs
Ġor ient
locale s
writeField Stop
conj ugate
',[[ ('
# ':
b urn
Ġ0 7
Include s
SCAL E
S an
Ġf utures
Ġs aniti
Ġ`` _
Ġsubclass ing
Ġ---------------------------------------------------------------- ----------
C ReadableTransport
g ro
p res
Ġb m
(' "')
ile stones
ĠF ill
Con fir
Con tinue
... ",
Ġlocal ized
reet ing
Dep loyment
flu ence
& ')
4 16
J x
a j
f df
m C
Ġ" ),
ĠS HO
In tended
Ġx id
ĠFor ward
pol ler
Ġhead s
ĠOp code
a ac
Ñ ħ
č ĊĠĠĠĠĠĠĠĠĠĠĠĠĠĠĠĠĠ
Ġp ager
In dian
Ġ(' --
ĠE U
OR G
Set DontFragment
}) '.
REG ISTR
Ġhy po
ĠWork flow
/ $
v nd
Ġin validate
li zation
fi df
ĠD uplicate
ĠString Field
TEMPL ATES
è¦ ģ
4 18
p dist
Ġ ,'
te en
de activate
ex empt
RE A
yn core
08 00
Comp ression
win types
Meta Data
ĠSH UFFLED
4 12
Ġf irmware
ad f
ex ponent
ĠG uess
bo ss
ID I
ĠException s
nor ms
Ġ================================================================= ============
mav link
ĠUs ually
9 22
R ates
Ġ' (%
Ġt un
arn a
Se gments
Do ck
Ġclo ses
ĠSe lf
Ġcolli sion
ĠSm ith
vmo ps
8 80
S tri
d fa
i pa
Ġ' =
Ġra g
ine se
ale x
ĠVer tex
Ġupload ing
Ġfore ground
Ġradi ans
4 25
Ġp ic
Ġv max
Ġsub path
Ġweb app
single ton
ĠBe gin
EXCEPT IONS
Categ orical
en ces
Ġ( =
Ġ1 49
py dev
Ġ(' [
Ġra y
Ġsub directory
IO D
gp fs
Jo urnal
T G
c ats
Ġa ds
Ġfor warding
ĠD ense
che m
call ing
first name
hance d
readth edocs
8 57
M ass
P atterns
R oll
j elly
al ian
Ġ1 70
lin ed
Ġ2 34
ĠL ow
": {
Ġfrom list
Tra ding
DR IVER
ĠEN T
fast binary
ĠEnvironment Error
Ġcalib ration
' --
+ "\
C Z
P X
Ġ )))
Ġcon tacts
ĠA mount
Ġr len
read ability
we ather
File Error
Variable List
ĠComp utes
Ġoccur rence
ni k
reame r
4 11
9 20
J E
k d
de serializer
ĠS mall
ĠC RLF
Ġpar tially
Ex clude
Get Type
Ġapp ending
Ġattr name
ĠBase Exception
x v
at las
ĠA udience
Ġper mutations
Un do
mar c
ĠCO UNT
DOWN LOAD
Sca ler
u ss
Ġb dist
ot or
Ġ1 72
ĠA MP
PE P
Ġtag Set
ear Down
From File
Ġtran script
scra ped
Ï ģ
us ually
ĠM SG
tra it
ĠDe pendency
Do cs
debug ging
strip ped
Ġspace Characters
å¹ ³
S PL
re staurant
ver sioned
ĠP M
ĠR C
Time With
Comp atible
ĠTrans late
Ġmanual s
RESULT S
PRI ORITY
POLY GON
% \
Ġ čĊĠĠĠĠĠĠĠ
lf orm
ĠT ags
ĠA ug
Ġ== >
DE FL
IO Base
Ġexec utes
Server s
AI LED
ĠTE MP
conti g
escap ing
F igure
à ®
Ġs ibling
set timeout
red dit
ĠN L
AR N
parse DOM
Ġinter rupt
48 1
Config urations
ĠComp iler
ane se
æľ º
ĠInte grityError
F raction
in ic
op ri
)) ],
ĠSO AP
Information Element
lst m
Ġlin estyle
iph ers
D GRAM
H M
e gress
n ans
th ickness
Ġi si
Ġi pt
Ġde activate
uth or
ĠPy PI
Ġca using
Ġop posed
Pre pared
PROCESS OR
" (?
? [
S X
S ol
s po
de haan
Ġ= ",
fig size
ĠM AGIC
Ġ3 20
ĠAN SI
ĠOR M
Ġdis connected
gen ome
Al bum
dv r
Ġadjac ent
J z
k config
en rolled
Ġp ca
Ġu fp
Mo unt
Ġlink ing
appen dices
remo val
] _
un to
Ġv a
qu id
Ġ1 21
ff ee
Pro vide
ime ter
Ġla mb
FF T
CS RF
]* \
Position Allocator
quot ing
Escape d
CharTo OrderMap
TimeWith Unit
H ou
ĠO f
Ġz mq
Distribution Analysis
eager ly
in dividual
me mpool
Ġf path
Ġ1 19
pro cs
ff mpeg
ĠRe search
ĠR T
inter sect
CL USTER
Ġtmp file
Jo int
Virtual Machine
ĠREQU I
gebra ic
> [\
q d
Ġe vi
ĠS EC
Ġcl ang
ph ers
Ġstate stack
67 1
Th rough
ĠUnicode EncodeError
Enable Pcap
MAN AGER
ITEM E
. $(
5 33
D Checker
l ru
un available
op o
OR ED
ĠAR G
ä¸ ĭ
Ġmemory view
X s
{ _
Ġ1 36
Ġparam iko
Ġdel attr
Input Stream
Ġcer ts
invoice d
/" +
orth and
ĠImple mentation
FACT OR
ĠDH CP
C at
de nom
Ġ' {'
li est
Ġdef s
Ġ1 24
Ġ1 34
ĠC D
AN DS
be h
47 3
web server
Be havior
Aggreg ator
P IC
Ġ< -
ca ught
ĠX ml
Ġ(" \
Ġqueue d
Ġpair wise
altern atives
Ġaccum ulator
4 19
B Q
S anity
Å ¾
Ġc df
Ġc ros
Ġb iases
per c
py qt
ud rate
pk l
46 2
digit al
TRAN SL
( \\
e ther
f resh
s warm
li a
Ġd so
du mb
Ġde mon
fo lio
Ġdata frame
File Reference
68 1
Handler s
Ġhash ing
An imation
Cre dential
Database Error
Scal ing
sho wn
ĠWR ITEME
Compo site
Ġ( __
for warding
ĠM icro
In herit
25 92
Ġhttp d
bit bucket
UM MY
Wifi Manager
Ġasc ending
ĠENT ITY
5 25
Z n
en sing
ĠD en
In vert
sp line
12 50
lock file
Ġcomp uter
æľ ¬
> '),
C ast
b lo
Get Node
cre dits
pop left
ĠMember ship
M ultip
d uring
r partition
y dk
Ġc am
ĠA G
ls h
ĠP RI
Ġme di
Ġ3 03
ĠH idden
19 80
Ġtra ces
Se maphore
mock s
eb c
sd l
ĠNode s
Ġanaly zer
c il
me ro
ti ze
ur t
ex ponential
Ġg reek
Ġpy xb
MO V
DR M
Ġ'* ',
æķ ¸
0000000000000000 0000000000000000
Ġsoft tabstop
VIRT UAL
A ri
B er
a che
h yp
Ġ ÙĦ
Ġn v
up ic
assert Table
IN FORMATION
do i
ec b
Ġinstall s
ĠLa unch
ĠAL LOW
Ġsit uation
Spin Box
R TL
lo bj
ĠF lags
Ġnew Child
Ġhelp ful
resource Groups
lex state
Ġ'$ '
åı Ĥ
NUM ERIC
ĠOrdered Set
paralle lize
) ["
? %
N l
T ake
j an
Ġp ressed
Ġ" $(
mo lecule
=" --
ĠR ich
ĠH ook
obj c
Ġwor th
ĠX B
trans parent
}) ',
Ġiter ating
ĠTH EN
Compiler Tool
Ġbr ush
getElement ById
9 80
Ġ" ))
Ġin vert
Ġ1 32
Ġ2 38
art in
tain ing
Ġop codes
æĽ ´
8 10
[ /
è ¼
ĠS AS
In voke
Ġsub parsers
',' ','
Form ula
WOR LD
0123456789 0123456789
I W
an cial
Ġ_ ):
Ġ2 25
ho lidays
Ġget reg
Un register
Ġ'% .
Ġsample r
SH OT
Ġdetermin istic
gi ble
Ġsucce eds
T ur
n aming
ĠL IB
ci phers
Ġx l
67 3
Map s
ĠGuang dong
B old
N umpy
P CA
ĠĠ ĊĠĠĠ
ler ts
Ġro bust
bound ing
unpack ed
follow up
('/') [-
[^> ]+
C ritical
R ENCY
V CL
t weet
Ġre ferer
Ġp ng
ut coffset
set Formatter
ĠG ive
=" '
UT IL
Col lect
UB Q
Ġaccount ing
Open ERP
Fi rewall
ĠEst imator
ĠDefin es
ĠACT IVE
V y
w ap
| _
Ġs uites
la w
ĠS ECT
=" -
ant age
Ġper haps
Ġchange list
DI V
number Of
Ġmask s
API View
VAR CHAR
={} '.
Ġcompo sed
çĲ Ĩ
8 04
S CR
t tk
Ġs li
Ġw kb
Ġfor bidden
ĠS UM
Ġ{ @
Ġy aw
sh aker
29 65
IM ET
Ġselect s
pan e
æİ ¥
æĹ¶ éĹ´
nsy scall
N AN
X Block
Ġa nt
Qu oted
Ġreq s
Ġplace ment
ĠWor ks
Dep loy
B ORDER
W IFI
e ader
t qm
re voke
de vel
Ġof ficial
user profile
ren code
ug ar
Char set
ven ue
.* ')
WE EK
dele tes
Tx op
Short cut
wind ll
Mig rate
4 15
D ays
G ONE
Z G
ed X
=' #
sc oring
create DataFrame
Ġval idity
ĠDe sign
ĠSt at
HTTP Response
war der
Ġnormal izer
Ġzip fp
Method Type
Na T
own ed
Ġmultip lication
ĠMon itor
* (-
R i
Ġp reds
(' ..
Ġr st
IN VAL
ĠU R
Ġ[' ']
SA FE
bri ck
^{ -
equ ation
ĠLeg acy
/ ':
B an
L ife
g ce
pa x
Ġm r
ĠD IAL
Ġj ac
ĠQ MessageBox
For ms
Call ing
wit z
COL ORS
TracedValue Callback
4967 295
b cd
Ġi am
Ġh id
ĠM ODE
Ġen velope
66 67
Ġargs pec
Mo st
]* )
pair wise
SO URCES
ĠTEST FN
Note book
paren theses
å§ ĭ
_ <
f us
Ñ Ĩ
Ġa jax
Ġn ume
Ġ2 22
Ġdo g
Ġhe uristic
cy an
stack s
68 2
Success fully
ASSI VE
å¿ Ĺ
K f
n the
x AB
in lines
st ab
th ings
Ġfor ces
Ġout f
Ġ\ (
make One
go og
97 2
ĠAd ditionally
Channel s
Ġturn s
ĠTE CH
6 36
Ġc url
Ġin tention
(' ;
ĠP G
Get Uid
Ġoff line
ĠAs set
ĠWeb Driver
Ġcalcul ating
DA O
çº ª
SMIL NS
W ay
r data
r buf
č ĊĠĠĠĠĠĠĠĠĠĠĠĠĠ
un zip
': ['
du als
In sensitive
ir onic
ec tively
ren a
Ġtext s
pk cs
enter prise
Display Name
å¹ ´
Ġship ping
m ss
y er
Ġ1 38
ĠS G
ĠD ot
čĊ čĊĠĠĠĠĠĠĠĠĠĠĠĠĠĠĠ
FF D
part ners
76 2
45 2
dic ated
ĠLog ical
Ġ~ /.
ĠPack et
launch er
Tr unc
5 04
L in
it ter
ĠM AN
ip addr
Ġk ube
den y
Par allel
IB UTE
Ġnor mpath
ĠRep orter
J J
Ġre lies
Ġs izer
Ġma ko
([ ]),
Ġ}} ',
Account Field
ĠTrans lation
ĠVAL UE
Ġef ficiency
HI J
Ġs hebang
() `.
set Window
Ċĉ Ċĉ
ww pn
Ġla m
Ġurl patterns
Ġtarget path
fail ing
DO CK
Text Block
48 2
Ġdis count
Mac ros
åı ĳ
ĠScale s
Paged Pool
åĲĪ çº¦
3 64
| "
Ġs il
Ġse nsors
Ġ` __
Ġunder line
ĠMe an
Open Stack
semb ler
Ġcert file
ç»ı çºª
5 03
A ir
l port
Ġre con
)) \
Ġmo tion
[...]
