{
  "version": "1.0",
  "truncation": null,
  "padding": null,
  "added_tokens": [
    {
      "id": 0,
      "content": "<|endoftext|>",
      "single_word": false,
      "lstrip": false,
      "rstrip": false,
      "normalized": true,
      "special": true
    }
  ],
  "normalizer": null,
  "pre_tokenizer": {
    "type": "ByteLevel",
    "add_prefix_space": false,
    "trim_offsets": true,
    "use_regex": true
  },
  "post_processor": {
    "type": "ByteLevel",
    "add_prefix_space": true,
    "trim_offsets": false,
    "use_regex": true
  },
  "decoder": {
    "type": "ByteLevel",
    "add_prefix_space": true,
    "trim_offsets": true,
    "use_regex": true
  },
  "model": {
    "type": "BPE",
    "dropout": null,
    "unk_token": null,
    "continuing_subword_prefix": "",
    "end_of_word_suffix": "",
    "fuse_unk": false,
    "byte_fallback": false,
    "ignore_merges": false,
    "vocab": {
      "<|endoftext|>": 0,
      "!": 1,
      "\"": 2,
      "#": 3,
      "$": 4,
      "%": 5,
      "&": 6,
      "'": 7,
      "(": 8,
      ")": 9,
      "*": 10,
      "+": 11,
      ",": 12,
      "-": 13,
      ".": 14,
      "/": 15,
      "0": 16,
      "1": 17,
      "2": 18,
      "3": 19,
      "4": 20,
      "5": 21,
      "6": 22,
      "7": 23,
      "8": 24,
      "9": 25,
      ":": 26,
      ";": 27,
      "<": 28,
      "=": 29,
      ">": 30,
      "?": 31,
      "@": 32,
      "A": 33,
      "B": 34,
      "C": 35,
      "D": 36,
      "E": 37,
      "F": 38,
      "G": 39,
      "H": 40,
      "I": 41,
      "J": 42,
      "K": 43,
      "L": 44,
      "M": 45,
      "N": 46,
      "O": 47,
      "P": 48,
      "Q": 49,
      "R": 50,
      "S": 51,
      "T": 52,
      "U": 53,
      "V": 54,
      "W": 55,
      "X": 56,
      "Y": 57,
      "Z": 58,
      "[": 59,
      "\\": 60,
      "]": 61,
      "^": 62,
      "_": 63,
      "`": 64,
      "a": 65,
      "b": 66,
      "c": 67,
      "d": 68,
      "e": 69,
      "f": 70,
      "g": 71,
      "h": 72,
      "i": 73,
      "j": 74,
      "k": 75,
      "l": 76,
      "m": 77,
      "n": 78,
      "o": 79,
      "p": 80,
      "q": 81,
      "r": 82,
      "s": 83,
      "t": 84,
      "u": 85,
      "v": 86,
      "w": 87,
      "x": 88,
      "y": 89,
      "z": 90,
      "{": 91,
      "|": 92,
      "}": 93,
      "~": 94,
      "¡": 95,
      "¢": 96,
      "£": 97,
      "¤": 98,
      "¥": 99,
      "¦": 100,
      "§": 101,
      "¨": 102,
      "©": 103,
      "ª": 104,
      "«": 105,
      "¬": 106,
      "®": 107,
      "¯": 108,
      "°": 109,
      "±": 110,
      "²": 111,
      "³": 112,
      "´": 113,
      "µ": 114,
      "¶": 115,
      "·": 116,
      "¸": 117,
      "¹": 118,
      "º": 119,
      "»": 120,
      "¼": 121,
      "½": 122,
      "¾": 123,
      "¿": 124,
      "À": 125,
      "Á": 126,
      "Â": 127,
      "Ã": 128,
      "Ä": 129,
      "Å": 130,
      "Æ": 131,
      "Ç": 132,
      "È": 133,
      "É": 134,
      "Ê": 135,
      "Ë": 136,
      "Ì": 137,
      "Í": 138,
      "Î": 139,
      "Ï": 140,
      "Ð": 141,
      "Ñ": 142,
      "Ò": 143,
      "Ó": 144,
      "Ô": 145,
      "Õ": 146,
      "Ö": 147,
      "×": 148,
      "Ø": 149,
      "Ù": 150,
      "Ú": 151,
      "Û": 152,
      "Ü": 153,
      "Ý": 154,
      "Þ": 155,
      "ß": 156,
      "à": 157,
      "á": 158,
      "â": 159,
      "ã": 160,
      "ä": 161,
      "å": 162,
      "æ": 163,
      "ç": 164,
      "è": 165,
      "é": 166,
      "ê": 167,
      "ë": 168,
      "ì": 169,
      "í": 170,
      "î": 171,
      "ï": 172,
      "ð": 173,
      "ñ": 174,
      "ò": 175,
      "ó": 176,
      "ô": 177,
      "õ": 178,
      "ö": 179,
      "÷": 180,
      "ø": 181,
      "ù": 182,
      "ú": 183,
      "û": 184,
      "ü": 185,
      "ý": 186,
      "þ": 187,
      "ÿ": 188,
      "Ā": 189,
      "ā": 190,
      "Ă": 191,
      "ă": 192,
      "Ą": 193,
      "ą": 194,
      "Ć": 195,
      "ć": 196,
      "Ĉ": 197,
      "ĉ": 198,
      "Ċ": 199,
      "ċ": 200,
      "Č": 201,
      "č": 202,
      "Ď": 203,
      "ď": 204,
      "Đ": 205,
      "đ": 206,
      "Ē": 207,
      "ē": 208,
      "Ĕ": 209,
      "ĕ": 210,
      "Ė": 211,
      "ė": 212,
      "Ę": 213,
      "ę": 214,
      "Ě": 215,
      "ě": 216,
      "Ĝ": 217,
      "ĝ": 218,
      "Ğ": 219,
      "ğ": 220,
      "Ġ": 221,
      "ġ": 222,
      "Ģ": 223,
      "ģ": 224,
      "Ĥ": 225,
      "ĥ": 226,
      "Ħ": 227,
      "ħ": 228,
      "Ĩ": 229,
      "ĩ": 230,
      "Ī": 231,
      "ī": 232,
      "Ĭ": 233,
      "ĭ": 234,
      "Į": 235,
      "į": 236,
      "İ": 237,
      "ı": 238,
      "Ĳ": 239,
      "ĳ": 240,
      "Ĵ": 241,
      "ĵ": 242,
      "Ķ": 243,
      "ķ": 244,
      "ĸ": 245,
      "Ĺ": 246,
      "ĺ": 247,
      "Ļ": 248,
      "ļ": 249,
      "Ľ": 250,
      "ľ": 251,
      "Ŀ": 252,
      "ŀ": 253,
      "Ł": 254,
      "ł": 255,
      "Ń": 256,
      "ĠĠ": 257,
      "ĠĠĠĠ": 258,
      "ĠĠĠ": 259,
      "ĠĠĠĠĠĠĠĠ": 260,
      "se": 261,
      "in": 262,
      "ĠĠĠĠĠĠĠ": 263,
      "re": 264,
      "on": 265,
      "te": 266,
      "ĊĠĠĠĠĠĠĠ": 267,
      "ĊĠĠĠĠĠĠĠĠ": 268,
      "or": 269,
      "st": 270,
      "de": 271,
      "ĊĠĠĠ": 272,
      "th": 273,
      "le": 274,
      "Ġ=": 275,
      "lf": 276,
      "self": 277,
      "me": 278,
      "al": 279,
      "ti": 280,
      "er": 281,
      "Ġa": 282,
      "Ġ'": 283,
      "Ġi": 284,
      "ar": 285,
      "Ġc": 286,
      "en": 287,
      "ĊĠĠĠĠĠĠĠĠĠĠĠ": 288,
      "Ġf": 289,
      "an": 290,
      "Ġself": 291,
      "at": 292,
      "ro": 293,
      "Ġth": 294,
      "',": 295,
      "Ġre": 296,
      "tion": 297,
      "Ġp": 298,
      "Ġ\"": 299,
      "ce": 300,
      "ur": 301,
      "Ġn": 302,
      "ge": 303,
      "):": 304,
      "as": 305,
      "Ġt": 306,
      "--": 307,
      "Ġs": 308,
      "##": 309,
      "ue": 310,
      "mp": 311,
      "ame": 312,
      "Ġo": 313,
      "ing": 314,
      "Ġthe": 315,
      "Ġin": 316,
      "li": 317,
      "def": 318,
      "ct": 319,
      "lo": 320,
      "ate": 321,
      "ri": 322,
      "pe": 323,
      "un": 324,
      "Ġe": 325,
      "ĊĠĠĠĠĠĠĠĠĠĠĠĠĠĠĠĠ": 326,
      "Ġ#": 327,
      "di": 328,
      "co": 329,
      "fi": 330,
      "Ġb": 331,
      "ser": 332,
      "Ġ(": 333,
      "mo": 334,
      "ch": 335,
      "ut": 336,
      "Ġw": 337,
      "si": 338,
      "ĊĊĠĠĠ": 339,
      "Ġif": 340,
      "\"\"": 341,
      "()": 342,
      "nt": 343,
      "ra": 344,
      "id": 345,
      "ck": 346,
      "Ġdef": 347,
      "ul": 348,
      "urn": 349,
      "ad": 350,
      "ter": 351,
      "el": 352,
      "turn": 353,
      "ĊĠĠĠĠĠĠĠĠĠĠĠĠĠĠĠ": 354,
      "name": 355,
      "ma": 356,
      "ot": 357,
      "':": 358,
      "')": 359,
      "('": 360,
      "Ġ[": 361,
      "ort": 362,
      "get": 363,
      "__": 364,
      "Ġis": 365,
      "Ġd": 366,
      "Ġfor": 367,
      "one": 368,
      "ty": 369,
      "Ġto": 370,
      "ab": 371,
      "00": 372,
      "Ġreturn": 373,
      "is": 374,
      "Ġv": 375,
      "ĠT": 376,
      "Ġan": 377,
      "Ġ0": 378,
      "----": 379,
      "ed": 380,
      "####": 381,
      "il": 382,
      "up": 383,
      "et": 384,
      "ss": 385,
      "pa": 386,
      "con": 387,
      "==": 388,
      "it": 389,
      "),": 390,
      "qu": 391,
      "ol": 392,
      "Ġh": 393,
      "test": 394,
      "es": 395,
      "Ġu": 396,
      "xt": 397,
      "ĊĊĠĠĠĠĠĠĠ": 398,
      "\",": 399,
      "None": 400,
      "alue": 401,
      "Ġcon": 402,
      "Ġ1": 403,
      "Ġof": 404,
      "ass": 405,
      "Ġ\"\"\"": 406,
      "sert": 407,
      "Ġst": 408,
      "set": 409,
      "mport": 410,
      "op": 411,
      "ction": 412,
      "']": 413,
      "ke": 414,
      "la": 415,
      "rom": 416,
      "ata": 417,
      "ĠĠĠĠĠ": 418,
      "ver": 419,
      "ĊĊ": 420,
      "._": 421,
      "Ġm": 422,
      "du": 423,
      "ation": 424,
      "he": 425,
      "der": 426,
      "ult": 427,
      "cl": 428,
      "ĠS": 429,
      "rue": 430,
      "))": 431,
      "vi": 432,
      "ve": 433,
      "::": 434,
      "ment": 435,
      "Ġ+": 436,
      "ĠA": 437,
      "Ġand": 438,
      "sion": 439,
      "Ġnot": 440,
      "int": 441,
      "ile": 442,
      "ĠC": 443,
      "Ġ%": 444,
      "Ġ-": 445,
      "Ġex": 446,
      "ect": 447,
      "ror": 448,
      "ith": 449,
      "['": 450,
      "tr": 451,
      "all": 452,
      "eld": 453,
      "um": 454,
      "ub": 455,
      "ap": 456,
      "gs": 457,
      "am": 458,
      "and": 459,
      "bu": 460,
      "ĊĠĠĠĠĠĠĠĠĠĠĠĠĠĠĠĠĠĠĠĠĠĠĠĠ": 461,
      "Ġas": 462,
      "able": 463,
      "par": 464,
      "Ġco": 465,
      "Ġ{": 466,
      "lin": 467,
      "type": 468,
      "bj": 469,
      "],": 470,
      "to": 471,
      "ls": 472,
      "ĠI": 473,
      "res": 474,
      "age": 475,
      "ted": 476,
      "Ġmo": 477,
      "ex": 478,
      "dule": 479,
      "Ġde": 480,
      "(\"": 481,
      "ĠF": 482,
      "assert": 483,
      "ase": 484,
      "ent": 485,
      "Ġ_": 486,
      "Ġ2": 487,
      "Ġg": 488,
      "ĠL": 489,
      "ĠNone": 490,
      "Ġdi": 491,
      "ĊĠĠĠĠĠĠĠĠĠĠĠĠĠĠĠĠĠĠĠ": 492,
      "str": 493,
      "Ġimport": 494,
      "pro": 495,
      "ĊĠĠĠĠĠ": 496,
      "Re": 497,
      "ption": 498,
      "file": 499,
      "ta": 500,
      "end": 501,
      "from": 502,
      "text": 503,
      "key": 504,
      "Ġor": 505,
      "Ċĉ": 506,
      "Ġ==": 507,
      "ĠP": 508,
      "for": 509,
      "Ġbe": 510,
      "Ġtest": 511,
      "//": 512,
      "od": 513,
      "list": 514,
      "ype": 515,
      "ht": 516,
      "########": 517,
      "path": 518,
      "ode": 519,
      "add": 520,
      "Ġr": 521,
      "time": 522,
      "ho": 523,
      "put": 524,
      "Ġ:": 525,
      "ĊĠ": 526,
      "ig": 527,
      "us": 528,
      "Ġres": 529,
      "--------": 530,
      "per": 531,
      "ic": 532,
      "====": 533,
      "class": 534,
      "\")": 535,
      "alse": 536,
      "='": 537,
      "Ġname": 538,
      "ER": 539,
      "qual": 540,
      "pt": 541,
      "Er": 542,
      "fo": 543,
      "que": 544,
      "Ġwith": 545,
      "True": 546,
      "ew": 547,
      "Ġse": 548,
      "Ġ*": 549,
      "Error": 550,
      "out": 551,
      "bject": 552,
      "ance": 553,
      "len": 554,
      "sc": 555,
      "ield": 556,
      "ns": 557,
      "Ġpro": 558,
      "po": 559,
      "Ġlo": 560,
      "ci": 561,
      "ault": 562,
      "ack": 563,
      "ff": 564,
      "tem": 565,
      "Ġme": 566,
      "])": 567,
      "iz": 568,
      "our": 569,
      "IN": 570,
      "mat": 571,
      "module": 572,
      "ĠD": 573,
      "Ġfile": 574,
      "data": 575,
      "ise": 576,
      "mple": 577,
      "Ġvalue": 578,
      "\":": 579,
      "Ġma": 580,
      "Ġel": 581,
      "Ġpar": 582,
      "app": 583,
      "wor": 584,
      "ys": 585,
      "do": 586,
      "thod": 587,
      "value": 588,
      "Ġelse": 589,
      "mm": 590,
      "che": 591,
      "ĠO": 592,
      "ure": 593,
      "fig": 594,
      "est": 595,
      "ly": 596,
      "tri": 597,
      "Equal": 598,
      "code": 599,
      "args": 600,
      "date": 601,
      "Ġar": 602,
      "ĠG": 603,
      "ĠM": 604,
      "mb": 605,
      "line": 606,
      "lic": 607,
      "ĠĠĠĠĠĠĠĠĠĠĠĠĠĠĠĠ": 608,
      "In": 609,
      "stance": 610,
      "red": 611,
      "Ġy": 612,
      "ON": 613,
      "sh": 614,
      "no": 615,
      "dd": 616,
      "quest": 617,
      "ource": 618,
      "ang": 619,
      "ctor": 620,
      "reate": 621,
      "ange": 622,
      "\"\"\"": 623,
      "art": 624,
      "Ġstr": 625,
      "Ġun": 626,
      "01": 627,
      "AT": 628,
      "=\"": 629,
      "Ġthat": 630,
      "assertEqual": 631,
      "**": 632,
      "url": 633,
      "ist": 634,
      "mode": 635,
      "'),": 636,
      "param": 637,
      "ag": 638,
      "Ġ__": 639,
      "Ġl": 640,
      "val": 641,
      "ĊĠĠĠĠĠĠĠĠĠĠĠĠĠĠĠĠĠĠ": 642,
      "unction": 643,
      "Ġ3": 644,
      "fa": 645,
      "rent": 646,
      "ĠN": 647,
      "Ġon": 648,
      "IT": 649,
      "py": 650,
      "ES": 651,
      "unt": 652,
      "import": 653,
      "Ġ('": 654,
      "ĠW": 655,
      "pre": 656,
      "Ġthis": 657,
      "Ġen": 658,
      "ac": 659,
      "ĠE": 660,
      "ry": 661,
      "Ġit": 662,
      "Ġdo": 663,
      "Ġra": 664,
      "Ġget": 665,
      "Ġdata": 666,
      "Ġset": 667,
      "Ġx": 668,
      "cess": 669,
      "rint": 670,
      "Ġ<": 671,
      "bo": 672,
      "ild": 673,
      "low": 674,
      "tp": 675,
      "Ġns": 676,
      "sp": 677,
      "ader": 678,
      "roup": 679,
      "ense": 680,
      "Ġuse": 681,
      "ca": 682,
      "Ġ`": 683,
      "Ġch": 684,
      "AR": 685,
      "ne": 686,
      ").": 687,
      "Ġ>": 688,
      "pon": 689,
      "Ġfrom": 690,
      "field": 691,
      "atch": 692,
      "db": 693,
      "ĠĊĠĠĠĠĠĠĠĠĠĠĠĠĠĠĠĠĠĠ": 694,
      "ary": 695,
      "Ġpa": 696,
      "if": 697,
      "ĠB": 698,
      "dir": 699,
      "Ġassert": 700,
      "Ċĉĉ": 701,
      "EN": 702,
      "ms": 703,
      "error": 704,
      "ip": 705,
      "Con": 706,
      "Ġby": 707,
      "Ġwh": 708,
      "ator": 709,
      "'):": 710,
      "ssage": 711,
      "vice": 712,
      "ĠTrue": 713,
      "ĊĠĠĠĠĠĠĠĠĠĠĠĠĠĠĠĠĠĠĠĠĠĠĠ": 714,
      "32": 715,
      "ĠThe": 716,
      "ten": 717,
      "cept": 718,
      "..": 719,
      "pec": 720,
      "OR": 721,
      "port": 722,
      "10": 723,
      "__(": 724,
      "ir": 725,
      "ener": 726,
      "scri": 727,
      "12": 728,
      "Ġtype": 729,
      "Ġat": 730,
      "ther": 731,
      "ĠU": 732,
      "und": 733,
      "Ġout": 734,
      "ponse": 735,
      "jo": 736,
      "append": 737,
      "AL": 738,
      "read": 739,
      "dex": 740,
      "Ġal": 741,
      "bute": 742,
      "Ġraise": 743,
      "om": 744,
      "ress": 745,
      "os": 746,
      "wa": 747,
      "ok": 748,
      "Ġos": 749,
      "rite": 750,
      "ĠĠĠĠĠĠ": 751,
      "################": 752,
      "late": 753,
      "method": 754,
      "user": 755,
      "ĠFalse": 756,
      "ml": 757,
      "Ġresult": 758,
      "ument": 759,
      "col": 760,
      "uth": 761,
      "========": 762,
      "pp": 763,
      "ET": 764,
      "lib": 765,
      "vent": 766,
      "tent": 767,
      "Ġ@": 768,
      "Test": 769,
      "ari": 770,
      "Ġ{'": 771,
      "tic": 772,
      "ings": 773,
      "Ġ)": 774,
      "ded": 775,
      "([": 776,
      "ds": 777,
      "work": 778,
      "Ġlist": 779,
      "fe": 780,
      "Ġwe": 781,
      "tribute": 782,
      "64": 783,
      "ill": 784,
      "min": 785,
      "qui": 786,
      "Ġso": 787,
      "heck": 788,
      "Ġfunction": 789,
      "Ġ}": 790,
      "False": 791,
      "object": 792,
      "ray": 793,
      "Ġare": 794,
      "ans": 795,
      "ĠRe": 796,
      "log": 797,
      "Field": 798,
      "ize": 799,
      "icense": 800,
      "Ġ4": 801,
      "Type": 802,
      "Ġver": 803,
      "----------------": 804,
      "wn": 805,
      "info": 806,
      "Ġkey": 807,
      "ave": 808,
      "Ġcls": 809,
      "ces": 810,
      "ze": 811,
      "ĠR": 812,
      "lay": 813,
      "ou": 814,
      "dict": 815,
      "stri": 816,
      "ber": 817,
      "ception": 818,
      "net": 819,
      "ask": 820,
      "ĊĊĠ": 821,
      "temp": 822,
      "Ġlen": 823,
      "init": 824,
      "ĠV": 825,
      "Ġk": 826,
      "Ġ['": 827,
      "ec": 828,
      "Ġmode": 829,
      "25": 830,
      "ust": 831,
      "ler": 832,
      "ree": 833,
      "ST": 834,
      "ren": 835,
      "instance": 836,
      "ext": 837,
      "Ġcl": 838,
      "ph": 839,
      "lock": 840,
      "():": 841,
      "son": 842,
      "ind": 843,
      "jang": 844,
      "Ġ+=": 845,
      "ger": 846,
      "ĠLicense": 847,
      "Ġdefault": 848,
      "jango": 849,
      "ft": 850,
      "count": 851,
      "ble": 852,
      "tions": 853,
      "arget": 854,
      "99": 855,
      "De": 856,
      "lif": 857,
      "Ġmodule": 858,
      "uld": 859,
      "ant": 860,
      ".__": 861,
      "cal": 862,
      "comp": 863,
      "11": 864,
      "Ġtry": 865,
      "mmand": 866,
      "lient": 867,
      "Ġprint": 868,
      "tive": 869,
      "Ġro": 870,
      "ĠH": 871,
      "den": 872,
      "ample": 873,
      "update": 874,
      "AN": 875,
      "ĊĠĠĠĠĠĠĠĠĠ": 876,
      "his": 877,
      "ses": 878,
      "Ġexcept": 879,
      "string": 880,
      "Ġno": 881,
      "Ġpre": 882,
      "ute": 883,
      "ters": 884,
      "Co": 885,
      "tain": 886,
      "''": 887,
      "umber": 888,
      "config": 889,
      "Ġ##": 890,
      "abel": 891,
      "Ġcan": 892,
      "LE": 893,
      "SE": 894,
      "RE": 895,
      "default": 896,
      "0000": 897,
      "Ġtime": 898,
      "atus": 899,
      "Ġnew": 900,
      "back": 901,
      "thon": 902,
      "size": 903,
      "Ġlog": 904,
      "cur": 905,
      "://": 906,
      "state": 907,
      "try": 908,
      "Ġfield": 909,
      "ken": 910,
      "format": 911,
      "pen": 912,
      "join": 913,
      "gn": 914,
      "////": 915,
      "ll": 916,
      "Ġobject": 917,
      "ght": 918,
      "ĊĠĠĠĠĠĠĠĠĠĠĠĠĠĠĠĠĠĠĠĠĠĠĠĠĠĠĠĠĠĠĠĠ": 919,
      "Pro": 920,
      "Ġelif": 921,
      "load": 922,
      "og": 923,
      "ding": 924,
      "group": 925,
      "UT": 926,
      "Ġconst": 927,
      "peci": 928,
      "Ġwill": 929,
      "St": 930,
      "[\"": 931,
      "ape": 932,
      "Ex": 933,
      "opy": 934,
      "Ġuser": 935,
      "Ġ5": 936,
      "com": 937,
      "start": 938,
      "uti": 939,
      "Ġsho": 940,
      "Ġpath": 941,
      "node": 942,
      "stru": 943,
      "Ġpo": 944,
      "fields": 945,
      "mage": 946,
      "sed": 947,
      "da": 948,
      "Ġ[]": 949,
      "IC": 950,
      "ĊĊĠĠĠĠĠĠĠĠĠĠĠ": 951,
      "\"]": 952,
      "ug": 953,
      "ume": 954,
      "lement": 955,
      "so": 956,
      "sub": 957,
      "mber": 958,
      "ject": 959,
      "form": 960,
      "Ġoption": 961,
      "Ġhe": 962,
      "attr": 963,
      "max": 964,
      "Ġhas": 965,
      "ĠThis": 966,
      "fix": 967,
      "Ġ[],": 968,
      "write": 969,
      "scription": 970,
      "wargs": 971,
      "'}": 972,
      "main": 973,
      "Ġnp": 974,
      "arg": 975,
      "create": 976,
      "16": 977,
      "Ġsys": 978,
      "gra": 979,
      "ated": 980,
      "server": 981,
      "http": 982,
      "'],": 983,
      "tes": 984,
      "models": 985,
      "ine": 986,
      "Name": 987,
      "Ġpass": 988,
      "Get": 989,
      "ID": 990,
      "20": 991,
      "cor": 992,
      "ull": 993,
      "core": 994,
      "ĠIf": 995,
      "tial": 996,
      "gth": 997,
      "cation": 998,
      "Ġ\\": 999,
      "iv": 1000,
      "Ġline": 1001,
      "by": 1002,
      "ong": 1003,
      "ww": 1004,
      "json": 1005,
      "ts": 1006,
      "ery": 1007,
      "Ġsub": 1008,
      "ĠIn": 1009,
      "Ġcomp": 1010,
      "Ġnode": 1011,
      "nd": 1012,
      "Ġversion": 1013,
      "Ġall": 1014,
      "ee": 1015,
      "version": 1016,
      "clu": 1017,
      "13": 1018,
      "())": 1019,
      "Ġarg": 1020,
      "right": 1021,
      "ariable": 1022,
      "Ġ->": 1023,
      "vir": 1024,
      "orm": 1025,
      "link": 1026,
      "pected": 1027,
      "im": 1028,
      "ime": 1029,
      "Ġsup": 1030,
      "uc": 1031,
      "word": 1032,
      "Ġle": 1033,
      "pi": 1034,
      "arch": 1035,
      "Ġsh": 1036,
      "Ġ**": 1037,
      "Ġclass": 1038,
      "ĊĠĠĠĠĠĠĠĠĠĠĠĠĠĠĠĠĠĠĠĠĠĠĠĠĠĠĠĠĠĠĠĠĠĠĠĠĠĠĠĠ": 1039,
      "čĊĠĠĠĠĠĠĠ": 1040,
      "Ġ{}": 1041,
      "Ch": 1042,
      "ard": 1043,
      "with": 1044,
      "inter": 1045,
      ".\"\"\"": 1046,
      "sing": 1047,
      "Ġadd": 1048,
      "ION": 1049,
      "arn": 1050,
      "item": 1051,
      "ound": 1052,
      "Ġcol": 1053,
      "ail": 1054,
      "].": 1055,
      "(),": 1056,
      "check": 1057,
      "ual": 1058,
      "ware": 1059,
      "Ġcontext": 1060,
      "Ġstring": 1061,
      "Ġrequest": 1062,
      "unc": 1063,
      "ore": 1064,
      "md": 1065,
      "DE": 1066,
      "ctory": 1067,
      "Ġoutput": 1068,
      "Ġbu": 1069,
      "sign": 1070,
      "lit": 1071,
      "ight": 1072,
      "request": 1073,
      "valid": 1074,
      "Set": 1075,
      "Ġshould": 1076,
      "ream": 1077,
      "Ġac": 1078,
      "lace": 1079,
      "RO": 1080,
      "index": 1081,
      "ory": 1082,
      "15": 1083,
      "member": 1084,
      "context": 1085,
      "04": 1086,
      "led": 1087,
      "22": 1088,
      "Ġcheck": 1089,
      "run": 1090,
      "'])": 1091,
      "Ġcur": 1092,
      "result": 1093,
      "CT": 1094,
      "Ġho": 1095,
      "čĊĠĠĠ": 1096,
      "cket": 1097,
      "ign": 1098,
      "base": 1099,
      "Value": 1100,
      "quired": 1101,
      "Ġconfig": 1102,
      "host": 1103,
      "Ġmethod": 1104,
      "vel": 1105,
      "loat": 1106,
      "18": 1107,
      "Ġ!": 1108,
      "Ġint": 1109,
      "Add": 1110,
      "ref": 1111,
      "we": 1112,
      "cs": 1113,
      "return": 1114,
      "tle": 1115,
      "nection": 1116,
      "33": 1117,
      "14": 1118,
      "Ġspeci": 1119,
      "Ġerror": 1120,
      "mit": 1121,
      "ark": 1122,
      "``": 1123,
      "ash": 1124,
      "parse": 1125,
      "Ġper": 1126,
      "ĉĉ": 1127,
      "'t": 1128,
      "TER": 1129,
      "array": 1130,
      "ps": 1131,
      "</": 1132,
      "Ġla": 1133,
      "Ġ!=": 1134,
      "Ġpy": 1135,
      "\\\\": 1136,
      "obj": 1137,
      "ulti": 1138,
      "24": 1139,
      "ix": 1140,
      "reg": 1141,
      ">>": 1142,
      "sent": 1143,
      "query": 1144,
      "pace": 1145,
      "****": 1146,
      "ak": 1147,
      "ED": 1148,
      "'s": 1149,
      "vo": 1150,
      "Ġval": 1151,
      "Ke": 1152,
      "tings": 1153,
      "pl": 1154,
      "AM": 1155,
      "Ġapp": 1156,
      "django": 1157,
      "34": 1158,
      "ĊĠĠĠĠĠĠĠĠĠĠĠĠĠĠĠĠĠĠĠĠĠĠĠĠĠĠĠ": 1159,
      "AS": 1160,
      "row": 1161,
      "network": 1162,
      "ule": 1163,
      "mpty": 1164,
      "use": 1165,
      "Ġ/": 1166,
      "sible": 1167,
      "template": 1168,
      "ann": 1169,
      "Ġstate": 1170,
      "Ġurl": 1171,
      "19": 1172,
      "66": 1173,
      "ich": 1174,
      "auth": 1175,
      "move": 1176,
      "Ġhave": 1177,
      "IL": 1178,
      "rep": 1179,
      "Ġother": 1180,
      "ING": 1181,
      "message": 1182,
      "17": 1183,
      "map": 1184,
      "Ġresponse": 1185,
      "ite": 1186,
      "30": 1187,
      "rame": 1188,
      "ally": 1189,
      "Ġparam": 1190,
      "mail": 1191,
      "File": 1192,
      "params": 1193,
      "title": 1194,
      "kwargs": 1195,
      "root": 1196,
      "output": 1197,
      "input": 1198,
      "utils": 1199,
      "Ġ&": 1200,
      "ud": 1201,
      "rect": 1202,
      "lob": 1203,
      "av": 1204,
      "AB": 1205,
      "tern": 1206,
      "status": 1207,
      "Ġ``": 1208,
      "sta": 1209,
      "CH": 1210,
      "80": 1211,
      "Ġli": 1212,
      "Key": 1213,
      "rc": 1214,
      "new": 1215,
      "UR": 1216,
      "ax": 1217,
      "Ġbo": 1218,
      "Ġused": 1219,
      "ers": 1220,
      "andler": 1221,
      "ity": 1222,
      "yn": 1223,
      "Ġ|": 1224,
      "Ġcode": 1225,
      "Ġ6": 1226,
      "be": 1227,
      "tra": 1228,
      "tring": 1229,
      "sg": 1230,
      "names": 1231,
      "Ġcreate": 1232,
      "clo": 1233,
      "Ġisinstance": 1234,
      "andom": 1235,
      "uf": 1236,
      "ublic": 1237,
      "Ġmessage": 1238,
      "Ġdict": 1239,
      "Ġht": 1240,
      "model": 1241,
      "man": 1242,
      "action": 1243,
      "Ġinstance": 1244,
      "Ġargs": 1245,
      "().": 1246,
      "ach": 1247,
      "55": 1248,
      "call": 1249,
      "Ġcall": 1250,
      "table": 1251,
      "Ġitem": 1252,
      "AP": 1253,
      "const": 1254,
      "client": 1255,
      "ĠAN": 1256,
      "čĊ": 1257,
      "Par": 1258,
      "IG": 1259,
      "At": 1260,
      "api": 1261,
      "ffer": 1262,
      "Ġrun": 1263,
      "length": 1264,
      "Ġreg": 1265,
      "lean": 1266,
      "lines": 1267,
      "sys": 1268,
      "ay": 1269,
      "88": 1270,
      "lect": 1271,
      "Ġany": 1272,
      "bug": 1273,
      "Ġyou": 1274,
      "uto": 1275,
      "lete": 1276,
      "UL": 1277,
      "perty": 1278,
      "clude": 1279,
      "77": 1280,
      "\"),": 1281,
      "IS": 1282,
      "stribu": 1283,
      "fil": 1284,
      "label": 1285,
      "================": 1286,
      "Ġne": 1287,
      "Id": 1288,
      "Ġend": 1289,
      "ĠEx": 1290,
      "ENT": 1291,
      "mis": 1292,
      "header": 1293,
      "ations": 1294,
      "split": 1295,
      "ran": 1296,
      "Ġbase": 1297,
      "types": 1298,
      "pv": 1299,
      "02": 1300,
      "rap": 1301,
      "org": 1302,
      "'))": 1303,
      "content": 1304,
      "fied": 1305,
      "En": 1306,
      "Ġid": 1307,
      "sk": 1308,
      "List": 1309,
      "Ġtext": 1310,
      "Ġz": 1311,
      "Ġ>>>": 1312,
      "Res": 1313,
      "ting": 1314,
      "Ġmatch": 1315,
      "response": 1316,
      "Ġ.": 1317,
      "Ġwor": 1318,
      "((": 1319,
      "Un": 1320,
      "service": 1321,
      "Ġnumber": 1322,
      "ĠX": 1323,
      "Ġvi": 1324,
      "Ġbut": 1325,
      "view": 1326,
      "Ġwhich": 1327,
      "ftware": 1328,
      "rans": 1329,
      "Ġunder": 1330,
      "'\\": 1331,
      "Ġstart": 1332,
      "Ġcopy": 1333,
      "msg": 1334,
      "03": 1335,
      "Ġinput": 1336,
      "ody": 1337,
      "Ġvalues": 1338,
      "Me": 1339,
      "Ġj": 1340,
      "print": 1341,
      "cre": 1342,
      "umn": 1343,
      "sions": 1344,
      "Ġsource": 1345,
      "tin": 1346,
      "ĊĠĠĠĠ": 1347,
      "Time": 1348,
      "86": 1349,
      "ved": 1350,
      "AG": 1351,
      "dent": 1352,
      "pri": 1353,
      "Di": 1354,
      "html": 1355,
      "uple": 1356,
      "face": 1357,
      "elp": 1358,
      "source": 1359,
      "','": 1360,
      "Ġdescription": 1361,
      "50": 1362,
      "OT": 1363,
      "################################": 1364,
      "Ġtarget": 1365,
      "56": 1366,
      "Mode": 1367,
      "Ġone": 1368,
      "ĠTest": 1369,
      "structor": 1370,
      "To": 1371,
      "doc": 1372,
      "'.": 1373,
      "fy": 1374,
      "orted": 1375,
      "rial": 1376,
      "ister": 1377,
      "target": 1378,
      "74": 1379,
      "its": 1380,
      "tro": 1381,
      "shape": 1382,
      "not": 1383,
      "ors": 1384,
      "84": 1385,
      "Po": 1386,
      "comm": 1387,
      "var": 1388,
      "CO": 1389,
      "Ġwhen": 1390,
      "ĠQ": 1391,
      "men": 1392,
      "ises": 1393,
      "US": 1394,
      "bin": 1395,
      "event": 1396,
      "point": 1397,
      "Ġexpected": 1398,
      "59": 1399,
      "process": 1400,
      "ties": 1401,
      "Ġdoc": 1402,
      "Ġ'''": 1403,
      "Ġcontain": 1404,
      "cri": 1405,
      "Ġmax": 1406,
      "Lo": 1407,
      "Mo": 1408,
      "29": 1409,
      "itial": 1410,
      "36": 1411,
      "...": 1412,
      "token": 1413,
      "NU": 1414,
      "Ġdate": 1415,
      "Ġmodel": 1416,
      "match": 1417,
      "options": 1418,
      "cate": 1419,
      "Ġfa": 1420,
      "inal": 1421,
      "Ġheader": 1422,
      "Ġcommand": 1423,
      "39": 1424,
      "////////": 1425,
      "tag": 1426,
      "ameters": 1427,
      "urse": 1428,
      "foo": 1429,
      "Address": 1430,
      "Ġrequired": 1431,
      "ĠReturn": 1432,
      "equal": 1433,
      "EX": 1434,
      "tifi": 1435,
      "Ġargument": 1436,
      "change": 1437,
      "oo": 1438,
      "Ġrange": 1439,
      "ols": 1440,
      "ature": 1441,
      "ĊĠĠĠĠĠĠĠĠĠĠĠĠ": 1442,
      "ANT": 1443,
      "ld": 1444,
      "AC": 1445,
      "andle": 1446,
      "pr": 1447,
      "ager": 1448,
      "ĠCon": 1449,
      "Ġcurrent": 1450,
      "54": 1451,
      "pack": 1452,
      "ĠDe": 1453,
      "Ġhttp": 1454,
      "Ġformat": 1455,
      "aa": 1456,
      "Ġ7": 1457,
      "Ġmay": 1458,
      "idth": 1459,
      "Ġtra": 1460,
      "err": 1461,
      "Ġonly": 1462,
      "Attribute": 1463,
      "Data": 1464,
      "option": 1465,
      "89": 1466,
      "open": 1467,
      "ĠGener": 1468,
      "block": 1469,
      "LO": 1470,
      "teger": 1471,
      "Ġmust": 1472,
      "Ġtoken": 1473,
      "irst": 1474,
      "ments": 1475,
      "std": 1476,
      "values": 1477,
      "IM": 1478,
      "adata": 1479,
      "37": 1480,
      "000": 1481,
      "objects": 1482,
      "][": 1483,
      "},": 1484,
      "--------------------------------": 1485,
      "coding": 1486,
      "ures": 1487,
      "ĠY": 1488,
      "ids": 1489,
      "PE": 1490,
      "cted": 1491,
      "buf": 1492,
      "27": 1493,
      "cy": 1494,
      "trans": 1495,
      "Ser": 1496,
      "trol": 1497,
      "viron": 1498,
      "filename": 1499,
      "Ġmsg": 1500,
      "Ġad": 1501,
      "num": 1502,
      "are": 1503,
      "ies": 1504,
      "PO": 1505,
      "feren": 1506,
      "rectory": 1507,
      "lan": 1508,
      "ner": 1509,
      "ump": 1510,
      "Ġindex": 1511,
      "lection": 1512,
      "iven": 1513,
      "Se": 1514,
      "build": 1515,
      "Ġ10": 1516,
      "quen": 1517,
      "Ġdistribu": 1518,
      "Do": 1519,
      "26": 1520,
      "lobal": 1521,
      "HT": 1522,
      "func": 1523,
      "tail": 1524,
      "Ġchar": 1525,
      "[:": 1526,
      "mod": 1527,
      "AD": 1528,
      "address": 1529,
      "ETTER": 1530,
      "Ra": 1531,
      "Ġfields": 1532,
      "ep": 1533,
      "filter": 1534,
      "command": 1535,
      "(_": 1536,
      "dow": 1537,
      "Ġgener": 1538,
      "ĠLETTER": 1539,
      "Ġoptions": 1540,
      "Ġ'\\": 1541,
      "ua": 1542,
      "Ġup": 1543,
      "icode": 1544,
      "char": 1545,
      "Base": 1546,
      "ging": 1547,
      "Case": 1548,
      "pass": 1549,
      "String": 1550,
      "ĠOR": 1551,
      "lags": 1552,
      "indow": 1553,
      "bs": 1554,
      "Ġevent": 1555,
      "image": 1556,
      "Ġopen": 1557,
      "www": 1558,
      "uration": 1559,
      "Ġgroup": 1560,
      "Ġobj": 1561,
      "ome": 1562,
      "Ġ'%": 1563,
      "cr": 1564,
      "ops": 1565,
      "uid": 1566,
      "ITH": 1567,
      "Ġnames": 1568,
      "python": 1569,
      "nsor": 1570,
      "uint": 1571,
      "Ġ--": 1572,
      "sor": 1573,
      "})": 1574,
      "=[": 1575,
      "Ġcontent": 1576,
      "page": 1577,
      "Ġchange": 1578,
      "sition": 1579,
      "df": 1580,
      "copy": 1581,
      "ĊĠĠĠĠĠĠĠĠĠĠĠĠĠ": 1582,
      "Ġhost": 1583,
      "Ġdb": 1584,
      "cord": 1585,
      "close": 1586,
      "Ġte": 1587,
      "ric": 1588,
      "tual": 1589,
      "Ġ]": 1590,
      "ain": 1591,
      "duct": 1592,
      "the": 1593,
      "script": 1594,
      "Ġsize": 1595,
      "87": 1596,
      "'}),": 1597,
      "Ġattribute": 1598,
      "ĠValue": 1599,
      "Ġext": 1600,
      "cache": 1601,
      "ESS": 1602,
      "ste": 1603,
      "np": 1604,
      "Ġfiles": 1605,
      "Ġaction": 1606,
      "ĠIN": 1607,
      "57": 1608,
      "of": 1609,
      "Ġarray": 1610,
      "function": 1611,
      "Char": 1612,
      "Ġexp": 1613,
      "mbda": 1614,
      "Ġread": 1615,
      "ili": 1616,
      "exten": 1617,
      "Ġ',": 1618,
      "Ġsuper": 1619,
      "Ġmock": 1620,
      "fail": 1621,
      "Ċĉĉĉ": 1622,
      "utf": 1623,
      "Ar": 1624,
      "keys": 1625,
      "exec": 1626,
      "09": 1627,
      "TP": 1628,
      "olume": 1629,
      "find": 1630,
      "float": 1631,
      "23": 1632,
      "xml": 1633,
      "Ġinter": 1634,
      "conn": 1635,
      "void": 1636,
      "DO": 1637,
      "Ġpl": 1638,
      "Ġdjango": 1639,
      "Ġdoes": 1640,
      "Model": 1641,
      "Object": 1642,
      "MP": 1643,
      "any": 1644,
      "Ġserver": 1645,
      "ĠOF": 1646,
      "spec": 1647,
      "ĠWITH": 1648,
      "HE": 1649,
      "ĠPy": 1650,
      "ion": 1651,
      "ath": 1652,
      "Ġgiven": 1653,
      "Ġfirst": 1654,
      "ĠAn": 1655,
      "empty": 1656,
      "Ipv": 1657,
      "44": 1658,
      "annel": 1659,
      "FF": 1660,
      "stream": 1661,
      "Ġpack": 1662,
      "Ġupdate": 1663,
      "ĠGNU": 1664,
      "Ġca": 1665,
      "mation": 1666,
      "ĠSee": 1667,
      "ML": 1668,
      "Ġ},": 1669,
      "TR": 1670,
      "\".": 1671,
      "cript": 1672,
      "idget": 1673,
      "Ġroot": 1674,
      "here": 1675,
      "Ġvalid": 1676,
      "Node": 1677,
      "ists": 1678,
      "iled": 1679,
      "license": 1680,
      "Ġmore": 1681,
      "order": 1682,
      "lot": 1683,
      "flow": 1684,
      "store": 1685,
      "28": 1686,
      "mary": 1687,
      "čĊĠĠĠĠĠĠĠĠĠĠĠ": 1688,
      "fore": 1689,
      "ĠPublic": 1690,
      "imple": 1691,
      "dition": 1692,
      "tity": 1693,
      "ĠJ": 1694,
      "tadata": 1695,
      "ugin": 1696,
      "~~": 1697,
      "Ġ8": 1698,
      "Ġparent": 1699,
      "Bu": 1700,
      "rid": 1701,
      "ake": 1702,
      "xy": 1703,
      "Ġfol": 1704,
      "ĠGeneral": 1705,
      "iter": 1706,
      "Ġ(\"": 1707,
      "Up": 1708,
      "bar": 1709,
      "pos": 1710,
      "ell": 1711,
      "project": 1712,
      "reak": 1713,
      "uage": 1714,
      "mark": 1715,
      "search": 1716,
      "ĠValueError": 1717,
      "06": 1718,
      "Ġmodels": 1719,
      "ither": 1720,
      "anguage": 1721,
      "ALL": 1722,
      "Ġimp": 1723,
      "ĊĠĠĠĠĠĠĠĠĠĠ": 1724,
      "Ġprovi": 1725,
      "session": 1726,
      "ql": 1727,
      ")))": 1728,
      "05": 1729,
      "Ġhelp": 1730,
      "ote": 1731,
      "otal": 1732,
      "parent": 1733,
      "EST": 1734,
      "files": 1735,
      "ration": 1736,
      "UN": 1737,
      "IP": 1738,
      "ĠCo": 1739,
      "Ġ9": 1740,
      "ized": 1741,
      "mock": 1742,
      "Ġlabel": 1743,
      "Ġwork": 1744,
      "TestCase": 1745,
      "wer": 1746,
      "items": 1747,
      ":`": 1748,
      "Ġop": 1749,
      "dit": 1750,
      "lease": 1751,
      "sy": 1752,
      "settings": 1753,
      "debug": 1754,
      "child": 1755,
      "{'": 1756,
      "opyright": 1757,
      "Check": 1758,
      "Exception": 1759,
      "fter": 1760,
      "cmd": 1761,
      "tocol": 1762,
      "Ġfil": 1763,
      "old": 1764,
      "yle": 1765,
      "gram": 1766,
      "Ġmin": 1767,
      "\">": 1768,
      "constructor": 1769,
      "fir": 1770,
      "raw": 1771,
      "unk": 1772,
      "Ġ\"\\": 1773,
      "device": 1774,
      "pect": 1775,
      "Return": 1776,
      "Ġtrans": 1777,
      "ittest": 1778,
      "ched": 1779,
      "Not": 1780,
      "ĠK": 1781,
      "Ġparser": 1782,
      "lated": 1783,
      "fic": 1784,
      "Ġuid": 1785,
      "ast": 1786,
      "Ġelement": 1787,
      "exp": 1788,
      "cp": 1789,
      "arning": 1790,
      "ormal": 1791,
      "queue": 1792,
      "ĊĠĠĠĠĠĠĠĠĠĠĠĠĠĠĠĠĠĠĠĠĠĠĠĠĠĠĠĠĠĠĠ": 1793,
      "tinue": 1794,
      "Ġback": 1795,
      "ĠReturns": 1796,
      "Ġ201": 1797,
      "Is": 1798,
      "Ġvariable": 1799,
      "Ġq": 1800,
      "Ġimage": 1801,
      "35": 1802,
      "ference": 1803,
      "201": 1804,
      "Ġover": 1805,
      "Ġoper": 1806,
      "Ġsy": 1807,
      "eta": 1808,
      "delete": 1809,
      "ous": 1810,
      "current": 1811,
      "Ġfilename": 1812,
      "Ġport": 1813,
      "task": 1814,
      ")),": 1815,
      "Raises": 1816,
      "ĊĠĠ": 1817,
      "Ġauth": 1818,
      "ync": 1819,
      ")]": 1820,
      "Ġusing": 1821,
      "Ġform": 1822,
      "property": 1823,
      "env": 1824,
      "local": 1825,
      "ĠANY": 1826,
      "*-": 1827,
      "replace": 1828,
      "ameter": 1829,
      "ĠCON": 1830,
      "07": 1831,
      "alled": 1832,
      "prefix": 1833,
      "ont": 1834,
      "ie": 1835,
      "Ġwhile": 1836,
      "rate": 1837,
      "sum": 1838,
      "Ġtable": 1839,
      "For": 1840,
      "description": 1841,
      "splay": 1842,
      "CON": 1843,
      "xa": 1844,
      "ton": 1845,
      "fault": 1846,
      "struct": 1847,
      "OUT": 1848,
      "Ġnet": 1849,
      "izer": 1850,
      "assertTrue": 1851,
      "Ġag": 1852,
      "Ġquery": 1853,
      "range": 1854,
      "ib": 1855,
      "make": 1856,
      "lication": 1857,
      "my": 1858,
      "Ġdistributed": 1859,
      "lag": 1860,
      "assertRaises": 1861,
      "200": 1862,
      "Ġmake": 1863,
      "ning": 1864,
      "xe": 1865,
      "present": 1866,
      "other": 1867,
      "ven": 1868,
      "********": 1869,
      "cope": 1870,
      "DI": 1871,
      "vert": 1872,
      "Ġparams": 1873,
      "Ġ-*-": 1874,
      "level": 1875,
      "abled": 1876,
      "ful": 1877,
      "Ġattr": 1878,
      "onent": 1879,
      "Ġtag": 1880,
      "lied": 1881,
      "ui": 1882,
      "Tag": 1883,
      "cc": 1884,
      "Ġorder": 1885,
      "Text": 1886,
      "Ġlink": 1887,
      "38": 1888,
      "ATIN": 1889,
      "go": 1890,
      "xb": 1891,
      "Fa": 1892,
      "Ġblock": 1893,
      "ĠCopyright": 1894,
      "ĠLATIN": 1895,
      "signed": 1896,
      "67": 1897,
      "swith": 1898,
      "ATE": 1899,
      "Ġcomm": 1900,
      "over": 1901,
      "Ġeither": 1902,
      "No": 1903,
      "lish": 1904,
      "amples": 1905,
      "ITY": 1906,
      "ĠUn": 1907,
      "formation": 1908,
      "resource": 1909,
      "Ġfound": 1910,
      "ARR": 1911,
      "Cl": 1912,
      "trib": 1913,
      "post": 1914,
      "ale": 1915,
      "ice": 1916,
      "ped": 1917,
      "strip": 1918,
      "cls": 1919,
      "Ġinto": 1920,
      "Ġexception": 1921,
      "')])": 1922,
      "pop": 1923,
      "Ġbuild": 1924,
      "Ġneed": 1925,
      "Ġ'/": 1926,
      "layer": 1927,
      "ats": 1928,
      "ive": 1929,
      "atab": 1930,
      "frame": 1931,
      "Ġlib": 1932,
      "licy": 1933,
      "asses": 1934,
      "river": 1935,
      "69": 1936,
      "Ġwithout": 1937,
      "100": 1938,
      "FI": 1939,
      "Ġfe": 1940,
      "ĠAr": 1941,
      "Ġeach": 1942,
      "exception": 1943,
      "rix": 1944,
      "ĠSt": 1945,
      "OP": 1946,
      "User": 1947,
      "Ġ200": 1948,
      "Ġsee": 1949,
      "Ġclient": 1950,
      "place": 1951,
      "attribute": 1952,
      "virtual": 1953,
      "Ġcase": 1954,
      "Ġconnection": 1955,
      "ĠSo": 1956,
      "The": 1957,
      "ression": 1958,
      "atabase": 1959,
      "raph": 1960,
      "number": 1961,
      "ative": 1962,
      "down": 1963,
      "21": 1964,
      "Ġrow": 1965,
      "how": 1966,
      "sup": 1967,
      "quence": 1968,
      "location": 1969,
      "ract": 1970,
      "ĊĠĠĠĠĠĠĠĠĠĠĠĠĠĠ": 1971,
      "Col": 1972,
      "[-": 1973,
      "ogle": 1974,
      "Ġnum": 1975,
      "variable": 1976,
      "has": 1977,
      "MA": 1978,
      "uble": 1979,
      "ĊĠĠĠĠĠĠĠĠĠĠĠĠĠĠĠĠĠĠĠĠĠ": 1980,
      "Ġcor": 1981,
      "ries": 1982,
      "Ġyield": 1983,
      "box": 1984,
      "ating": 1985,
      "CL": 1986,
      "stall": 1987,
      "Ġtemplate": 1988,
      "AME": 1989,
      "static": 1990,
      "Ġcontinue": 1991,
      "ility": 1992,
      "ined": 1993,
      "Ac": 1994,
      "Ġpri": 1995,
      "xc": 1996,
      "Ġchild": 1997,
      "Ċĉĉĉĉ": 1998,
      ".,": 1999,
      "lank": 2000,
      "Ġ'.": 2001,
      "compile": 2002,
      "Ġwas": 2003,
      "oid": 2004,
      "umpy": 2005,
      "elper": 2006,
      "ifi": 2007,
      "49": 2008,
      "last": 2009,
      "79": 2010,
      "').": 2011,
      "rary": 2012,
      "uccess": 2013,
      "mote": 2014,
      "Ġtuple": 2015,
      "Ġmodi": 2016,
      "wo": 2017,
      "util": 2018,
      "48": 2019,
      "ARRANT": 2020,
      "He": 2021,
      "IO": 2022,
      "Ġsome": 2023,
      "less": 2024,
      "ĠWARRANT": 2025,
      "tails": 2026,
      "mt": 2027,
      "Request": 2028,
      "Ġter": 2029,
      "mon": 2030,
      "meta": 2031,
      "Ġstatus": 2032,
      "expected": 2033,
      "Config": 2034,
      "pk": 2035,
      "datetime": 2036,
      "admin": 2037,
      "mal": 2038,
      "FA": 2039,
      "ustom": 2040,
      "gener": 2041,
      "Ġsoftware": 2042,
      "Ptr": 2043,
      "Ġpage": 2044,
      "Ġfollow": 2045,
      "body": 2046,
      "Ġjson": 2047,
      "ĠPython": 2048,
      "ĊĠĠĠĠĠĠĠĠĠĠĠĠĠĠĠĠĠĠĠĠĠĠĠĠĠ": 2049,
      "Ġkwargs": 2050,
      "igh": 2051,
      "uture": 2052,
      "Ġsame": 2053,
      "course": 2054,
      "ify": 2055,
      "Ġallow": 2056,
      "ique": 2057,
      "ick": 2058,
      "off": 2059,
      "Ġlong": 2060,
      "cer": 2061,
      "ĠYou": 2062,
      "ĊĠĠĠĠĠĠĠĠĠĠĠĠĠĠĠĠĠ": 2063,
      "Ġlogging": 2064,
      "verse": 2065,
      "width": 2066,
      "orage": 2067,
      "58": 2068,
      "TY": 2069,
      "Ġ\"%": 2070,
      "Ġresults": 2071,
      "Ġfloat": 2072,
      "Path": 2073,
      "Ġresource": 2074,
      "Ġlast": 2075,
      "Item": 2076,
      "TH": 2077,
      "uct": 2078,
      "ization": 2079,
      "emp": 2080,
      "ailable": 2081,
      "Ġcmd": 2082,
      "Ġspecified": 2083,
      "Ġsign": 2084,
      "Ġ''": 2085,
      "password": 2086,
      "resh": 2087,
      "element": 2088,
      "cond": 2089,
      "Ġbreak": 2090,
      "Ġprocess": 2091,
      "xf": 2092,
      "08": 2093,
      "Ġthen": 2094,
      "abs": 2095,
      "patch": 2096,
      "argument": 2097,
      "IB": 2098,
      "save": 2099,
      "ffe": 2100,
      "part": 2101,
      "Ġdirectory": 2102,
      "email": 2103,
      "thing": 2104,
      "VER": 2105,
      "nown": 2106,
      "ublish": 2107,
      "Ġpos": 2108,
      "ĊĠĠĠĠĠĠĠĠĠĠĠĠĠĠĠĠĠĠĠĠ": 2109,
      "ultip": 2110,
      "req": 2111,
      "perties": 2112,
      "parser": 2113,
      "atures": 2114,
      "CE": 2115,
      "ush": 2116,
      "connection": 2117,
      "true": 2118,
      "sen": 2119,
      "\"))": 2120,
      "ĠFor": 2121,
      "ĊĠĠĠĠĠĠ": 2122,
      "chema": 2123,
      "atform": 2124,
      "Ġ[\"": 2125,
      "only": 2126,
      "next": 2127,
      "gin": 2128,
      "ĠPro": 2129,
      "Ġbool": 2130,
      "Ġ],": 2131,
      "top": 2132,
      "Ġdtype": 2133,
      "Ġdest": 2134,
      "Ġdis": 2135,
      "loc": 2136,
      "serial": 2137,
      "ĠWe": 2138,
      "gex": 2139,
      "attern": 2140,
      "cho": 2141,
      "conf": 2142,
      "53": 2143,
      "76": 2144,
      "cf": 2145,
      "remove": 2146,
      "UP": 2147,
      "Ġqu": 2148,
      "account": 2149,
      "By": 2150,
      "Ġreturned": 2151,
      "ersion": 2152,
      "ternal": 2153,
      "Ġregister": 2154,
      "encode": 2155,
      "Ġret": 2156,
      "ati": 2157,
      "State": 2158,
      "CharField": 2159,
      "now": 2160,
      "Call": 2161,
      "Ġdel": 2162,
      "rule": 2163,
      "NS": 2164,
      "Element": 2165,
      "Ġproject": 2166,
      "Ġman": 2167,
      "bose": 2168,
      "cale": 2169,
      "uch": 2170,
      "headers": 2171,
      "ĠMo": 2172,
      "ĠException": 2173,
      "Ġsettings": 2174,
      "wh": 2175,
      "Ġtask": 2176,
      "abric": 2177,
      "ias": 2178,
      "XX": 2179,
      "Ġdatetime": 2180,
      "io": 2181,
      "site": 2182,
      "40": 2183,
      "older": 2184,
      "Ġax": 2185,
      "Ġexten": 2186,
      "Ġnext": 2187,
      "]:": 2188,
      "Ġerr": 2189,
      "deo": 2190,
      "Ġexec": 2191,
      "uk": 2192,
      "can": 2193,
      "ULT": 2194,
      "system": 2195,
      "Pack": 2196,
      "(*": 2197,
      "Ġyour": 2198,
      "ord": 2199,
      "OL": 2200,
      "Out": 2201,
      "sit": 2202,
      "Ġexist": 2203,
      "ĊĊĠĠĠĠĠĠĠĠĠĠĠĠĠĠĠ": 2204,
      "Ġpart": 2205,
      "fn": 2206,
      "Ġrandom": 2207,
      "ateg": 2208,
      "quire": 2209,
      "ctionary": 2210,
      "ride": 2211,
      "bool": 2212,
      "Ġvoid": 2213,
      "Ġparse": 2214,
      "dis": 2215,
      "PI": 2216,
      "handler": 2217,
      "ution": 2218,
      "Ġwrite": 2219,
      "Vi": 2220,
      "domain": 2221,
      "ular": 2222,
      "Ġdocument": 2223,
      "Ġlocal": 2224,
      ".\"": 2225,
      "src": 2226,
      "vision": 2227,
      "(?": 2228,
      "ink": 2229,
      "td": 2230,
      "ĠHT": 2231,
      "first": 2232,
      "-\\": 2233,
      "nore": 2234,
      "cle": 2235,
      "ĊĠĠĠĠĊĠĠĠ": 2236,
      "ĠPar": 2237,
      "Ġab": 2238,
      "'].": 2239,
      "exit": 2240,
      "Dict": 2241,
      "ready": 2242,
      "gen": 2243,
      "tests": 2244,
      "lation": 2245,
      "Ġprogram": 2246,
      "pool": 2247,
      "ear": 2248,
      "Ġnon": 2249,
      "Ġinfo": 2250,
      "ART": 2251,
      "FT": 2252,
      "metadata": 2253,
      "ported": 2254,
      "sa": 2255,
      "til": 2256,
      "okup": 2257,
      "iginal": 2258,
      "bit": 2259,
      "oper": 2260,
      "ĠIS": 2261,
      "ng": 2262,
      "tx": 2263,
      "Ġsp": 2264,
      "direct": 2265,
      "hash": 2266,
      "send": 2267,
      "connect": 2268,
      "mission": 2269,
      "':'": 2270,
      "Log": 2271,
      "del": 2272,
      "Bo": 2273,
      "60": 2274,
      "ĠTO": 2275,
      "derr": 2276,
      "Message": 2277,
      "SS": 2278,
      "ILITY": 2279,
      "Ġshape": 2280,
      "Ġrule": 2281,
      "stack": 2282,
      "Ġload": 2283,
      "000000": 2284,
      "Ġ{\"": 2285,
      "ĊĊĊĠĠĠ": 2286,
      "ĠSoftware": 2287,
      "Ġ),": 2288,
      "dtype": 2289,
      "ves": 2290,
      "ices": 2291,
      "tree": 2292,
      "sis": 2293,
      "ĠSM": 2294,
      "dia": 2295,
      ")):": 2296,
      "Info": 2297,
      "tainer": 2298,
      "zer": 2299,
      "('/": 2300,
      "'''": 2301,
      "Ġlevel": 2302,
      "75": 2303,
      "QU": 2304,
      "Ġtests": 2305,
      "ENS": 2306,
      "Ġcho": 2307,
      "Ns": 2308,
      "yp": 2309,
      "Ġsupport": 2310,
      "ticle": 2311,
      "Ġses": 2312,
      "pache": 2313,
      "Ġwri": 2314,
      "Ġold": 2315,
      "aster": 2316,
      "xx": 2317,
      "entry": 2318,
      "Ġdevice": 2319,
      "common": 2320,
      "pc": 2321,
      "rapper": 2322,
      "Ġobjects": 2323,
      "Ġ...": 2324,
      "31": 2325,
      "ceiv": 2326,
      "Ġav": 2327,
      "Response": 2328,
      "Ġcount": 2329,
      "Ġaddress": 2330,
      "environ": 2331,
      "Comp": 2332,
      "umns": 2333,
      "Event": 2334,
      "null": 2335,
      "ĠTHE": 2336,
      "Ġhere": 2337,
      "ants": 2338,
      "fer": 2339,
      "Ġlimit": 2340,
      "lower": 2341,
      "ĠAND": 2342,
      "round": 2343,
      "NAME": 2344,
      "fs": 2345,
      "\"):": 2346,
      "Ġstd": 2347,
      "ates": 2348,
      "`.": 2349,
      "Tra": 2350,
      "Ġglobal": 2351,
      "65": 2352,
      "methods": 2353,
      "mpl": 2354,
      "78": 2355,
      "Ġthere": 2356,
      "Ġmark": 2357,
      "uster": 2358,
      "255": 2359,
      "Size": 2360,
      "\"],": 2361,
      "fl": 2362,
      "Ġpython": 2363,
      "sets": 2364,
      "uri": 2365,
      "Ġinclude": 2366,
      "Ġheaders": 2367,
      "Ġbody": 2368,
      "\",\"": 2369,
      "mi": 2370,
      "Ġ>=": 2371,
      "stop": 2372,
      "job": 2373,
      "42": 2374,
      "Ġafter": 2375,
      "color": 2376,
      "Ġsk": 2377,
      "Ġprefix": 2378,
      "45": 2379,
      "Ġwhere": 2380,
      "Ġentry": 2381,
      "penden": 2382,
      "stamp": 2383,
      "]]": 2384,
      "dev": 2385,
      "KE": 2386,
      "Ġlines": 2387,
      "Count": 2388,
      "Ġtensor": 2389,
      "Pre": 2390,
      "Group": 2391,
      "random": 2392,
      "fin": 2393,
      "column": 2394,
      "Man": 2395,
      "licenses": 2396,
      "ingle": 2397,
      "68": 2398,
      "Ġextra": 2399,
      "related": 2400,
      "bb": 2401,
      "Ġfind": 2402,
      "Ġopt": 2403,
      "flags": 2404,
      "Ġclo": 2405,
      "Ġservice": 2406,
      "ĠGet": 2407,
      "Ġarguments": 2408,
      "ĠFOR": 2409,
      "Ġ'-": 2410,
      "xd": 2411,
      "Ġits": 2412,
      "wait": 2413,
      "Ġtemp": 2414,
      "ĠSMALL": 2415,
      "Ġpoint": 2416,
      "Module": 2417,
      "ĊĠĠĠĠĠĠĠĠĠĠĠĠĠĠĠĠĠĠĠĠĠĠĠĠĠĠĠĠĠĠĠĠĠĠĠĠĠĠĠĠĠĠĠĠĠĠĠĠ": 2418,
      "vate": 2419,
      "All": 2420,
      "show": 2421,
      "47": 2422,
      "txt": 2423,
      "Ġfilter": 2424,
      "Ġge": 2425,
      "ha": 2426,
      "style": 2427,
      "ĊĠĠĠĠĠĠĠĠĠĠĠĠĠĠĠĠĠĠĠĠĠĠ": 2428,
      "Qu": 2429,
      "Net": 2430,
      "exists": 2431,
      "bytes": 2432,
      "ĠWITHOUT": 2433,
      "select": 2434,
      "Ġlambda": 2435,
      "Ġfail": 2436,
      "Device": 2437,
      "act": 2438,
      "Ġsession": 2439,
      "Ġright": 2440,
      "EXT": 2441,
      "Ġthan": 2442,
      "web": 2443,
      "Ġoff": 2444,
      "UB": 2445,
      "required": 2446,
      "package": 2447,
      "Ġdetails": 2448,
      "Ġact": 2449,
      "ish": 2450,
      "als": 2451,
      "ector": 2452,
      "sl": 2453,
      "future": 2454,
      "Ġcom": 2455,
      "author": 2456,
      "etch": 2457,
      "rag": 2458,
      "side": 2459,
      "utton": 2460,
      "startswith": 2461,
      "////////////////": 2462,
      "Ġmain": 2463,
      "Al": 2464,
      "TypeId": 2465,
      "ctions": 2466,
      "']['": 2467,
      "Ġthread": 2468,
      "{}": 2469,
      "dentifi": 2470,
      "ba": 2471,
      "RL": 2472,
      "Ġconn": 2473,
      "cimal": 2474,
      "changed": 2475,
      "ĊĠĠĠĠĠĠĠĠĠĠĠĠĠĠĠĠĠĠĠĠĠĠĠĠĠĠ": 2476,
      "volume": 2477,
      "ceived": 2478,
      "ater": 2479,
      "Class": 2480,
      "Create": 2481,
      "nodes": 2482,
      "ĠSet": 2483,
      "=%": 2484,
      "ĊĠĠĠĠĠĠĠĠĠĠĠĠĠĠĠĠĠĠĠĠĠĠĠĠĠĠĠĠ": 2485,
      "Ġimple": 2486,
      "ABILITY": 2487,
      "VE": 2488,
      "CK": 2489,
      "ĠType": 2490,
      "cen": 2491,
      "Ġimplied": 2492,
      "blank": 2493,
      "Ġspecific": 2494,
      "ights": 2495,
      "day": 2496,
      "Date": 2497,
      "TO": 2498,
      "asic": 2499,
      "Ġlogger": 2500,
      "Handler": 2501,
      "================================": 2502,
      "Ġpackage": 2503,
      "']],": 2504,
      "98": 2505,
      "username": 2506,
      "alog": 2507,
      "Ġcache": 2508,
      "Ġtitle": 2509,
      "From": 2510,
      "mented": 2511,
      "served": 2512,
      "46": 2513,
      "Ġfin": 2514,
      "https": 2515,
      "Ġinitial": 2516,
      "graph": 2517,
      "product": 2518,
      "ĊĠĠĠĠĠĠĠĠĠĠĠĠĠĠĠĠĠĠĠĠĠĠĠĠĠĠĠĠĠĠĠĠĠĠĠ": 2519,
      "Ġstream": 2520,
      "ux": 2521,
      "Ġmat": 2522,
      "auto": 2523,
      "Ġgetattr": 2524,
      "Ġbin": 2525,
      "ATION": 2526,
      "Ġbefore": 2527,
      "mory": 2528,
      "uuid": 2529,
      "ometry": 2530,
      "97": 2531,
      "ow": 2532,
      "Ġfunc": 2533,
      "GL": 2534,
      "alid": 2535,
      "dist": 2536,
      "Ġ'_": 2537,
      "Ġview": 2538,
      "ker": 2539,
      "pping": 2540,
      "Run": 2541,
      "52": 2542,
      "ultiple": 2543,
      "Ġenv": 2544,
      "Ġpassword": 2545,
      "Ġindi": 2546,
      "IES": 2547,
      "Ġcr": 2548,
      "PL": 2549,
      "mer": 2550,
      "pol": 2551,
      "Ġ$": 2552,
      "Ġ..": 2553,
      "Inter": 2554,
      ",'": 2555,
      "execute": 2556,
      "APIT": 2557,
      "')],": 2558,
      "timeout": 2559,
      "mask": 2560,
      "Ġreturns": 2561,
      "Des": 2562,
      "wit": 2563,
      "tools": 2564,
      "Ġ'__": 2565,
      "fd": 2566,
      "Ġerrors": 2567,
      "very": 2568,
      "]))": 2569,
      "Ġhash": 2570,
      "Ġcourse": 2571,
      "dep": 2572,
      "errors": 2573,
      "']:": 2574,
      "unsigned": 2575,
      "Ġfollowing": 2576,
      "eval": 2577,
      "space": 2578,
      "ORT": 2579,
      "assi": 2580,
      "Ġencoding": 2581,
      "uter": 2582,
      "PRO": 2583,
      "APITAL": 2584,
      "Ġdir": 2585,
      "oc": 2586,
      "handle": 2587,
      "ĠCAPITAL": 2588,
      "except": 2589,
      "ĊĊĠĠĠĠĠ": 2590,
      "usr": 2591,
      "nap": 2592,
      "Packet": 2593,
      "gr": 2594,
      "Ġinformation": 2595,
      "Ġreq": 2596,
      "URL": 2597,
      "results": 2598,
      "Ġtrue": 2599,
      "arnings": 2600,
      "rec": 2601,
      "missions": 2602,
      "Ġhandle": 2603,
      "96": 2604,
      "Ġlength": 2605,
      "Ġsystem": 2606,
      "Per": 2607,
      "Ġsta": 2608,
      "ĠKey": 2609,
      "Ġgo": 2610,
      "Ġnumpy": 2611,
      "gg": 2612,
      "Ġob": 2613,
      "Ġlanguage": 2614,
      "wise": 2615,
      "rop": 2616,
      "Ġauto": 2617,
      "Ġfull": 2618,
      "85": 2619,
      "Ġtimeout": 2620,
      "ABLE": 2621,
      "AA": 2622,
      "case": 2623,
      "Ġalso": 2624,
      "Option": 2625,
      "Ġ&',": 2626,
      "Le": 2627,
      "ron": 2628,
      "MO": 2629,
      "ĠCheck": 2630,
      "vm": 2631,
      "RA": 2632,
      "manager": 2633,
      "Sh": 2634,
      "ost": 2635,
      "Ġmap": 2636,
      "FOR": 2637,
      "Sub": 2638,
      "({": 2639,
      "Ġdictionary": 2640,
      "include": 2641,
      "Ġ'<": 2642,
      "UM": 2643,
      "coder": 2644,
      "dest": 2645,
      "thread": 2646,
      "=(": 2647,
      "ĠFound": 2648,
      "addr": 2649,
      "Ġdep": 2650,
      "groups": 2651,
      "ĠAnsible": 2652,
      "ide": 2653,
      "Default": 2654,
      ".')": 2655,
      "ĊĠĠĠĠĠĠĠĠĊĠĠĠĠĠĠĠ": 2656,
      "Ġunicode": 2657,
      "'},": 2658,
      "active": 2659,
      "Ġalready": 2660,
      "čĊĠĠĠĠĠĠĠĠĠĠĠĠĠĠĠ": 2661,
      "channel": 2662,
      "rt": 2663,
      "oreign": 2664,
      "register": 2665,
      "duce": 2666,
      "win": 2667,
      "ĠString": 2668,
      "('\\": 2669,
      "Ġhasattr": 2670,
      "imum": 2671,
      "90": 2672,
      "mbol": 2673,
      "ial": 2674,
      "Ġ<=": 2675,
      "Header": 2676,
      "uite": 2677,
      "_(": 2678,
      "Ġ%(": 2679,
      "ason": 2680,
      "scope": 2681,
      "decode": 2682,
      "cause": 2683,
      "ical": 2684,
      "zone": 2685,
      "TYPE": 2686,
      "App": 2687,
      "%(": 2688,
      "Ġass": 2689,
      "]['": 2690,
      "setup": 2691,
      "ĠAdd": 2692,
      "Ġ\"_": 2693,
      "her": 2694,
      "comple": 2695,
      "]),": 2696,
      "lambda": 2697,
      ".\")": 2698,
      "kw": 2699,
      "CP": 2700,
      "Ġstruct": 2701,
      "terator": 2702,
      "Parser": 2703,
      "mount": 2704,
      "Ġparameters": 2705,
      "cies": 2706,
      "ditional": 2707,
      "82": 2708,
      "Integer": 2709,
      "Variable": 2710,
      "proto": 2711,
      "let": 2712,
      "termin": 2713,
      "Ġig": 2714,
      "Ġinst": 2715,
      "SI": 2716,
      "limit": 2717,
      "Ġfabric": 2718,
      "Ref": 2719,
      "---": 2720,
      "70": 2721,
      "So": 2722,
      "LIC": 2723,
      "cap": 2724,
      "Ġsample": 2725,
      "Ad": 2726,
      "94": 2727,
      "Ġprovided": 2728,
      "NO": 2729,
      "]],": 2730,
      "Th": 2731,
      "stdout": 2732,
      "95": 2733,
      "dump": 2734,
      "IGHT": 2735,
      "Ġus": 2736,
      "play": 2737,
      "access": 2738,
      "LI": 2739,
      "Ġfl": 2740,
      "Ġvar": 2741,
      "cli": 2742,
      "nel": 2743,
      "ĊĊĉ": 2744,
      "Ġparameter": 2745,
      "aly": 2746,
      "Ġempty": 2747,
      "initial": 2748,
      "gine": 2749,
      "Ġnetwork": 2750,
      "af": 2751,
      "ini": 2752,
      "Py": 2753,
      ");": 2754,
      "Ġ,": 2755,
      "An": 2756,
      "example": 2757,
      "ĠName": 2758,
      "FAULT": 2759,
      "ĠFoundation": 2760,
      "conds": 2761,
      "plugin": 2762,
      "ATA": 2763,
      "Auth": 2764,
      "skip": 2765,
      "Ġpost": 2766,
      "Ġcharac": 2767,
      "sv": 2768,
      "Str": 2769,
      "Ġeven": 2770,
      "Ġoptional": 2771,
      "63": 2772,
      "83": 2773,
      "assed": 2774,
      "]+": 2775,
      "olute": 2776,
      "Ġrecord": 2777,
      "PAT": 2778,
      "Ġcreated": 2779,
      "Callback": 2780,
      "plot": 2781,
      "EM": 2782,
      "Content": 2783,
      "Ġsearch": 2784,
      "Ġbeen": 2785,
      ")[": 2786,
      "Ġdomain": 2787,
      "Index": 2788,
      "Ġsocket": 2789,
      "cd": 2790,
      ".*": 2791,
      "Ġutf": 2792,
      "tmp": 2793,
      "buffer": 2794,
      ")/": 2795,
      "Ġap": 2796,
      "Ġdon": 2797,
      "book": 2798,
      "tk": 2799,
      "IONS": 2800,
      "Ġtf": 2801,
      "Context": 2802,
      "(-": 2803,
      "control": 2804,
      "View": 2805,
      "Ġxml": 2806,
      "ĠNOT": 2807,
      "contrib": 2808,
      "Ġremove": 2809,
      "ĠIt": 2810,
      "ĠCreate": 2811,
      "offset": 2812,
      "exc": 2813,
      "tep": 2814,
      ":%": 2815,
      "Ġcoding": 2816,
      "most": 2817,
      "Ġabs": 2818,
      "Ġtop": 2819,
      "Ġdiffe": 2820,
      "Ġcalled": 2821,
      "ef": 2822,
      "unittest": 2823,
      "repr": 2824,
      "Ġpublish": 2825,
      "Ġshow": 2826,
      "assertEquals": 2827,
      "HTTP": 2828,
      "Ġmodify": 2829,
      ").__": 2830,
      "ĊĠĠĠĠĠĠĠĠĠĠĠĠĠĠĠĠĠĠĠĠĠĠĠĠĠĠĠĠĠ": 2831,
      "profile": 2832,
      "ators": 2833,
      "ait": 2834,
      "This": 2835,
      "linen": 2836,
      "ensor": 2837,
      "OM": 2838,
      "Ġcommon": 2839,
      "Factory": 2840,
      ";\":": 2841,
      "cast": 2842,
      "43": 2843,
      "Ġavailable": 2844,
      "dio": 2845,
      "><": 2846,
      "TEST": 2847,
      "roll": 2848,
      "~~~~": 2849,
      "okie": 2850,
      "As": 2851,
      "Ġlike": 2852,
      "hy": 2853,
      "ĠNot": 2854,
      "ĠAt": 2855,
      ")\"": 2856,
      "Ġcolumn": 2857,
      "AGE": 2858,
      "extra": 2859,
      "Ġids": 2860,
      "Ġcomple": 2861,
      "shot": 2862,
      "oken": 2863,
      "Ġfree": 2864,
      "Ġframe": 2865,
      "eb": 2866,
      "Ġdist": 2867,
      "ĠFree": 2868,
      "Dis": 2869,
      "EL": 2870,
      "extend": 2871,
      "BU": 2872,
      "ared": 2873,
      "ENSE": 2874,
      "ĠCh": 2875,
      "lected": 2876,
      "ĠURL": 2877,
      "Checker": 2878,
      "prot": 2879,
      "Ġterms": 2880,
      "ways": 2881,
      "Ġcre": 2882,
      "Ġscript": 2883,
      "uffix": 2884,
      ".',": 2885,
      "Source": 2886,
      "train": 2887,
      "CR": 2888,
      "cb": 2889,
      "Ġunittest": 2890,
      "73": 2891,
      "step": 2892,
      "72": 2893,
      ")\\": 2894,
      "':'*": 2895,
      "62": 2896,
      "Ġsingle": 2897,
      "ERR": 2898,
      "ĠID": 2899,
      "dentifier": 2900,
      "entic": 2901,
      ",-": 2902,
      "Result": 2903,
      "Ġbytes": 2904,
      "Output": 2905,
      "Form": 2906,
      "ince": 2907,
      "else": 2908,
      "Ġ'--": 2909,
      "Ġtwo": 2910,
      "DB": 2911,
      "ĠAll": 2912,
      "batch": 2913,
      "INT": 2914,
      "Ġren": 2915,
      "les": 2916,
      "driver": 2917,
      "ĠUser": 2918,
      "bot": 2919,
      "tab": 2920,
      "Ġexample": 2921,
      "(\\": 2922,
      "gor": 2923,
      "Ġ100": 2924,
      "pha": 2925,
      "long": 2926,
      "Client": 2927,
      "Or": 2928,
      "total": 2929,
      "section": 2930,
      "Ġaccess": 2931,
      "Tests": 2932,
      "Ġbet": 2933,
      "cts": 2934,
      "classes": 2935,
      "Ġconfiguration": 2936,
      "logger": 2937,
      "ĠĠĠĠĠĠĠĠĠĠĠĠĠĠĠĠĠĠĠĠĠĠĠĠĠĠĠĠĠĠĠĠ": 2938,
      "andard": 2939,
      "display": 2940,
      "press": 2941,
      "51": 2942,
      "Ġsa": 2943,
      "ics": 2944,
      "Ġvariables": 2945,
      "GET": 2946,
      "Ġwant": 2947,
      "Ġdisplay": 2948,
      "WAR": 2949,
      "Ġchanged": 2950,
      "non": 2951,
      "bility": 2952,
      "vars": 2953,
      "Ġkeys": 2954,
      ":]": 2955,
      "tim": 2956,
      "Ġstatic": 2957,
      "encoding": 2958,
      "Ġrepresent": 2959,
      "vious": 2960,
      "Ġlocation": 2961,
      "QL": 2962,
      "Ġlater": 2963,
      "used": 2964,
      "binary": 2965,
      "Ġjust": 2966,
      "vironment": 2967,
      "81": 2968,
      "DIR": 2969,
      "tils": 2970,
      "Imple": 2971,
      "like": 2972,
      "(['": 2973,
      "full": 2974,
      "fc": 2975,
      "oreignKey": 2976,
      "ĠZ": 2977,
      "=['": 2978,
      "speci": 2979,
      "92": 2980,
      "Manager": 2981,
      "tuple": 2982,
      "Ġhandler": 2983,
      "Ġattributes": 2984,
      "record": 2985,
      "Ġ--------": 2986,
      "vider": 2987,
      "tera": 2988,
      "idd": 2989,
      "mac": 2990,
      "argv": 2991,
      "Ġbecause": 2992,
      "/>": 2993,
      "head": 2994,
      "Ġserial": 2995,
      "Ġuint": 2996,
      "Ġref": 2997,
      "wd": 2998,
      "ling": 2999,
      "idx": 3000,
      "Ġraw": 3001,
      "With": 3002,
      "global": 3003,
      "Reg": 3004,
      "tags": 3005,
      "wner": 3006,
      "ystem": 3007,
      "Ġmy": 3008,
      "ĠWARRANTIES": 3009,
      "Map": 3010,
      "Ġapi": 3011,
      "Ġtree": 3012,
      "fake": 3013,
      "va": 3014,
      "opt": 3015,
      "Ġtypes": 3016,
      "Ġcontaining": 3017,
      "Ġuseful": 3018,
      "emplate": 3019,
      "čĊčĊĠĠĠ": 3020,
      "attributes": 3021,
      "čĊč": 3022,
      "Ġthey": 3023,
      "Ġitems": 3024,
      "Ġta": 3025,
      "uff": 3026,
      "ĠLo": 3027,
      "61": 3028,
      "Ġnull": 3029,
      "login": 3030,
      "ĠArgs": 3031,
      "cul": 3032,
      "NESS": 3033,
      "Ġpassed": 3034,
      "CONF": 3035,
      "STR": 3036,
      "Ġgra": 3037,
      "iddle": 3038,
      "41": 3039,
      "dered": 3040,
      "Ġsrc": 3041,
      "lative": 3042,
      "unicode": 3043,
      "real": 3044,
      "istr": 3045,
      "Ġreceived": 3046,
      "left": 3047,
      "ULAR": 3048,
      "multi": 3049,
      "tach": 3050,
      "cent": 3051,
      "sitive": 3052,
      "MUS": 3053,
      "lex": 3054,
      "socket": 3055,
      "Ġaccount": 3056,
      "double": 3057,
      "report": 3058,
      "pid": 3059,
      "ranch": 3060,
      "zip": 3061,
      "ĊĠĠĠĠĠĠĠĠĠĠĠĠĠĠĠĠĠĠĠĠĠĠĠĠĠĠĠĠĠĠ": 3062,
      "hen": 3063,
      "Ġsum": 3064,
      "sql": 3065,
      "tered": 3066,
      "Ġinteger": 3067,
      "Simple": 3068,
      "'})": 3069,
      "ĠNo": 3070,
      "axis": 3071,
      "KEY": 3072,
      "ĠFIT": 3073,
      "Ġresp": 3074,
      "ugh": 3075,
      "MUSG": 3076,
      "stderr": 3077,
      "Code": 3078,
      "hether": 3079,
      "ERCH": 3080,
      "Server": 3081,
      "################################################################": 3082,
      "ERCHANT": 3083,
      "clean": 3084,
      "SH": 3085,
      "End": 3086,
      "ĠPART": 3087,
      "POSE": 3088,
      "diff": 3089,
      "Ġspec": 3090,
      "Ġdatabase": 3091,
      "ift": 3092,
      "Line": 3093,
      "Ġemail": 3094,
      "mentation": 3095,
      "Ġ[])": 3096,
      "MS": 3097,
      "Ġipv": 3098,
      "git": 3099,
      "tom": 3100,
      "interface": 3101,
      "Ġthem": 3102,
      "stead": 3103,
      "google": 3104,
      "div": 3105,
      "utable": 3106,
      "modules": 3107,
      "ĠFITNESS": 3108,
      "Command": 3109,
      "ntax": 3110,
      "Ġ\"\"": 3111,
      "ACK": 3112,
      "licit": 3113,
      "callback": 3114,
      "ĠPUR": 3115,
      "ilder": 3116,
      "Ġdebug": 3117,
      "position": 3118,
      "delta": 3119,
      "ĠPURPOSE": 3120,
      "ged": 3121,
      "ICULAR": 3122,
      "aded": 3123,
      "oci": 3124,
      "Ġfalse": 3125,
      "ĠPARTICULAR": 3126,
      "witch": 3127,
      "napshot": 3128,
      "ĠMERCHANT": 3129,
      "__,": 3130,
      "Ġnow": 3131,
      "\"])": 3132,
      "vs": 3133,
      "ACT": 3134,
      "PR": 3135,
      "Lay": 3136,
      "OS": 3137,
      "Ġ'',": 3138,
      "scriptor": 3139,
      "Ġinterface": 3140,
      "93": 3141,
      "ween": 3142,
      "Ġtotal": 3143,
      "ENSMUSG": 3144,
      "tf": 3145,
      "coun": 3146,
      "ForeignKey": 3147,
      "wi": 3148,
      "Ġaxis": 3149,
      "Len": 3150,
      "ĠImport": 3151,
      "Ġdelete": 3152,
      "properties": 3153,
      "ĠHTTP": 3154,
      "sport": 3155,
      "/%": 3156,
      "cry": 3157,
      "insert": 3158,
      "Start": 3159,
      "Frame": 3160,
      "Ġmethods": 3161,
      "sort": 3162,
      "ĠTypeError": 3163,
      "component": 3164,
      ")'": 3165,
      "raint": 3166,
      "lice": 3167,
      "war": 3168,
      "IND": 3169,
      "tensor": 3170,
      "Ġexc": 3171,
      "imp": 3172,
      "Ġinstead": 3173,
      "Service": 3174,
      "known": 3175,
      "Gener": 3176,
      "stats": 3177,
      "#!": 3178,
      "stribute": 3179,
      "Ġcolor": 3180,
      "install": 3181,
      "Stream": 3182,
      "ĠMERCHANTABILITY": 3183,
      "Ġ12": 3184,
      "children": 3185,
      "pu": 3186,
      "gate": 3187,
      "ĠOption": 3188,
      "parameters": 3189,
      "Ġalong": 3190,
      "={": 3191,
      "opts": 3192,
      "Ġdoesn": 3193,
      "policy": 3194,
      "ditions": 3195,
      "Ġ20": 3196,
      "entries": 3197,
      "Ġ</": 3198,
      "ination": 3199,
      "ĠDE": 3200,
      "ĠInc": 3201,
      "Ġattrs": 3202,
      "****************": 3203,
      "ually": 3204,
      "fit": 3205,
      "Ġsuccess": 3206,
      "FL": 3207,
      "Ġdown": 3208,
      "ends": 3209,
      "VAL": 3210,
      "Ġ16": 3211,
      "Ġsetup": 3212,
      "release": 3213,
      "platform": 3214,
      "tify": 3215,
      "ĠSe": 3216,
      "desc": 3217,
      "loy": 3218,
      "sure": 3219,
      "lector": 3220,
      "Ġcal": 3221,
      "prec": 3222,
      "Int": 3223,
      "ret": 3224,
      "Ġcorrect": 3225,
      "IGN": 3226,
      "'][": 3227,
      "Buffer": 3228,
      "features": 3229,
      "words": 3230,
      "ĠMe": 3231,
      "Block": 3232,
      "CS": 3233,
      ")',": 3234,
      "Trans": 3235,
      "rough": 3236,
      "unique": 3237,
      "Number": 3238,
      ">\\": 3239,
      "gest": 3240,
      "indows": 3241,
      "invalid": 3242,
      "Widget": 3243,
      "ĠTODO": 3244,
      "olve": 3245,
      "PATH": 3246,
      "Ġmis": 3247,
      "Input": 3248,
      "Connection": 3249,
      "ĠAPI": 3250,
      "primary": 3251,
      "-%": 3252,
      "Ġtri": 3253,
      "></": 3254,
      "unit": 3255,
      "abc": 3256,
      "71": 3257,
      "ending": 3258,
      "attrs": 3259,
      "distribu": 3260,
      "FO": 3261,
      "CC": 3262,
      "ward": 3263,
      "ĠĠĠĠĠĠĠĠĠĠĠĠ": 3264,
      "Ġcollection": 3265,
      "Ġsure": 3266,
      "dential": 3267,
      "sm": 3268,
      "ĠOpen": 3269,
      "Ġtrace": 3270,
      "dirs": 3271,
      "Auto": 3272,
      "Ġcallback": 3273,
      "annot": 3274,
      "added": 3275,
      "Ġverbose": 3276,
      "Ġansible": 3277,
      "Ġweb": 3278,
      "Table": 3279,
      "Instance": 3280,
      "normal": 3281,
      "way": 3282,
      "olean": 3283,
      "dot": 3284,
      "olution": 3285,
      "keep": 3286,
      "sample": 3287,
      "ases": 3288,
      "Ġ>',": 3289,
      "SER": 3290,
      "Ġcontrol": 3291,
      "Ġ%}": 3292,
      "ose": 3293,
      "yload": 3294,
      "ello": 3295,
      "Ġsave": 3296,
      "DS": 3297,
      "iod": 3298,
      "Ġoffset": 3299,
      "compute": 3300,
      "Token": 3301,
      "Ġpublished": 3302,
      "ob": 3303,
      "Meta": 3304,
      "Ġextension": 3305,
      "pb": 3306,
      "gress": 3307,
      "Ġproduct": 3308,
      "see": 3309,
      "Ġnamespace": 3310,
      "Ġstrings": 3311,
      "Action": 3312,
      "gt": 3313,
      "Read": 3314,
      "On": 3315,
      "sue": 3316,
      "allow": 3317,
      ")*": 3318,
      "comment": 3319,
      "forms": 3320,
      "Ġbuffer": 3321,
      "metri": 3322,
      "ttp": 3323,
      "Ġreplace": 3324,
      "sec": 3325,
      "ja": 3326,
      "br": 3327,
      "Ġtensorflow": 3328,
      "9999": 3329,
      "render": 3330,
      "quires": 3331,
      "Query": 3332,
      "assertFalse": 3333,
      "Ġdefined": 3334,
      "Ġnodes": 3335,
      "Ġnormal": 3336,
      "Ġsorted": 3337,
      "Ġobtain": 3338,
      "Ġmetadata": 3339,
      "Invalid": 3340,
      "Ġflags": 3341,
      "ĊĠĠĠĠĠĠĠĠĠĠĠĠĠĠĠĠĠĠĠĠĠĠĠĠĠĠĠĠĠĠĠĠĠ": 3342,
      "istry": 3343,
      "brow": 3344,
      "bl": 3345,
      "Ġskip": 3346,
      "ws": 3347,
      "height": 3348,
      "Page": 3349,
      "Ġchoices": 3350,
      "curity": 3351,
      "Ġ\"/": 3352,
      "Ġinclu": 3353,
      "And": 3354,
      "namespace": 3355,
      "UD": 3356,
      "ĠRun": 3357,
      "Ġgraph": 3358,
      "widget": 3359,
      "Write": 3360,
      "tition": 3361,
      "({'": 3362,
      "Ġreal": 3363,
      "oly": 3364,
      "ured": 3365,
      "91": 3366,
      "CA": 3367,
      "Ġti": 3368,
      "#!/": 3369,
      "labels": 3370,
      "proxy": 3371,
      "Clo": 3372,
      "iler": 3373,
      "HER": 3374,
      "Ġoriginal": 3375,
      "Ġredi": 3376,
      "Ġposition": 3377,
      "Mock": 3378,
      "des": 3379,
      "storage": 3380,
      "Ġbinary": 3381,
      "public": 3382,
      "Ġcer": 3383,
      "Hash": 3384,
      "Ġbetween": 3385,
      "ĠAttribute": 3386,
      "lineno": 3387,
      "Version": 3388,
      "scale": 3389,
      "Ġmon": 3390,
      "ĠLO": 3391,
      "Ġfailed": 3392,
      "Ġfunctions": 3393,
      "Point": 3394,
      "Ġproperty": 3395,
      "!!": 3396,
      "tical": 3397,
      "tran": 3398,
      "bove": 3399,
      "ueue": 3400,
      "HO": 3401,
      "ĠNote": 3402,
      "assertIs": 3403,
      "Ġ28": 3404,
      "Ġ):": 3405,
      "extension": 3406,
      "pendencies": 3407,
      "esca": 3408,
      "Ġdifferent": 3409,
      "ĠVersion": 3410,
      "AY": 3411,
      "__)": 3412,
      "sted": 3413,
      "cpu": 3414,
      "ship": 3415,
      "ĠWARRANTY": 3416,
      "SON": 3417,
      "reen": 3418,
      "()[": 3419,
      "columns": 3420,
      "_,": 3421,
      "cat": 3422,
      "ntry": 3423,
      "Build": 3424,
      "blem": 3425,
      "Ġexisting": 3426,
      "points": 3427,
      "trace": 3428,
      "repo": 3429,
      "Ġzip": 3430,
      "Ġusername": 3431,
      "Ġflag": 3432,
      "Ġabove": 3433,
      "Returns": 3434,
      "ategory": 3435,
      "\"\\": 3436,
      "bind": 3437,
      "js": 3438,
      "Ġstack": 3439,
      "Ġsimple": 3440,
      "ae": 3441,
      "Process": 3442,
      "samples": 3443,
      "aries": 3444,
      "velo": 3445,
      "loader": 3446,
      "Ġoperation": 3447,
      "Ġwar": 3448,
      "score": 3449,
      "validate": 3450,
      "Ġmath": 3451,
      "Iterator": 3452,
      "Ġmeta": 3453,
      "\").": 3454,
      "categ": 3455,
      "DEFAULT": 3456,
      "ero": 3457,
      "ctype": 3458,
      "pattern": 3459,
      "fication": 3460,
      "OF": 3461,
      "Ġvolume": 3462,
      "Ġsequence": 3463,
      ":\\": 3464,
      "Function": 3465,
      "Ġactual": 3466,
      "Ġ\"'": 3467,
      "ube": 3468,
      "Ġchannel": 3469,
      "tificate": 3470,
      "lip": 3471,
      "Ġpresent": 3472,
      "rel": 3473,
      "Format": 3474,
      "dirname": 3475,
      "Ġwidth": 3476,
      "Image": 3477,
      "Ġip": 3478,
      "(__": 3479,
      "Ġsection": 3480,
      "ĊĠĠĠĠĠĠĠĠĠĠĠĠĠĠĠĠĠĠĠĠĠĠĠĠĠĠĠĠĠĠĠĠĠĠ": 3481,
      "Ġiter": 3482,
      "IME": 3483,
      "FORM": 3484,
      "expr": 3485,
      "Ġdisable": 3486,
      "dim": 3487,
      "sive": 3488,
      "Ġsecond": 3489,
      "ERROR": 3490,
      "Ġadded": 3491,
      "Mac": 3492,
      "Down": 3493,
      "ValueError": 3494,
      "Ġhtml": 3495,
      "container": 3496,
      "sq": 3497,
      "help": 3498,
      "ilter": 3499,
      "ank": 3500,
      "serialize": 3501,
      "messages": 3502,
      "Oper": 3503,
      "called": 3504,
      "{%": 3505,
      "Ġpermissions": 3506,
      "Ġforce": 3507,
      "cker": 3508,
      "ily": 3509,
      "ĠIP": 3510,
      "Ġpacket": 3511,
      "oolean": 3512,
      "Of": 3513,
      "ĠComp": 3514,
      "Ġthese": 3515,
      "OK": 3516,
      "role": 3517,
      "ixed": 3518,
      "Protocol": 3519,
      "ĠĠĠĠĠĠĠĠĠĠĠ": 3520,
      "Ġselect": 3521,
      "Fe": 3522,
      "ĊĠĠĠĠĠĠĠĠĠĠĠĠĠĠĠĠĠĠĠĠĠĠĠĠĠĠĠĠĠĠĠĠĠĠĠĠĠĠĠ": 3523,
      "Ġexists": 3524,
      "med": 3525,
      "Ġsend": 3526,
      "tool": 3527,
      "math": 3528,
      "Valid": 3529,
      "Ġim": 3530,
      "Ġlibrary": 3531,
      "ĠPer": 3532,
      "Ġalways": 3533,
      "gorith": 3534,
      "Ġlabels": 3535,
      "Ġmulti": 3536,
      "ĠImportError": 3537,
      "iltin": 3538,
      "iddleware": 3539,
      "Box": 3540,
      "city": 3541,
      "ĠPO": 3542,
      "MM": 3543,
      "Ġpatch": 3544,
      "Sta": 3545,
      "ĠBase": 3546,
      "document": 3547,
      "quote": 3548,
      "idden": 3549,
      "leted": 3550,
      "('-": 3551,
      "Ġmask": 3552,
      "Ġstyle": 3553,
      "Ġclean": 3554,
      "hi": 3555,
      "Ġapplic": 3556,
      "Child": 3557,
      "moved": 3558,
      "Ġ[[": 3559,
      "Implemented": 3560,
      "TEXT": 3561,
      "clear": 3562,
      "helper": 3563,
      "verage": 3564,
      "Ġcustom": 3565,
      "rs": 3566,
      "\");": 3567,
      "gument": 3568,
      "Ġwait": 3569,
      "year": 3570,
      "safe": 3571,
      "cm": 3572,
      "ĠDO": 3573,
      "scape": 3574,
      "\"}": 3575,
      "ĠSO": 3576,
      "('%": 3577,
      "mbed": 3578,
      "loop": 3579,
      "many": 3580,
      "Ġeval": 3581,
      "Ġwarnings": 3582,
      "Ġcontains": 3583,
      "commit": 3584,
      "oto": 3585,
      "alias": 3586,
      "leep": 3587,
      "ĠRes": 3588,
      "SET": 3589,
      "Ġtmp": 3590,
      "application": 3591,
      "Ġgenerate": 3592,
      "PORT": 3593,
      ".\\": 3594,
      "inst": 3595,
      "ĠPRO": 3596,
      "board": 3597,
      ">'": 3598,
      "paces": 3599,
      "`,": 3600,
      "ability": 3601,
      "Ġbatch": 3602,
      "stract": 3603,
      "ĠAuth": 3604,
      "ĠsetUp": 3605,
      "Serial": 3606,
      "Ġabout": 3607,
      "na": 3608,
      "ĠDi": 3609,
      "Ġstep": 3610,
      "indent": 3611,
      "mean": 3612,
      "INE": 3613,
      "zy": 3614,
      "CI": 3615,
      "tice": 3616,
      "raises": 3617,
      "cheme": 3618,
      "ĠEX": 3619,
      "WN": 3620,
      "Ġmatrix": 3621,
      "ctx": 3622,
      "Ġstop": 3623,
      "ports": 3624,
      "category": 3625,
      "Ġmod": 3626,
      "Ġredistribute": 3627,
      "weight": 3628,
      "urls": 3629,
      "Ġtrain": 3630,
      "factory": 3631,
      "Ġlook": 3632,
      "Ġwriting": 3633,
      "roid": 3634,
      "dt": 3635,
      "TE": 3636,
      ".'": 3637,
      "Ġleft": 3638,
      "=_": 3639,
      "Ġconstructor": 3640,
      "eff": 3641,
      "modi": 3642,
      "schema": 3643,
      "seq": 3644,
      "SD": 3645,
      "short": 3646,
      "lem": 3647,
      "RES": 3648,
      "loads": 3649,
      "(\"%": 3650,
      "Ca": 3651,
      "ins": 3652,
      "ude": 3653,
      "wri": 3654,
      "medi": 3655,
      "ERS": 3656,
      "indi": 3657,
      "Ġconf": 3658,
      "directory": 3659,
      "API": 3660,
      "language": 3661,
      "collection": 3662,
      "Ġpk": 3663,
      "ASS": 3664,
      "ANG": 3665,
      "ested": 3666,
      "FILE": 3667,
      "sume": 3668,
      "none": 3669,
      "ĠUse": 3670,
      "Ġ}}": 3671,
      "/',": 3672,
      "ava": 3673,
      "Ġhope": 3674,
      "escape": 3675,
      "ines": 3676,
      "Ġabsolute": 3677,
      "ession": 3678,
      "matrix": 3679,
      "Property": 3680,
      "liance": 3681,
      "ĠDo": 3682,
      "dentity": 3683,
      "ĠAs": 3684,
      "fetch": 3685,
      "')),": 3686,
      "rest": 3687,
      "INGS": 3688,
      "Be": 3689,
      "mul": 3690,
      "WARE": 3691,
      "gnu": 3692,
      "]*": 3693,
      "Ġgover": 3694,
      "Dir": 3695,
      "{{": 3696,
      "vas": 3697,
      "ki": 3698,
      "Ġutils": 3699,
      "classmethod": 3700,
      "ĠApache": 3701,
      "Control": 3702,
      "######": 3703,
      "imat": 3704,
      "xff": 3705,
      "Random": 3706,
      "cision": 3707,
      "ZE": 3708,
      "ges": 3709,
      "precated": 3710,
      "----------------------------------------------------------------": 3711,
      "sity": 3712,
      "sw": 3713,
      "ĠĠĠĠĠĠĠĠĠ": 3714,
      "Ro": 3715,
      "Ġ\".": 3716,
      "video": 3717,
      "Ġ_(\"": 3718,
      "Ġmultiple": 3719,
      "Ġwarran": 3720,
      "Found": 3721,
      "]',": 3722,
      "__':": 3723,
      "Status": 3724,
      "Ġfinally": 3725,
      "ĠEn": 3726,
      "Ġignore": 3727,
      "Ġtags": 3728,
      "actions": 3729,
      "dc": 3730,
      "raise": 3731,
      "Ġcomment": 3732,
      "Ġconditions": 3733,
      "AND": 3734,
      "ECT": 3735,
      "edit": 3736,
      "Ġ((": 3737,
      "Link": 3738,
      "0001": 3739,
      "Dele": 3740,
      "Ġ[(": 3741,
      "Ġplugin": 3742,
      "Ġmember": 3743,
      "Ġenume": 3744,
      "Trace": 3745,
      "Ġchunk": 3746,
      "Vector": 3747,
      "bound": 3748,
      "variables": 3749,
      "Socket": 3750,
      "Ġencode": 3751,
      "ross": 3752,
      "Ġwhether": 3753,
      "License": 3754,
      "vals": 3755,
      "Ġfeature": 3756,
      "Ġwarranty": 3757,
      "png": 3758,
      "Ġenvironment": 3759,
      "AttributeValue": 3760,
      "Ġsen": 3761,
      "dient": 3762,
      "lint": 3763,
      "={'": 3764,
      "dentials": 3765,
      "tification": 3766,
      "(**": 3767,
      "Ġpick": 3768,
      "original": 3769,
      "inputs": 3770,
      "rand": 3771,
      "YR": 3772,
      "Ġ'#": 3773,
      "Doc": 3774,
      "warning": 3775,
      "enabled": 3776,
      "udent": 3777,
      "Ġcommands": 3778,
      "Ġmessages": 3779,
      "Ver": 3780,
      "ROM": 3781,
      "Ġrepo": 3782,
      "Types": 3783,
      "verbose": 3784,
      "ĠFile": 3785,
      "au": 3786,
      "istory": 3787,
      "Ġreference": 3788,
      "protocol": 3789,
      "INTER": 3790,
      "Ġbeing": 3791,
      "hook": 3792,
      "Ġstdout": 3793,
      "button": 3794,
      "ixin": 3795,
      "Ġrender": 3796,
      "ĠDefault": 3797,
      "stat": 3798,
      "Ġsupported": 3799,
      "tems": 3800,
      "regex": 3801,
      "Ġsix": 3802,
      "apache": 3803,
      "ĠLI": 3804,
      "lav": 3805,
      "Pl": 3806,
      "ĠSer": 3807,
      "ĊĠĠĠĠĠĠĠĠĠĠĠĠĠĠĠĠĠĠĠĠĠĠĠĠĠĠĠĠĠĠĠĠĠĠĠĠĠĠĠĠĠĠĠĠĠĠĠĠĠĠĠĠĠĠĠĠ": 3808,
      "ĠCol": 3809,
      "Ġgeometry": 3810,
      "success": 3811,
      "Ġconver": 3812,
      "cords": 3813,
      "rows": 3814,
      "ORD": 3815,
      "users": 3816,
      "olver": 3817,
      "Queue": 3818,
      "operator": 3819,
      "Ġpaths": 3820,
      "mk": 3821,
      "usage": 3822,
      "ĠNotImplemented": 3823,
      "Method": 3824,
      "Cur": 3825,
      ";\\": 3826,
      "fier": 3827,
      "RAW": 3828,
      "wrap": 3829,
      "LECT": 3830,
      "bc": 3831,
      "window": 3832,
      "Ġreverse": 3833,
      "USER": 3834,
      "Ġunique": 3835,
      "engine": 3836,
      "convert": 3837,
      "Ġcomponent": 3838,
      "disk": 3839,
      "cfg": 3840,
      "rf": 3841,
      "reed": 3842,
      "Ġfoo": 3843,
      "sole": 3844,
      "sentry": 3845,
      "Multi": 3846,
      "Ġdocumentation": 3847,
      "ULL": 3848,
      "END": 3849,
      "cret": 3850,
      "Ġpattern": 3851,
      "ĠList": 3852,
      "hould": 3853,
      "ĠKIND": 3854,
      "FLAG": 3855,
      "Ġbyte": 3856,
      "DIT": 3857,
      "some": 3858,
      "Ġjob": 3859,
      "ority": 3860,
      "Ġctx": 3861,
      "pair": 3862,
      "irtual": 3863,
      "orter": 3864,
      "Ġarch": 3865,
      "gorithm": 3866,
      "paths": 3867,
      "feed": 3868,
      "gh": 3869,
      "route": 3870,
      "atter": 3871,
      "ĠParameters": 3872,
      "COL": 3873,
      "rations": 3874,
      "Ġ})": 3875,
      "Ġfake": 3876,
      "remote": 3877,
      "Met": 3878,
      "tivi": 3879,
      "bd": 3880,
      "rer": 3881,
      "Warning": 3882,
      "Ġrelative": 3883,
      "00000000": 3884,
      "ĠĠĠĠĠĠĠĠĠĠ": 3885,
      "']),": 3886,
      "Ġinvalid": 3887,
      "Ġwo": 3888,
      "grid": 3889,
      "respon": 3890,
      "adding": 3891,
      "sto": 3892,
      "Ġgen": 3893,
      "Ġmig": 3894,
      "cla": 3895,
      "folder": 3896,
      "Tree": 3897,
      "Ġboth": 3898,
      "Access": 3899,
      ")])": 3900,
      "Ġremote": 3901,
      "Ġstore": 3902,
      "hs": 3903,
      "ancel": 3904,
      "Ġrunning": 3905,
      "ving": 3906,
      "matic": 3907,
      "tains": 3908,
      "Ġ\"-": 3909,
      "'re": 3910,
      "Ġpi": 3911,
      "=',": 3912,
      "ground": 3913,
      "Ġdf": 3914,
      "Ġcursor": 3915,
      "Color": 3916,
      "Ġenumerate": 3917,
      "PUT": 3918,
      "Ġclose": 3919,
      "gl": 3920,
      "Ġreport": 3921,
      "provider": 3922,
      "If": 3923,
      "exceptions": 3924,
      "Ġinstall": 3925,
      "Ġsubprocess": 3926,
      "lang": 3927,
      "reset": 3928,
      "this": 3929,
      "ĠRa": 3930,
      "ĠLicensed": 3931,
      "Array": 3932,
      "vari": 3933,
      "DATA": 3934,
      "light": 3935,
      "IX": 3936,
      "cursor": 3937,
      "Ġsql": 3938,
      "icro": 3939,
      "Ġelements": 3940,
      "Ġrep": 3941,
      "Ġsplit": 3942,
      "ifest": 3943,
      "'[": 3944,
      "System": 3945,
      "Ġopts": 3946,
      "ĠQt": 3947,
      "sym": 3948,
      "Ġorig": 3949,
      "Ġcap": 3950,
      "ĊĠĠĠĠĠĠĠĠĠĠĠĠĠĠĠĠĠĠĠĠĠĠĠĠĠĠĠĠĠĠĠĠĠĠĠĠ": 3951,
      "ĠGo": 3952,
      "cii": 3953,
      "Ġtheir": 3954,
      "URE": 3955,
      "lookup": 3956,
      "fg": 3957,
      "]])": 3958,
      "sten": 3959,
      "DateTime": 3960,
      "Param": 3961,
      "Ġ\",": 3962,
      "Ġbuf": 3963,
      "false": 3964,
      "Ġcannot": 3965,
      "rection": 3966,
      "heet": 3967,
      "253": 3968,
      "MPL": 3969,
      "Entry": 3970,
      "ping": 3971,
      "cks": 3972,
      "IR": 3973,
      "async": 3974,
      "Ġapplicable": 3975,
      "GR": 3976,
      "force": 3977,
      "Container": 3978,
      "created": 3979,
      "agent": 3980,
      "tex": 3981,
      "gy": 3982,
      "########################################################################": 3983,
      "'\"": 3984,
      "Ġclasses": 3985,
      "LICENSE": 3986,
      "tz": 3987,
      "Ġwould": 3988,
      "SION": 3989,
      "warn": 3990,
      "Ġ\"<": 3991,
      "partner": 3992,
      "POST": 3993,
      "Ġmarker": 3994,
      "sd": 3995,
      "css": 3996,
      "([[": 3997,
      "()),": 3998,
      "acy": 3999,
      "Ġ::": 4000,
      "([])": 4001,
      "[:,": 4002,
      "Ġ'')": 4003,
      "Ġwho": 4004,
      "IntegerField": 4005,
      "inja": 4006,
      "rency": 4007,
      "Ġconvert": 4008,
      "UTH": 4009,
      "xture": 4010,
      "ĠData": 4011,
      "Ġthrough": 4012,
      "MET": 4013,
      "Change": 4014,
      "iases": 4015,
      "ĠTo": 4016,
      "Tensor": 4017,
      "bad": 4018,
      "ithub": 4019,
      "()))": 4020,
      "greg": 4021,
      "Ġunit": 4022,
      "voice": 4023,
      "FTWARE": 4024,
      "Ġwidget": 4025,
      "lear": 4026,
      "Ġurllib": 4027,
      "undle": 4028,
      "PAR": 4029,
      "timestamp": 4030,
      "Boolean": 4031,
      "Ġsince": 4032,
      "Ġvm": 4033,
      "constant": 4034,
      "aml": 4035,
      "=-": 4036,
      "Ġok": 4037,
      "uation": 4038,
      "Ġpossible": 4039,
      "Ġvideo": 4040,
      "sig": 4041,
      "Ġwhat": 4042,
      "uring": 4043,
      "agement": 4044,
      "crement": 4045,
      "Ġprotocol": 4046,
      "LOG": 4047,
      "Ġbased": 4048,
      "Ġagain": 4049,
      "sequence": 4050,
      "FC": 4051,
      "pg": 4052,
      "Parse": 4053,
      "ourse": 4054,
      "Ġpool": 4055,
      "cing": 4056,
      "Ġevery": 4057,
      "pare": 4058,
      "mig": 4059,
      "VIC": 4060,
      ")\",": 4061,
      "tten": 4062,
      "cluster": 4063,
      "Ġsto": 4064,
      "ĠOn": 4065,
      "Ġassoci": 4066,
      "Ġdistribution": 4067,
      "Helper": 4068,
      "Ġgenerated": 4069,
      "127": 4070,
      "ritems": 4071,
      "apter": 4072,
      "Interface": 4073,
      "Ġbound": 4074,
      "ferences": 4075,
      "Ġmove": 4076,
      "Ġshort": 4077,
      "ordin": 4078,
      "Ġexpress": 4079,
      "ACE": 4080,
      "Ġ----": 4081,
      "ĠMake": 4082,
      "itor": 4083,
      "Ġexpression": 4084,
      "PC": 4085,
      "Ġhand": 4086,
      "Ġqueue": 4087,
      "cell": 4088,
      "eeded": 4089,
      "Resource": 4090,
      "utor": 4091,
      "Ġest": 4092,
      "Ġdiff": 4093,
      "ĠGL": 4094,
      "umeric": 4095,
      "span": 4096,
      "fp": 4097,
      "ĠKeyError": 4098,
      "256": 4099,
      "ĠWhen": 4100,
      "ĊĠĠĠĠĠĠĠĠĠĠĠĠĠĠĠĠĠĠĠĠĠĠĠĠĠĠĠĠĠĠĠĠĠĠĠĠĠ": 4101,
      "Ġinputs": 4102,
      "Filter": 4103,
      "criptor": 4104,
      "XML": 4105,
      "Many": 4106,
      "ĠHTML": 4107,
      "endswith": 4108,
      "Ġauthor": 4109,
      "hex": 4110,
      "enable": 4111,
      "Ġ11": 4112,
      "Ġprevious": 4113,
      "Ġsort": 4114,
      "ĠAR": 4115,
      "Ġour": 4116,
      "Ġlayer": 4117,
      "Ġ----------": 4118,
      ",)": 4119,
      "Ġstri": 4120,
      "Ġcontents": 4121,
      "Update": 4122,
      "Ġmer": 4123,
      "čĊĉ": 4124,
      "leg": 4125,
      "ASE": 4126,
      "RefCount": 4127,
      "(%": 4128,
      "Ġsuch": 4129,
      "tc": 4130,
      "assertIn": 4131,
      "ORS": 4132,
      "Ġ15": 4133,
      "MAX": 4134,
      "NetDevice": 4135,
      "simple": 4136,
      "Ġloc": 4137,
      "Template": 4138,
      "eq": 4139,
      "gger": 4140,
      "RECT": 4141,
      "ĠSOFTWARE": 4142,
      "faces": 4143,
      "home": 4144,
      "Ġrequests": 4145,
      "Ġproto": 4146,
      ">',": 4147,
      "Ġvalidate": 4148,
      "Ġcontainer": 4149,
      "ĠTH": 4150,
      "Ġdirect": 4151,
      "ssl": 4152,
      "Ġ30": 4153,
      "pose": 4154,
      "descriptor": 4155,
      "lain": 4156,
      "center": 4157,
      "enter": 4158,
      "custom": 4159,
      "spa": 4160,
      "Ġcharacters": 4161,
      "flag": 4162,
      "ragment": 4163,
      "ĠAS": 4164,
      "ĠBAS": 4165,
      "lt": 4166,
      "lim": 4167,
      "Ġvari": 4168,
      "Ġsetting": 4169,
      "urllib": 4170,
      "Ġscope": 4171,
      "export": 4172,
      "upper": 4173,
      "Ġcompliance": 4174,
      "orig": 4175,
      "master": 4176,
      "ĠConfig": 4177,
      "Ġrelated": 4178,
      "dumps": 4179,
      "generate": 4180,
      "DF": 4181,
      "SimpleRefCount": 4182,
      "BO": 4183,
      "ĠUnless": 4184,
      "PRE": 4185,
      "chedu": 4186,
      "Ġlicense": 4187,
      "Ġhttps": 4188,
      ".%": 4189,
      "six": 4190,
      "DITIONS": 4191,
      "views": 4192,
      "Ġpair": 4193,
      "zeros": 4194,
      "events": 4195,
      "dn": 4196,
      "vation": 4197,
      "Ġlaw": 4198,
      "defined": 4199,
      "blocks": 4200,
      "Ġ_('": 4201,
      "Ġdouble": 4202,
      "Ġjoin": 4203,
      "Ġfinal": 4204,
      "Ġ[('": 4205,
      "Ġagreed": 4206,
      "Ġparts": 4207,
      "Ġmissing": 4208,
      "Sy": 4209,
      "Ġinit": 4210,
      "ignore": 4211,
      "\"].": 4212,
      "SO": 4213,
      "private": 4214,
      "Ġlimitations": 4215,
      "Ġgoverning": 4216,
      "entication": 4217,
      "ĠBASIS": 4218,
      "parts": 4219,
      "Ge": 4220,
      "font": 4221,
      "Ġsepar": 4222,
      "cloud": 4223,
      "ĠCONDITIONS": 4224,
      "UE": 4225,
      "128": 4226,
      "interval": 4227,
      "sep": 4228,
      "lavor": 4229,
      "Ġph": 4230,
      "vector": 4231,
      "Ġidx": 4232,
      "found": 4233,
      "Ġnotice": 4234,
      "Gui": 4235,
      "layout": 4236,
      "Descriptor": 4237,
      "dar": 4238,
      "chine": 4239,
      "WS": 4240,
      "DES": 4241,
      "Ġcopyright": 4242,
      "download": 4243,
      "PT": 4244,
      "AutoField": 4245,
      "ĠAttributeError": 4246,
      "++": 4247,
      "IE": 4248,
      "Wifi": 4249,
      "elif": 4250,
      "BUG": 4251,
      "Ġkeep": 4252,
      "Ġplatform": 4253,
      "Ġoverride": 4254,
      "rew": 4255,
      "ffero": 4256,
      "ĠAffero": 4257,
      "ĠST": 4258,
      "Port": 4259,
      "MB": 4260,
      "mbols": 4261,
      "Qt": 4262,
      "require": 4263,
      "holder": 4264,
      "STAT": 4265,
      "Window": 4266,
      "akes": 4267,
      "tivity": 4268,
      "Pa": 4269,
      "Ġdone": 4270,
      "LL": 4271,
      "Button": 4272,
      "Ġsc": 4273,
      "bi": 4274,
      "Ġ>>": 4275,
      "Ġed": 4276,
      "Mixin": 4277,
      "Ġplace": 4278,
      "filters": 4279,
      "resses": 4280,
      "ipv": 4281,
      "Ġspecify": 4282,
      "loss": 4283,
      "Ġotherwise": 4284,
      "1234": 4285,
      "Ġfn": 4286,
      "basic": 4287,
      "Ġappro": 4288,
      "IPT": 4289,
      "hostname": 4290,
      "Ġlookup": 4291,
      "Deleter": 4292,
      "feature": 4293,
      "'^": 4294,
      "rules": 4295,
      "Max": 4296,
      "arge": 4297,
      "uplic": 4298,
      "bf": 4299,
      "peed": 4300,
      "EG": 4301,
      "lass": 4302,
      "inition": 4303,
      "ĠPo": 4304,
      "Ġ14": 4305,
      "Failed": 4306,
      "////////////////////////////////": 4307,
      "ĠOS": 4308,
      "__.": 4309,
      "Ġpylint": 4310,
      "utes": 4311,
      "Ġoperator": 4312,
      "Ġapplication": 4313,
      "ĠNotImplementedError": 4314,
      ",\\": 4315,
      "rpc": 4316,
      "Ġschema": 4317,
      "Ġdefaults": 4318,
      "Ġfp": 4319,
      "iver": 4320,
      "CLUD": 4321,
      "Ġcould": 4322,
      "after": 4323,
      "Label": 4324,
      "iso": 4325,
      "pendency": 4326,
      "Ġword": 4327,
      "Ġdisc": 4328,
      "Ġkeyword": 4329,
      "spatch": 4330,
      "Ġexpect": 4331,
      "Ġindent": 4332,
      "Ġnamed": 4333,
      "uted": 4334,
      "Ġcluster": 4335,
      "almost": 4336,
      "ĠOr": 4337,
      "One": 4338,
      "Ġmetri": 4339,
      "PER": 4340,
      "eek": 4341,
      "chain": 4342,
      "integer": 4343,
      "Ġallowed": 4344,
      "CRIPT": 4345,
      "DEL": 4346,
      "Ġcorrespon": 4347,
      "Ġcolumns": 4348,
      "ished": 4349,
      "Ġoc": 4350,
      "Ġneeded": 4351,
      "001": 4352,
      "come": 4353,
      "Ġops": 4354,
      "indices": 4355,
      "img": 4356,
      "ites": 4357,
      "SA": 4358,
      "ctories": 4359,
      "UTE": 4360,
      "Ġrequire": 4361,
      ">\"": 4362,
      "pointer": 4363,
      "Ġloop": 4364,
      "8859": 4365,
      "Ġ32": 4366,
      "Ġdimen": 4367,
      "az": 4368,
      "optional": 4369,
      "rot": 4370,
      "tact": 4371,
      "Ġpid": 4372,
      "Ġchanges": 4373,
      "SIZE": 4374,
      "Ġrv": 4375,
      "ness": 4376,
      "Ġsim": 4377,
      "choices": 4378,
      "tenant": 4379,
      "fici": 4380,
      "anti": 4381,
      "='',": 4382,
      "entity": 4383,
      "done": 4384,
      "'\",": 4385,
      "rl": 4386,
      "Open": 4387,
      "umb": 4388,
      "CHE": 4389,
      "library": 4390,
      "123": 4391,
      "resp": 4392,
      "pan": 4393,
      "Ġexit": 4394,
      "layers": 4395,
      "Ġ(%": 4396,
      ")],": 4397,
      "MENT": 4398,
      "zero": 4399,
      "Ġ\"--": 4400,
      "ĊĊĊ": 4401,
      "aved": 4402,
      "contents": 4403,
      "outputs": 4404,
      "ĠBO": 4405,
      "Exten": 4406,
      "Ġsm": 4407,
      "_.": 4408,
      "CLUDING": 4409,
      "intern": 4410,
      "nn": 4411,
      "IMIT": 4412,
      "Target": 4413,
      "Ġhref": 4414,
      "cessed": 4415,
      "ynam": 4416,
      "ĠSH": 4417,
      "menu": 4418,
      "Impl": 4419,
      "Ġeq": 4420,
      "ones": 4421,
      "ĠText": 4422,
      "Ġway": 4423,
      "ascii": 4424,
      "month": 4425,
      "security": 4426,
      "reference": 4427,
      "LOCK": 4428,
      "ĠMock": 4429,
      "Ġplt": 4430,
      "gative": 4431,
      "Ġmac": 4432,
      "rtype": 4433,
      "times": 4434,
      "ĠOTH": 4435,
      "chunk": 4436,
      "\\.": 4437,
      "ARY": 4438,
      "lat": 4439,
      "commands": 4440,
      "enerp": 4441,
      "Ġbar": 4442,
      "links": 4443,
      "DR": 4444,
      "unct": 4445,
      "ä¸": 4446,
      "Ġmatches": 4447,
      "Ġevents": 4448,
      "Ġker": 4449,
      "sparse": 4450,
      "Network": 4451,
      "resources": 4452,
      "override": 4453,
      "ĠGoogle": 4454,
      "Ġdesc": 4455,
      "nan": 4456,
      "Wrapper": 4457,
      "liter": 4458,
      "Ġfi": 4459,
      "Ġ\"__": 4460,
      "čĊčĊĠĠĠĠĠĠĠ": 4461,
      "('--": 4462,
      "ea": 4463,
      "havi": 4464,
      "Logger": 4465,
      "free": 4466,
      "ĠCONTR": 4467,
      "defaults": 4468,
      "Ġrights": 4469,
      "ĠQgs": 4470,
      "PY": 4471,
      "owner": 4472,
      "$',": 4473,
      "Ġtokens": 4474,
      "suffix": 4475,
      "Ġsess": 4476,
      "ĠFROM": 4477,
      "numpy": 4478,
      "creen": 4479,
      "particle": 4480,
      "ĠĠĠĠĠĠĠĠĠĠĠĠĠĠĠ": 4481,
      "second": 4482,
      "where": 4483,
      "fill": 4484,
      "ITE": 4485,
      "ventory": 4486,
      "Ġretri": 4487,
      "mitted": 4488,
      "imator": 4489,
      "Ġgenerator": 4490,
      "dat": 4491,
      "reverse": 4492,
      "Ġmemory": 4493,
      "ĊĠĠĠĠĠĠĠĠĠĠĠĠĠĠĠĠĠĠĠĠĠĠĠĠĠĠĠĠĠĠĠĠĠĠĠĠĠĠ": 4494,
      "reshold": 4495,
      "sleep": 4496,
      "Ġusage": 4497,
      "ĠAd": 4498,
      "Ġdt": 4499,
      "Ġwithin": 4500,
      "Ġuses": 4501,
      "nored": 4502,
      "Ġmapping": 4503,
      "PS": 4504,
      "INFO": 4505,
      "ĠError": 4506,
      "memory": 4507,
      "grade": 4508,
      "Ġproperties": 4509,
      "ĠMA": 4510,
      "seconds": 4511,
      "exist": 4512,
      "Ġconstant": 4513,
      "Ġspecial": 4514,
      "[:-": 4515,
      "correct": 4516,
      "media": 4517,
      "\\'": 4518,
      "pytest": 4519,
      "Ġwindow": 4520,
      "Ġforms": 4521,
      "\"'": 4522,
      "rp": 4523,
      "``.": 4524,
      "tected": 4525,
      "Match": 4526,
      "ĠAl": 4527,
      "ĠAc": 4528,
      "Ġinstances": 4529,
      "VENT": 4530,
      "Session": 4531,
      "marker": 4532,
      "docs": 4533,
      "EC": 4534,
      "tokens": 4535,
      "Cache": 4536,
      "(\"\\": 4537,
      "TypeError": 4538,
      "Ġstderr": 4539,
      "pkg": 4540,
      "omment": 4541,
      "Ġusers": 4542,
      "peline": 4543,
      "zz": 4544,
      "Ġstandard": 4545,
      "Ġupdated": 4546,
      "virt": 4547,
      "ram": 4548,
      "Ġcharacter": 4549,
      "Ġpublic": 4550,
      "Ġimplementation": 4551,
      "soft": 4552,
      "USE": 4553,
      "cols": 4554,
      "Ġreason": 4555,
      "Ġequal": 4556,
      "angle": 4557,
      "tio": 4558,
      "sertion": 4559,
      "Cho": 4560,
      "alt": 4561,
      "ME": 4562,
      "Wor": 4563,
      "ummy": 4564,
      "quested": 4565,
      "Thread": 4566,
      "ons": 4567,
      "Ġcoun": 4568,
      "Column": 4569,
      "Ġtran": 4570,
      "Ġproxy": 4571,
      "alpha": 4572,
      ",),": 4573,
      "Prefix": 4574,
      "available": 4575,
      "images": 4576,
      "Ġcompute": 4577,
      "Ġspace": 4578,
      "cert": 4579,
      "ighb": 4580,
      "NOT": 4581,
      "amount": 4582,
      "dom": 4583,
      "norm": 4584,
      "Ġfeatures": 4585,
      "cores": 4586,
      "pick": 4587,
      "------------": 4588,
      "Ġ['_": 4589,
      "herit": 4590,
      "Ġcallable": 4591,
      "signal": 4592,
      "Min": 4593,
      "Ġdetermin": 4594,
      "Ġrelease": 4595,
      "New": 4596,
      "loaded": 4597,
      "sibility": 4598,
      "Ġparsed": 4599,
      "ars": 4600,
      "DateTimeField": 4601,
      "Ġcategory": 4602,
      "ynamic": 4603,
      "SY": 4604,
      "aris": 4605,
      "nected": 4606,
      "Ġwin": 4607,
      "lour": 4608,
      "##############################################################################": 4609,
      "ached": 4610,
      "stant": 4611,
      "learn": 4612,
      "backend": 4613,
      "Ġassociated": 4614,
      "browse": 4615,
      "Ġpop": 4616,
      "Ġmean": 4617,
      "ia": 4618,
      "Ġpolicy": 4619,
      "ified": 4620,
      "Empty": 4621,
      "ĊĠĠĠĠĠĠĠĠĠĠĠĠĠĠĠĠĠĠĠĠĠĠĠĠĠĠĠĠĠĠĠĠĠĠĠĠĠĠĠĠĠĠĠ": 4622,
      "istration": 4623,
      "Ġpoints": 4624,
      "super": 4625,
      "proc": 4626,
      "wifi": 4627,
      "Ġpredi": 4628,
      "aterial": 4629,
      "Ġprofile": 4630,
      "database": 4631,
      "Ġredirect": 4632,
      "bucket": 4633,
      "Ġlet": 4634,
      "Back": 4635,
      "Ġfilters": 4636,
      "unded": 4637,
      "Ġinte": 4638,
      "internet": 4639,
      "Ġrc": 4640,
      "Ġbit": 4641,
      "boot": 4642,
      "states": 4643,
      "prop": 4644,
      "Ġadmin": 4645,
      ",\"": 4646,
      "Unit": 4647,
      "Ġreserved": 4648,
      "Ġtr": 4649,
      "Ġrole": 4650,
      "struction": 4651,
      "Ġtool": 4652,
      "staticmethod": 4653,
      "depth": 4654,
      "Ġoutputs": 4655,
      "+'": 4656,
      "iteritems": 4657,
      "Options": 4658,
      "AttributeChecker": 4659,
      "Length": 4660,
      "internal": 4661,
      "titem": 4662,
      "ĠValid": 4663,
      "ĠCOP": 4664,
      "ĠTh": 4665,
      "IF": 4666,
      "uting": 4667,
      "VERSION": 4668,
      "Ġdivision": 4669,
      "Ġsignal": 4670,
      "Ġmodules": 4671,
      "Ġrules": 4672,
      "SQL": 4673,
      "unch": 4674,
      "Ġseconds": 4675,
      "ĠApp": 4676,
      "company": 4677,
      "Pri": 4678,
      "Ġgroups": 4679,
      "gment": 4680,
      "lots": 4681,
      "Ġfeed": 4682,
      "Ġhow": 4683,
      "Ġpytest": 4684,
      "mapping": 4685,
      "Ġaccept": 4686,
      "rank": 4687,
      "Ġanother": 4688,
      "OO": 4689,
      "REE": 4690,
      "Ne": 4691,
      "ĠXML": 4692,
      ",))": 4693,
      "byte": 4694,
      "gle": 4695,
      "question": 4696,
      "Ġentity": 4697,
      "ĠReg": 4698,
      "Admin": 4699,
      "alle": 4700,
      "Task": 4701,
      "Ġscale": 4702,
      "(('": 4703,
      "____": 4704,
      "ĠTime": 4705,
      "Ġ])": 4706,
      "[^": 4707,
      "Ġheight": 4708,
      "ĠLOG": 4709,
      "Core": 4710,
      "Ġtoo": 4711,
      "Python": 4712,
      "generator": 4713,
      "drop": 4714,
      "Ġlogin": 4715,
      "xn": 4716,
      "Ġrepr": 4717,
      "cription": 4718,
      "ĠMan": 4719,
      "assertAll": 4720,
      "Graph": 4721,
      "clar": 4722,
      "Ġhigh": 4723,
      "sources": 4724,
      "summary": 4725,
      "components": 4726,
      "rays": 4727,
      "rence": 4728,
      "ugc": 4729,
      "facts": 4730,
      "Level": 4731,
      "fb": 4732,
      "tty": 4733,
      "gments": 4734,
      "ĠEN": 4735,
      "dic": 4736,
      "Fail": 4737,
      "Ġrows": 4738,
      "ĠHttp": 4739,
      "Rule": 4740,
      "]):": 4741,
      "Byte": 4742,
      "SL": 4743,
      "strict": 4744,
      "Op": 4745,
      "secs": 4746,
      "('<": 4747,
      "assertNot": 4748,
      "Ġactive": 4749,
      "lap": 4750,
      "DefaultDeleter": 4751,
      "Close": 4752,
      ".\",": 4753,
      "missing": 4754,
      "gits": 4755,
      "ĠSub": 4756,
      "Ġlock": 4757,
      "NotFound": 4758,
      "Ġrel": 4759,
      "nb": 4760,
      "Ġescape": 4761,
      "Ġhead": 4762,
      "FE": 4763,
      "uate": 4764,
      "Ġadditional": 4765,
      "Ġdecode": 4766,
      "Ġgot": 4767,
      "eve": 4768,
      "transform": 4769,
      "ptr": 4770,
      "GE": 4771,
      "Exp": 4772,
      "Ġentries": 4773,
      "note": 4774,
      "Ġtargets": 4775,
      "ĠMode": 4776,
      "csv": 4777,
      "asis": 4778,
      "/>.": 4779,
      "Lib": 4780,
      "fr": 4781,
      "router": 4782,
      "Ġblank": 4783,
      "amma": 4784,
      "Ġzero": 4785,
      "Ġcfg": 4786,
      "named": 4787,
      "cheduler": 4788,
      "atible": 4789,
      "click": 4790,
      "Ġdataset": 4791,
      "Ġmost": 4792,
      "publish": 4793,
      "break": 4794,
      "complete": 4795,
      "rong": 4796,
      "icon": 4797,
      "Ġdriver": 4798,
      "verify": 4799,
      "single": 4800,
      "UBLE": 4801,
      "framework": 4802,
      "Proxy": 4803,
      "TIME": 4804,
      "ĠLog": 4805,
      "region": 4806,
      "Policy": 4807,
      "rappe": 4808,
      "SELECT": 4809,
      "scal": 4810,
      "define": 4811,
      "Ġbackend": 4812,
      "Sec": 4813,
      "Ġdisk": 4814,
      "testing": 4815,
      "Ġvia": 4816,
      "ĠUSE": 4817,
      "secret": 4818,
      "Ġ64": 4819,
      "support": 4820,
      "Ġmatching": 4821,
      "ansible": 4822,
      "days": 4823,
      "Ġpe": 4824,
      "Ġstorage": 4825,
      "yes": 4826,
      "Ġregion": 4827,
      "amily": 4828,
      "Ġremoved": 4829,
      "factor": 4830,
      "configuration": 4831,
      "wards": 4832,
      "MIN": 4833,
      "just": 4834,
      "logging": 4835,
      "Ġneeds": 4836,
      "Ġfont": 4837,
      "ĠNumber": 4838,
      "sn": 4839,
      "ĠOptional": 4840,
      "gether": 4841,
      "mpy": 4842,
      "Edit": 4843,
      "ĠĠĠĠĠĠĠĠĠĠĠĠĠ": 4844,
      "poch": 4845,
      "upload": 4846,
      "sitory": 4847,
      ":'": 4848,
      "Project": 4849,
      "Layout": 4850,
      "Ġenable": 4851,
      "FLAGS": 4852,
      "atten": 4853,
      "Ġkw": 4854,
      "Ġ'$": 4855,
      "Ġinstalled": 4856,
      "Ġensure": 4857,
      "Ġsuffix": 4858,
      "track": 4859,
      "ĠBu": 4860,
      "pure": 4861,
      "RandomVariable": 4862,
      "Range": 4863,
      "Ġautomatic": 4864,
      "rq": 4865,
      "Order": 4866,
      "/'": 4867,
      "Ġsite": 4868,
      "Ġsent": 4869,
      "__()": 4870,
      "Ġweights": 4871,
      "Reference": 4872,
      "Struct": 4873,
      "tist": 4874,
      "raft": 4875,
      "canvas": 4876,
      "abspath": 4877,
      "Ġwrap": 4878,
      "~~~~~~~~": 4879,
      "ĠNO": 4880,
      "arguments": 4881,
      "ado": 4882,
      "ĠNode": 4883,
      "Ġmeans": 4884,
      "(\"\"\"": 4885,
      "(\"/": 4886,
      "ONE": 4887,
      "alk": 4888,
      "culate": 4889,
      "Ġdev": 4890,
      "redirect": 4891,
      "IAL": 4892,
      "mpt": 4893,
      "Ġenum": 4894,
      "ĠDRAW": 4895,
      "Ġbad": 4896,
      "ros": 4897,
      "atterns": 4898,
      "Ġ13": 4899,
      "targets": 4900,
      "ĠBOX": 4901,
      "road": 4902,
      "ĠJSON": 4903,
      "ilt": 4904,
      "Sto": 4905,
      "apps": 4906,
      "ĠBy": 4907,
      "failed": 4908,
      "Ġcop": 4909,
      "osv": 4910,
      "Ġcalls": 4911,
      "SV": 4912,
      "before": 4913,
      "cv": 4914,
      "Ġ'[": 4915,
      "roy": 4916,
      "basename": 4917,
      "Copy": 4918,
      "ĠDRAWINGS": 4919,
      "Ġstats": 4920,
      "FORMAT": 4921,
      "duction": 4922,
      "rectories": 4923,
      "Ġcomplete": 4924,
      "price": 4925,
      "Ġapply": 4926,
      "kernel": 4927,
      "....": 4928,
      "'d": 4929,
      "|'": 4930,
      "Exec": 4931,
      "_)": 4932,
      "Ġchildren": 4933,
      "distribution": 4934,
      "}}": 4935,
      "urnal": 4936,
      "ĠRequest": 4937,
      "Ġ-=": 4938,
      "Ġ50": 4939,
      "ferred": 4940,
      "pn": 4941,
      "enum": 4942,
      "Ġconnect": 4943,
      "asure": 4944,
      "ĠUp": 4945,
      "actor": 4946,
      "attach": 4947,
      "sock": 4948,
      "ĊĊĠĠĠĠĠĠĠĠĠĠĠĠĠĠĠĠĠĠĠ": 4949,
      "rb": 4950,
      "ural": 4951,
      "Ġgyp": 4952,
      "Ġoccur": 4953,
      "extract": 4954,
      "logy": 4955,
      ".)": 4956,
      "Sup": 4957,
      "\\\"": 4958,
      "Mask": 4959,
      "Ġwrapper": 4960,
      "arted": 4961,
      "branch": 4962,
      "(?:": 4963,
      "shift": 4964,
      "details": 4965,
      "Ġtrack": 4966,
      "*.": 4967,
      "Ġwere": 4968,
      "orary": 4969,
      "Ġverify": 4970,
      "serve": 4971,
      "supported": 4972,
      "boolean": 4973,
      "sid": 4974,
      "Ġprob": 4975,
      "tasks": 4976,
      "payload": 4977,
      "analy": 4978,
      "Ġindices": 4979,
      ")(": 4980,
      "vol": 4981,
      "ga": 4982,
      "Ġselected": 4983,
      "Ġalpha": 4984,
      "wrapper": 4985,
      "Ġitera": 4986,
      "ence": 4987,
      "UID": 4988,
      "assign": 4989,
      "Ġcell": 4990,
      "vid": 4991,
      "Ġpermission": 4992,
      "Ġtimestamp": 4993,
      "ĠSIGN": 4994,
      "Ġperson": 4995,
      "ĠOTHER": 4996,
      "snapshot": 4997,
      "ISE": 4998,
      "mem": 4999,
      "weights": 5000,
      "ĠRE": 5001,
      "github": 5002,
      "mbo": 5003,
      "Ġsymbol": 5004,
      "``,": 5005,
      "hello": 5006,
      "cached": 5007,
      "_%": 5008,
      "Ġsignature": 5009,
      "Ġissue": 5010,
      "Metadata": 5011,
      "Ext": 5012,
      "game": 5013,
      "Ġalias": 5014,
      "Ġoutfile": 5015,
      "Ġxrange": 5016,
      "Ġ))": 5017,
      "}\\": 5018,
      "ough": 5019,
      "Ġoprot": 5020,
      "poly": 5021,
      "nu": 5022,
      "final": 5023,
      "ĠMy": 5024,
      "Application": 5025,
      "čĊĠĠĠĠĠĠĠĠĠĠĠĠĠĠĠĠĠĠĠ": 5026,
      "__.__": 5027,
      "ĊĠĠĠĠĠĠĠĠĠĠĠĠĠĠĠĠĠĠĠĠĠĠĠĠĠĠĠĠĠĠĠĠĠĠĠĠĠĠĠĠĠ": 5028,
      "Ġraised": 5029,
      "ony": 5030,
      "']]],": 5031,
      "tt": 5032,
      "Ġutil": 5033,
      "moves": 5034,
      "Host": 5035,
      "101": 5036,
      "Ġawait": 5037,
      "mediate": 5038,
      "HTML": 5039,
      "Ġ{})": 5040,
      "sync": 5041,
      "sha": 5042,
      "ĠIMP": 5043,
      "Comm": 5044,
      "external": 5045,
      "Ġprev": 5046,
      "repe": 5047,
      "Ġplot": 5048,
      "gb": 5049,
      "Ġsupp": 5050,
      "BooleanField": 5051,
      "fmt": 5052,
      "LIST": 5053,
      "Pass": 5054,
      "bal": 5055,
      "Ġmany": 5056,
      "Ġtar": 5057,
      "Ġexpr": 5058,
      "TL": 5059,
      "()):": 5060,
      "dr": 5061,
      "Enum": 5062,
      "']))": 5063,
      "Ġinternal": 5064,
      "Ġfolder": 5065,
      "Stack": 5066,
      "subnet": 5067,
      "Ġrest": 5068,
      "tities": 5069,
      "ĠLIC": 5070,
      "Ġworks": 5071,
      "Ġexceptions": 5072,
      "Parameter": 5073,
      "dius": 5074,
      "YPE": 5075,
      "fabric": 5076,
      "inf": 5077,
      "wis": 5078,
      "gp": 5079,
      "android": 5080,
      "vis": 5081,
      "Ċĉĉĉĉĉ": 5082,
      "Ġjo": 5083,
      "Ġexplicit": 5084,
      "once": 5085,
      "FIL": 5086,
      "Regex": 5087,
      "FIX": 5088,
      "Sign": 5089,
      ";':": 5090,
      "ĠIO": 5091,
      "ium": 5092,
      "TF": 5093,
      "kip": 5094,
      "Ġdst": 5095,
      "3333": 5096,
      "=\"\"": 5097,
      "Ø§": 5098,
      "Ġ60": 5099,
      "expect": 5100,
      "SC": 5101,
      "big": 5102,
      "Ġcollections": 5103,
      "Ġ255": 5104,
      "Flow": 5105,
      "apply": 5106,
      "Ġ-.": 5107,
      "Ġshell": 5108,
      "edge": 5109,
      "pted": 5110,
      "flush": 5111,
      "SG": 5112,
      "Ġboolean": 5113,
      "Ġtx": 5114,
      "exer": 5115,
      "choice": 5116,
      "expand": 5117,
      "Ġcli": 5118,
      "Ġ\"#": 5119,
      "VICE": 5120,
      "Ġkind": 5121,
      "Ġmp": 5122,
      "Ġbelow": 5123,
      "Ġmanager": 5124,
      "cos": 5125,
      "hass": 5126,
      "tar": 5127,
      "uest": 5128,
      "ĠLICENSE": 5129,
      "Ġrequires": 5130,
      "uit": 5131,
      "()]": 5132,
      "Ġincluded": 5133,
      "registry": 5134,
      "didate": 5135,
      "unknown": 5136,
      "atrix": 5137,
      "sqrt": 5138,
      "ORY": 5139,
      "Bar": 5140,
      "Ġloader": 5141,
      "using": 5142,
      "DEBUG": 5143,
      "atom": 5144,
      "ressed": 5145,
      "IZ": 5146,
      "Rou": 5147,
      "hosts": 5148,
      "symbol": 5149,
      "udio": 5150,
      "Ġperform": 5151,
      "sur": 5152,
      "Ġ<<": 5153,
      "OLD": 5154,
      "Ġopenerp": 5155,
      "MD": 5156,
      "Sp": 5157,
      "term": 5158,
      "Ġcpu": 5159,
      "dl": 5160,
      "OPT": 5161,
      "Spec": 5162,
      "packages": 5163,
      "Ġ//": 5164,
      "lity": 5165,
      "Ġstill": 5166,
      "Ġans": 5167,
      "Ġins": 5168,
      "ĠLIMIT": 5169,
      "dst": 5170,
      "ĠField": 5171,
      "SSL": 5172,
      "zen": 5173,
      "Ð°": 5174,
      "Ġsparse": 5175,
      "translate": 5176,
      "Ġasync": 5177,
      "+\"": 5178,
      "inx": 5179,
      "Ġprovider": 5180,
      "Ġep": 5181,
      "Ġbehavi": 5182,
      "ceive": 5183,
      "ier": 5184,
      "Ġsafe": 5185,
      "ficient": 5186,
      "Ġprimary": 5187,
      "Ġregex": 5188,
      "404": 5189,
      "../": 5190,
      "ETE": 5191,
      "IVE": 5192,
      "currency": 5193,
      "linux": 5194,
      "Ġnd": 5195,
      "ĠStringIO": 5196,
      "lendar": 5197,
      "ĠDAM": 5198,
      "calls": 5199,
      "cookie": 5200,
      "Tool": 5201,
      "gettext": 5202,
      "Ġenabled": 5203,
      "Select": 5204,
      "begin": 5205,
      "Ġdownload": 5206,
      "REQU": 5207,
      "ĠDI": 5208,
      "sgi": 5209,
      "Ġuntil": 5210,
      "1000": 5211,
      "dataset": 5212,
      "ATTR": 5213,
      "complex": 5214,
      "metric": 5215,
      "Ġkernel": 5216,
      "Ġbegin": 5217,
      "('.": 5218,
      "Ġpayload": 5219,
      "anner": 5220,
      "ANS": 5221,
      "Ġthose": 5222,
      "->": 5223,
      "Settings": 5224,
      "cluded": 5225,
      "Ġassign": 5226,
      "unic": 5227,
      "rup": 5228,
      "STRING": 5229,
      "Ġput": 5230,
      "Ġproblem": 5231,
      "peri": 5232,
      "rev": 5233,
      "Ġ1000": 5234,
      "CODE": 5235,
      "Argument": 5236,
      "ĠĊĠĠĠĠĠĠĠ": 5237,
      "tect": 5238,
      "arr": 5239,
      "Ġtraceback": 5240,
      "ota": 5241,
      "Layer": 5242,
      "iti": 5243,
      "istri": 5244,
      "timeError": 5245,
      "locale": 5246,
      "Ġfix": 5247,
      "ĠNet": 5248,
      "reshape": 5249,
      "Information": 5250,
      "Ġ[-": 5251,
      "Ġsl": 5252,
      "Ġ{},": 5253,
      "requen": 5254,
      "ĠON": 5255,
      "period": 5256,
      "em": 5257,
      "Ġcorresponding": 5258,
      ")).": 5259,
      "')]": 5260,
      "lack": 5261,
      "Ġconstants": 5262,
      "Ġshutil": 5263,
      "Ġuri": 5264,
      "Ġplay": 5265,
      "failure": 5266,
      "hand": 5267,
      "Ġbranch": 5268,
      "kind": 5269,
      "Ġreset": 5270,
      "inner": 5271,
      "cesses": 5272,
      "Ġsupports": 5273,
      "Ġ')": 5274,
      "BB": 5275,
      "([\"": 5276,
      "Local": 5277,
      "CTION": 5278,
      "itespace": 5279,
      "ii": 5280,
      "condition": 5281,
      "567": 5282,
      "cessary": 5283,
      "Ġiprot": 5284,
      "Channel": 5285,
      "power": 5286,
      "Ġyear": 5287,
      "ationError": 5288,
      "kes": 5289,
      "LED": 5290,
      "uni": 5291,
      "mag": 5292,
      "ĠColumn": 5293,
      "Ġmaster": 5294,
      "slug": 5295,
      "fname": 5296,
      "ks": 5297,
      "Wri": 5298,
      "Search": 5299,
      "ategy": 5300,
      "(',": 5301,
      "issue": 5302,
      "plan": 5303,
      "Ġleast": 5304,
      "Ġedit": 5305,
      "Ġidentifier": 5306,
      "warnings": 5307,
      "assifier": 5308,
      "inary": 5309,
      "Ġscal": 5310,
      "ĠDis": 5311,
      "LIED": 5312,
      "HEAD": 5313,
      "crypt": 5314,
      "ĠIMPLIED": 5315,
      "Ġsym": 5316,
      "}'.": 5317,
      "distance": 5318,
      "Ġattemp": 5319,
      "gation": 5320,
      "wisted": 5321,
      "lon": 5322,
      "itation": 5323,
      "Ġwritten": 5324,
      "updated": 5325,
      "Ġsig": 5326,
      "signature": 5327,
      "extensions": 5328,
      "transport": 5329,
      "acti": 5330,
      "plugins": 5331,
      "ĠDOUBLE": 5332,
      "mc": 5333,
      "allback": 5334,
      "Ġsubject": 5335,
      "seed": 5336,
      "ROOT": 5337,
      "Ġtimes": 5338,
      "HERE": 5339,
      "CUM": 5340,
      "ridge": 5341,
      "ench": 5342,
      "exclude": 5343,
      "ird": 5344,
      "Ġ'{": 5345,
      "AV": 5346,
      "strings": 5347,
      "lite": 5348,
      "Ġclear": 5349,
      "ied": 5350,
      "Ġduring": 5351,
      "HOST": 5352,
      "lert": 5353,
      "Off": 5354,
      "gregate": 5355,
      "ĊĠĠĠĠĠĠĠĠĊĠĠĠ": 5356,
      "DU": 5357,
      "Ġtab": 5358,
      "AUTH": 5359,
      "Ġcomb": 5360,
      "Plugin": 5361,
      "ĠDecimal": 5362,
      "COMM": 5363,
      "Ġctypes": 5364,
      "ĠGe": 5365,
      "LIB": 5366,
      "istered": 5367,
      "Remove": 5368,
      "Obj": 5369,
      "Ġexport": 5370,
      "Ġpkg": 5371,
      "DATE": 5372,
      "ĠBo": 5373,
      "Ġsetattr": 5374,
      "Ġsources": 5375,
      "handlers": 5376,
      "acc": 5377,
      "dp": 5378,
      "CONFIG": 5379,
      "Ġvisit": 5380,
      "rowser": 5381,
      "ffff": 5382,
      ")?": 5383,
      "Ġtake": 5384,
      "raries": 5385,
      "unpack": 5386,
      "ĠDoc": 5387,
      "Ġvol": 5388,
      "sr": 5389,
      ":`.": 5390,
      "tor": 5391,
      "Ġday": 5392,
      "tpg": 5393,
      "XXXX": 5394,
      "Document": 5395,
      "Ġfetch": 5396,
      "VID": 5397,
      "Ġrecur": 5398,
      "parameter": 5399,
      "MAP": 5400,
      "roadcast": 5401,
      "meth": 5402,
      "Print": 5403,
      "ading": 5404,
      "Ġfit": 5405,
      "Ġbucket": 5406,
      "ĠVer": 5407,
      "Ġtesting": 5408,
      "units": 5409,
      "ERT": 5410,
      "shared": 5411,
      "Ġsuite": 5412,
      "Pool": 5413,
      "ilities": 5414,
      "scribe": 5415,
      "Ġderi": 5416,
      "Accessor": 5417,
      "Ġseq": 5418,
      "999": 5419,
      "WORD": 5420,
      "revision": 5421,
      "Ġversions": 5422,
      "ĠBUT": 5423,
      "Make": 5424,
      "udo": 5425,
      "/{": 5426,
      "Ġ-------": 5427,
      "Ġonce": 5428,
      "Ġextensions": 5429,
      "visit": 5430,
      "WE": 5431,
      "AGES": 5432,
      "counter": 5433,
      "hour": 5434,
      "Flag": 5435,
      "dims": 5436,
      "Ġexecute": 5437,
      "Cre": 5438,
      "Ġscore": 5439,
      "Ren": 5440,
      "arm": 5441,
      "pdf": 5442,
      "Ð¾": 5443,
      "switch": 5444,
      "identifier": 5445,
      "}\".": 5446,
      "ulate": 5447,
      "Ġaliases": 5448,
      "ĠĠĠĠĠĠĠĠĠĠĠĠĠĠ": 5449,
      "DC": 5450,
      "series": 5451,
      "Ġactions": 5452,
      "Delete": 5453,
      "Ġweight": 5454,
      "bits": 5455,
      "ĠOther": 5456,
      "conv": 5457,
      "FR": 5458,
      "utron": 5459,
      "push": 5460,
      "ĠTemplate": 5461,
      "arison": 5462,
      "?]',": 5463,
      "Ġetc": 5464,
      "rees": 5465,
      "expi": 5466,
      "You": 5467,
      "Ġ\"{": 5468,
      "rm": 5469,
      "Ġside": 5470,
      "Ġdirectly": 5471,
      "builtin": 5472,
      "00000": 5473,
      "Ġdependencies": 5474,
      "ĠLIMITED": 5475,
      "Ġnumbers": 5476,
      "Ġwx": 5477,
      "Ġcookie": 5478,
      "Ġoptim": 5479,
      "Ġtermin": 5480,
      "Ġbutton": 5481,
      "Ġaddr": 5482,
      "Ġavoid": 5483,
      "Ġoperations": 5484,
      "appen": 5485,
      "partition": 5486,
      "chedule": 5487,
      "ssh": 5488,
      "ĠSy": 5489,
      "\"}),": 5490,
      "Ġ'\"": 5491,
      "Ġassume": 5492,
      "Ġignored": 5493,
      ":\"": 5494,
      "oriz": 5495,
      "ĠExample": 5496,
      "FN": 5497,
      "teration": 5498,
      "192": 5499,
      "ĠModel": 5500,
      "Ġdecor": 5501,
      "Ġ24": 5502,
      "environment": 5503,
      "beta": 5504,
      "ĠGroup": 5505,
      "elements": 5506,
      "istribu": 5507,
      "Ġsq": 5508,
      "mas": 5509,
      "ĠCode": 5510,
      "Ġlower": 5511,
      "6666": 5512,
      "px": 5513,
      "Ġpr": 5514,
      "ĠSpeci": 5515,
      "ftime": 5516,
      "ĠSQL": 5517,
      "Ġ_,": 5518,
      "Ġmerge": 5519,
      "Ġ17": 5520,
      "sumer": 5521,
      "je": 5522,
      "IBUT": 5523,
      "cording": 5524,
      "Bit": 5525,
      "uses": 5526,
      "ards": 5527,
      "hidden": 5528,
      "Ġuuid": 5529,
      "Script": 5530,
      "wiki": 5531,
      "stub": 5532,
      "asy": 5533,
      "person": 5534,
      "ĠWindows": 5535,
      "reater": 5536,
      "Ġdeleted": 5537,
      "Float": 5538,
      "tdc": 5539,
      "Ġfill": 5540,
      "accept": 5541,
      "ĠHe": 5542,
      "screen": 5543,
      "Ġbox": 5544,
      "functions": 5545,
      "Ġinv": 5546,
      "bus": 5547,
      "Ġwell": 5548,
      "ident": 5549,
      "okies": 5550,
      "eries": 5551,
      "draw": 5552,
      "impl": 5553,
      "enu": 5554,
      "ĠPre": 5555,
      "Ġcases": 5556,
      "tn": 5557,
      "slice": 5558,
      "uplicate": 5559,
      "park": 5560,
      "}.": 5561,
      "PRESS": 5562,
      "Position": 5563,
      "ARK": 5564,
      "500": 5565,
      "setdefault": 5566,
      "Ab": 5567,
      "Ġinsert": 5568,
      "Ġstatement": 5569,
      "history": 5570,
      "ian": 5571,
      "Ġstored": 5572,
      "Ġvector": 5573,
      "Ġcommit": 5574,
      "delay": 5575,
      "Ġtempfile": 5576,
      "Bytes": 5577,
      "Current": 5578,
      "aving": 5579,
      "duration": 5580,
      "modified": 5581,
      "Num": 5582,
      "reader": 5583,
      "anization": 5584,
      "Ġvals": 5585,
      "Ġvirtual": 5586,
      "inte": 5587,
      "READ": 5588,
      "Ġextract": 5589,
      "Ġmight": 5590,
      "Foo": 5591,
      "sired": 5592,
      "Loader": 5593,
      "identity": 5594,
      "arange": 5595,
      "shell": 5596,
      "Ġstructure": 5597,
      "acl": 5598,
      "Params": 5599,
      "Operation": 5600,
      "ĊĠĠĠĠĠĠĠĠĠĠĠĠĠĠĠĠĠĠĠĠĠĠĠĠĠĠĠĠĠĠĠĠĠĠĠĠĠĠĠĠĠĠ": 5601,
      "ĠCourse": 5602,
      "Ġbasis": 5603,
      "Ġ42": 5604,
      "ulation": 5605,
      "Ġloss": 5606,
      "Unless": 5607,
      "DD": 5608,
      "Ġnote": 5609,
      "Ġlocale": 5610,
      "constraint": 5611,
      "transaction": 5612,
      "ĠĊĠĠĠ": 5613,
      "arDown": 5614,
      "ĠRead": 5615,
      "els": 5616,
      "Ġwarning": 5617,
      "ä»": 5618,
      "distributions": 5619,
      "Dialog": 5620,
      "align": 5621,
      "Ġdump": 5622,
      "CHAR": 5623,
      "getLogger": 5624,
      "seek": 5625,
      "My": 5626,
      "lab": 5627,
      "quare": 5628,
      "ffect": 5629,
      "ORE": 5630,
      "234": 5631,
      "two": 5632,
      "controller": 5633,
      "ĠTe": 5634,
      "Ġalgorithm": 5635,
      "Ġsubclass": 5636,
      "vide": 5637,
      "Ġcondition": 5638,
      "ĠLIABILITY": 5639,
      "veloper": 5640,
      "middleware": 5641,
      "Ġ?": 5642,
      "absent": 5643,
      "chemy": 5644,
      "Ġregular": 5645,
      "writer": 5646,
      "sim": 5647,
      "Ġhome": 5648,
      "Ġknow": 5649,
      "selected": 5650,
      "Ġcurrently": 5651,
      "detail": 5652,
      "amp": 5653,
      "iling": 5654,
      "nail": 5655,
      "reduce": 5656,
      "pendent": 5657,
      "LA": 5658,
      "should": 5659,
      "Ġexclude": 5660,
      "ĠIndex": 5661,
      "lier": 5662,
      "Lexer": 5663,
      "ynch": 5664,
      "Ġdepth": 5665,
      "card": 5666,
      "Ġpol": 5667,
      "tax": 5668,
      "Ġ80": 5669,
      "Ġshared": 5670,
      "Description": 5671,
      "Ġprovide": 5672,
      "Jo": 5673,
      "Ġmonth": 5674,
      "Ġ----------------------------------------------------------------": 5675,
      "Ġappend": 5676,
      "Ġblocks": 5677,
      "ĠLE": 5678,
      "Ġlineno": 5679,
      "Store": 5680,
      "ris": 5681,
      "priate": 5682,
      "zh": 5683,
      "VALID": 5684,
      "REG": 5685,
      "limits": 5686,
      "dence": 5687,
      "servers": 5688,
      "Ġbest": 5689,
      "Record": 5690,
      "Http": 5691,
      "OB": 5692,
      "ĠDjango": 5693,
      "PACE": 5694,
      "Files": 5695,
      "invoice": 5696,
      "tid": 5697,
      "============": 5698,
      "Ġowner": 5699,
      "inv": 5700,
      "###": 5701,
      "Ġproper": 5702,
      "vn": 5703,
      "Ġbasic": 5704,
      "Initial": 5705,
      "ĠNe": 5706,
      "cel": 5707,
      "Ġown": 5708,
      "progress": 5709,
      ":])": 5710,
      "fol": 5711,
      "ited": 5712,
      "listen": 5713,
      "Ġcy": 5714,
      "Ġimages": 5715,
      "running": 5716,
      "Ġbind": 5717,
      "compiler": 5718,
      "figs": 5719,
      "umbnail": 5720,
      "CF": 5721,
      "ĠSE": 5722,
      "__\":": 5723,
      "circ": 5724,
      "effect": 5725,
      "Begin": 5726,
      "vely": 5727,
      "Var": 5728,
      "DEF": 5729,
      "Ġappe": 5730,
      "Ġlists": 5731,
      "reason": 5732,
      "egg": 5733,
      "sin": 5734,
      "quiv": 5735,
      "Configuration": 5736,
      "ĠSource": 5737,
      "permission": 5738,
      "LIN": 5739,
      "Ġremain": 5740,
      "Rel": 5741,
      "constants": 5742,
      "iterator": 5743,
      "exe": 5744,
      "Ġmaximum": 5745,
      "YRIGHT": 5746,
      "Ġ25": 5747,
      "ĠOUT": 5748,
      "ĠSU": 5749,
      "ĠModule": 5750,
      "Ġsympy": 5751,
      "400": 5752,
      "ĠSh": 5753,
      "Ag": 5754,
      "ĠReserved": 5755,
      "Ġglob": 5756,
      "urity": 5757,
      "Ġdelta": 5758,
      "mar": 5759,
      "Ġdefinition": 5760,
      "Ġ\"\",": 5761,
      "Ċĉĉĉĉĉĉ": 5762,
      "MAIN": 5763,
      "Ġisn": 5764,
      "Ġ18": 5765,
      "fixed": 5766,
      "prev": 5767,
      "jor": 5768,
      "LOW": 5769,
      "qty": 5770,
      "fixture": 5771,
      "CONT": 5772,
      "expression": 5773,
      "CRE": 5774,
      "freq": 5775,
      "Ġdistance": 5776,
      "dns": 5777,
      "ek": 5778,
      "Ġsw": 5779,
      "Reader": 5780,
      "atum": 5781,
      "sage": 5782,
      "cmp": 5783,
      "posed": 5784,
      "Ġrouter": 5785,
      "ĠArgument": 5786,
      "fies": 5787,
      "åı": 5788,
      "Ġsnapshot": 5789,
      "scheme": 5790,
      "Ġpur": 5791,
      "Ġspa": 5792,
      "Over": 5793,
      "Ġbits": 5794,
      "disable": 5795,
      "firm": 5796,
      "tection": 5797,
      "closed": 5798,
      "Ġencoded": 5799,
      "Ġbot": 5800,
      "Ġdefine": 5801,
      "ĠTHIS": 5802,
      "operation": 5803,
      "Ph": 5804,
      "')[": 5805,
      "ĠThese": 5806,
      "lv": 5807,
      "pred": 5808,
      "itle": 5809,
      "merge": 5810,
      "\"},": 5811,
      "isode": 5812,
      "MT": 5813,
      "sheet": 5814,
      "requency": 5815,
      "JECT": 5816,
      "gis": 5817,
      "Ġstat": 5818,
      "Author": 5819,
      "Attributes": 5820,
      "Ġscheme": 5821,
      "Next": 5822,
      "Ġ*',": 5823,
      "ĠQu": 5824,
      "builder": 5825,
      "Ġimplement": 5826,
      "Ġnova": 5827,
      "utc": 5828,
      "GB": 5829,
      "================================================================": 5830,
      "getattr": 5831,
      "cut": 5832,
      "compat": 5833,
      "outfile": 5834,
      "ĠCommand": 5835,
      "Ġexact": 5836,
      "Ġupload": 5837,
      "Ġdestination": 5838,
      "stock": 5839,
      "ICAL": 5840,
      "services": 5841,
      "java": 5842,
      "*(": 5843,
      "predi": 5844,
      "tb": 5845,
      "|\\": 5846,
      "SR": 5847,
      "pages": 5848,
      "lso": 5849,
      "ĊĠĠĠĠĠĠĠĠĠĠĠĠĠĠĠĠĠĠĠĠĠĠĠĠĠĠĠĠĠĠĠĠĠĠĠĠĠĠĠĠĠĠĠĠĠĠĠ": 5850,
      "Ġokay": 5851,
      "LOC": 5852,
      "fully": 5853,
      "Ġpoly": 5854,
      "Names": 5855,
      "oted": 5856,
      "rive": 5857,
      "inder": 5858,
      "Ġnecessary": 5859,
      "digest": 5860,
      "semb": 5861,
      "Ġio": 5862,
      "abilities": 5863,
      "VAR": 5864,
      "Mis": 5865,
      "Ġappropriate": 5866,
      "Ġunknown": 5867,
      "subprocess": 5868,
      "ools": 5869,
      "ĠRemove": 5870,
      "sorted": 5871,
      "Ġwords": 5872,
      "Profile": 5873,
      "rozen": 5874,
      "ables": 5875,
      "dumm": 5876,
      "Colour": 5877,
      "kt": 5878,
      "ONT": 5879,
      "ai": 5880,
      "Ġthreading": 5881,
      "cover": 5882,
      "cpp": 5883,
      "ĠXXX": 5884,
      "Ġrequested": 5885,
      "atibility": 5886,
      "=\"%": 5887,
      "eError": 5888,
      "âĢ": 5889,
      "tit": 5890,
      "Ġmail": 5891,
      "Ġmedia": 5892,
      "gui": 5893,
      "Sequence": 5894,
      "Ġ19": 5895,
      "Ġautomatically": 5896,
      "hn": 5897,
      ")')": 5898,
      "Ġprivate": 5899,
      "ĠQtGui": 5900,
      "notes": 5901,
      "changes": 5902,
      "sel": 5903,
      "300": 5904,
      "Ġpartner": 5905,
      "Web": 5906,
      "=[],": 5907,
      "Ġexpi": 5908,
      "instances": 5909,
      "ĠCOPYRIGHT": 5910,
      "nsors": 5911,
      "Ġchecks": 5912,
      "gi": 5913,
      "Ġdescriptor": 5914,
      "Ġcodecs": 5915,
      "student": 5916,
      "Ġconstraint": 5917,
      "derer": 5918,
      "BASE": 5919,
      "Ġtransaction": 5920,
      "Unknown": 5921,
      "AF": 5922,
      "RY": 5923,
      "Ġssl": 5924,
      "Ġdrop": 5925,
      "Ġactually": 5926,
      "Ġincluding": 5927,
      "Ġexternal": 5928,
      "returns": 5929,
      "Can": 5930,
      "topic": 5931,
      "literals": 5932,
      "Only": 5933,
      "dtypes": 5934,
      "templates": 5935,
      "selection": 5936,
      "Ġcontrib": 5937,
      "race": 5938,
      "ĊĠĠĠĠĠĠĠĠĠĠĠĠĠĠĠĠĠĠĠĠĠĠĠĠĠĠĠĠĠĠĠĠĠĠĠĠĠĠĠĠĠĠĠĠ": 5939,
      "ln": 5940,
      "Ġ(-": 5941,
      "Ġsubnet": 5942,
      "ĠSimple": 5943,
      "existing": 5944,
      "dependencies": 5945,
      "gu": 5946,
      "lations": 5947,
      "Ġfailure": 5948,
      "compare": 5949,
      "Ġfig": 5950,
      "Ġouch": 5951,
      "absolute": 5952,
      "ays": 5953,
      "ko": 5954,
      "ips": 5955,
      "ĠOnly": 5956,
      "ĠLe": 5957,
      "astype": 5958,
      "Ġresources": 5959,
      "aged": 5960,
      "We": 5961,
      "Ġhelper": 5962,
      "ĠImage": 5963,
      "suite": 5964,
      "executable": 5965,
      "Account": 5966,
      "vt": 5967,
      "ĠIOError": 5968,
      "ynchron": 5969,
      "NING": 5970,
      "']\"}),": 5971,
      "\"})": 5972,
      "ĠClo": 5973,
      "Ġgit": 5974,
      "ĠRights": 5975,
      "ĠDEFAULT": 5976,
      "Ġtz": 5977,
      "sess": 5978,
      "********************************": 5979,
      "grad": 5980,
      "\":\"": 5981,
      ">>>": 5982,
      "deps": 5983,
      "setting": 5984,
      "ĠTensor": 5985,
      "Ġsamples": 5986,
      "Ġamount": 5987,
      "Ġdeprecated": 5988,
      "Ġcompiler": 5989,
      "utdown": 5990,
      "ustome": 5991,
      "Ġpickle": 5992,
      "ulator": 5993,
      "zed": 5994,
      "ords": 5995,
      "browser": 5996,
      "gon": 5997,
      "high": 5998,
      "PH": 5999,
      "elem": 6000,
      "bosity": 6001,
      "(\"\"": 6002,
      "dimen": 6003,
      "subject": 6004,
      "ĠNULL": 6005,
      "DIRECT": 6006,
      "ru": 6007,
      ">')": 6008,
      "eds": 6009,
      "ĠWH": 6010,
      "ĠAnd": 6011,
      "Ġzone": 6012,
      "Ġround": 6013,
      "Ġrepresentation": 6014,
      "permissions": 6015,
      "Ġsomething": 6016,
      "laces": 6017,
      "country": 6018,
      "setUp": 6019,
      "Storage": 6020,
      "Ġiterator": 6021,
      "Ġanaly": 6022,
      "yaml": 6023,
      "codes": 6024,
      "Ġnative": 6025,
      "Ġcertificate": 6026,
      "cture": 6027,
      "answer": 6028,
      "Ġhook": 6029,
      "tyle": 6030,
      "ĠSystem": 6031,
      "Product": 6032,
      "Ġhappen": 6033,
      "PIPE": 6034,
      "'%": 6035,
      "Ġyet": 6036,
      "pub": 6037,
      "Feature": 6038,
      "ĠTrans": 6039,
      "Menu": 6040,
      "doctype": 6041,
      "===": 6042,
      "Ġchain": 6043,
      "localhost": 6044,
      "ories": 6045,
      "apping": 6046,
      "ITS": 6047,
      "ring": 6048,
      "runner": 6049,
      "steps": 6050,
      "Row": 6051,
      "versions": 6052,
      "Ġrecords": 6053,
      "blue": 6054,
      "Ġ40": 6055,
      "pto": 6056,
      "ĠExamples": 6057,
      "DIS": 6058,
      "dispatch": 6059,
      "relation": 6060,
      "SU": 6061,
      "LY": 6062,
      "ĠDate": 6063,
      "specific": 6064,
      "!!!!": 6065,
      "Ġcoordin": 6066,
      "[:]": 6067,
      "placeholder": 6068,
      "sistent": 6069,
      "Unable": 6070,
      "Ġmodified": 6071,
      "ROL": 6072,
      "kit": 6073,
      "'',": 6074,
      "dummy": 6075,
      "Ġ()": 6076,
      "ĠThere": 6077,
      "packet": 6078,
      "ture": 6079,
      "ĠParse": 6080,
      "Ġaut": 6081,
      "Bad": 6082,
      "RI": 6083,
      "Ġtransform": 6084,
      "Ġ2012": 6085,
      "Parameters": 6086,
      "deleted": 6087,
      "rac": 6088,
      "Ġrelation": 6089,
      "ĠInitial": 6090,
      "Ġsets": 6091,
      "Ġpackages": 6092,
      "(_(\"": 6093,
      "Ġden": 6094,
      "ĠWeb": 6095,
      "Ġsci": 6096,
      "isdir": 6097,
      "Ġenviron": 6098,
      "ĠUnicode": 6099,
      "Ġnested": 6100,
      "ras": 6101,
      "Decimal": 6102,
      "ĠRuntimeError": 6103,
      "ĠElement": 6104,
      "raction": 6105,
      "Ġunits": 6106,
      "Ġfd": 6107,
      "\"]:": 6108,
      "Ġbehavior": 6109,
      "sitions": 6110,
      "Ġdecimal": 6111,
      "pacity": 6112,
      "']\",": 6113,
      "bed": 6114,
      "share": 6115,
      "Ġcharset": 6116,
      "Directory": 6117,
      "channels": 6118,
      "charset": 6119,
      "aaaa": 6120,
      "Ġgrid": 6121,
      "ĠCONF": 6122,
      "Ġcomplex": 6123,
      "Ġ'=',": 6124,
      "'m": 6125,
      "Ġ39": 6126,
      "TextField": 6127,
      "Last": 6128,
      "Ġtyp": 6129,
      "Ġserialized": 6130,
      "teps": 6131,
      "Gra": 6132,
      "Ðµ": 6133,
      "Ġ~": 6134,
      "ane": 6135,
      "sian": 6136,
      "Ġparsing": 6137,
      "Ġdele": 6138,
      "Ġendpoint": 6139,
      "ĠHttpResponse": 6140,
      "STATUS": 6141,
      "flavor": 6142,
      "Component": 6143,
      "Ġ#:": 6144,
      "ĠKeyword": 6145,
      "Handle": 6146,
      "Ġknown": 6147,
      "/')": 6148,
      "Ġcore": 6149,
      "periment": 6150,
      "Speci": 6151,
      "Ġhass": 6152,
      "ĠUpdate": 6153,
      "tables": 6154,
      "Ġboto": 6155,
      "Ġlinks": 6156,
      "Ġfilenames": 6157,
      "nsure": 6158,
      "ĠWHERE": 6159,
      "Ġtraining": 6160,
      "multiple": 6161,
      "illa": 6162,
      "Ġtakes": 6163,
      "prob": 6164,
      "laime": 6165,
      "(\"-": 6166,
      "Ġlon": 6167,
      "manifest": 6168,
      "Ġrepresenting": 6169,
      "509": 6170,
      "Ġmetric": 6171,
      "Ġcredentials": 6172,
      "Use": 6173,
      "alth": 6174,
      "processing": 6175,
      "Width": 6176,
      "Ġelem": 6177,
      "teri": 6178,
      "REEK": 6179,
      "SUB": 6180,
      "isinstance": 6181,
      "Ġflow": 6182,
      "alent": 6183,
      "Driver": 6184,
      "zA": 6185,
      "TEXTNS": 6186,
      "together": 6187,
      "Elements": 6188,
      "argin": 6189,
      "vec": 6190,
      "validation": 6191,
      "Ġallows": 6192,
      "UI": 6193,
      "citation": 6194,
      "Tran": 6195,
      "110": 6196,
      "Ġorigin": 6197,
      "subclass": 6198,
      "Ġ2013": 6199,
      "previous": 6200,
      "decimal": 6201,
      "player": 6202,
      "stit": 6203,
      "separ": 6204,
      "formed": 6205,
      "mut": 6206,
      "eded": 6207,
      "Ġdimension": 6208,
      "Ġ(_": 6209,
      "irc": 6210,
      "quences": 6211,
      "Lock": 6212,
      "ICT": 6213,
      "ected": 6214,
      "ENCE": 6215,
      "Extension": 6216,
      "Ġord": 6217,
      "Def": 6218,
      "Ġorg": 6219,
      "rome": 6220,
      "ĠCF": 6221,
      "uess": 6222,
      "Ġmigrations": 6223,
      "special": 6224,
      "backup": 6225,
      "relative": 6226,
      "Serialize": 6227,
      "Ġdot": 6228,
      "phy": 6229,
      "Ġcert": 6230,
      "Ġpadding": 6231,
      "Args": 6232,
      "Ġrec": 6233,
      "Top": 6234,
      "Password": 6235,
      "dk": 6236,
      "gyp": 6237,
      "Ġfixed": 6238,
      "ire": 6239,
      "Ġagainst": 6240,
      "comments": 6241,
      "scripts": 6242,
      "vance": 6243,
      "ĠAlso": 6244,
      "dian": 6245,
      "processor": 6246,
      "Normal": 6247,
      "axes": 6248,
      "UND": 6249,
      "bundle": 6250,
      "origin": 6251,
      "DESCRIPT": 6252,
      "ĠBSD": 6253,
      "Ġlang": 6254,
      ")\")": 6255,
      "Ġsummary": 6256,
      "disc": 6257,
      "Ġstates": 6258,
      "Hello": 6259,
      "ĠRaises": 6260,
      "mg": 6261,
      "rea": 6262,
      ")+": 6263,
      "abstract": 6264,
      "ĠBE": 6265,
      "Ġstrip": 6266,
      "Ġsur": 6267,
      "pad": 6268,
      "Ġslice": 6269,
      "ressions": 6270,
      "Ġimg": 6271,
      "Ġembed": 6272,
      "ĠGREEK": 6273,
      "SM": 6274,
      "Writer": 6275,
      "LANG": 6276,
      "xxxx": 6277,
      "sal": 6278,
      "Ġmd": 6279,
      "Load": 6280,
      ");\\": 6281,
      "gpu": 6282,
      "'(": 6283,
      "PREFIX": 6284,
      "Const": 6285,
      "ĠVi": 6286,
      "Ġperiod": 6287,
      "ĠAny": 6288,
      "Ð¸": 6289,
      "AIL": 6290,
      "locate": 6291,
      "native": 6292,
      "Ġlate": 6293,
      "wsgi": 6294,
      "inline": 6295,
      "BC": 6296,
      "week": 6297,
      "Ġsklearn": 6298,
      "archive": 6299,
      "Ġiden": 6300,
      "Ġiterable": 6301,
      "Ket": 6302,
      "oauth": 6303,
      "plt": 6304,
      "Keys": 6305,
      "embed": 6306,
      "cancel": 6307,
      "ĠCH": 6308,
      "readline": 6309,
      "ĠLEFT": 6310,
      "qs": 6311,
      "baz": 6312,
      "href": 6313,
      "Ġquote": 6314,
      "Ġindic": 6315,
      "/*": 6316,
      "live": 6317,
      "ĠOut": 6318,
      "Enable": 6319,
      "Ġatom": 6320,
      "Temp": 6321,
      "168": 6322,
      "Ġprop": 6323,
      "quivalent": 6324,
      "contains": 6325,
      "ĠOSError": 6326,
      "Te": 6327,
      "xF": 6328,
      "ĊĠĠĠĠĠĠĠĠĠĠĠĠĠĠĠĠĠĠĠĠĠĠĠĠĠĠĠĠĠĠĠĠĠĠĠĠĠĠĠĠĠĠĠĠĠ": 6329,
      "1111": 6330,
      "ysql": 6331,
      "ongo": 6332,
      "\"\"\")": 6333,
      "],[": 6334,
      "Stop": 6335,
      "ISO": 6336,
      "cn": 6337,
      "ĠInvalid": 6338,
      "Ġbuilt": 6339,
      "Ġbug": 6340,
      "ILLIC": 6341,
      "Ġcat": 6342,
      "YRILLIC": 6343,
      "Msg": 6344,
      "ĠMeta": 6345,
      "(':": 6346,
      "Ġgoogle": 6347,
      "esser": 6348,
      "hat": 6349,
      "agtail": 6350,
      "cremental": 6351,
      "LINE": 6352,
      "strftime": 6353,
      "Ġhostname": 6354,
      "Import": 6355,
      "mes": 6356,
      "Ġrepe": 6357,
      "Ġnorm": 6358,
      "tries": 6359,
      "NE": 6360,
      "Ġvalidation": 6361,
      "scan": 6362,
      "ROUP": 6363,
      "ĠCYRILLIC": 6364,
      "Ip": 6365,
      "Ġinside": 6366,
      "devices": 6367,
      "getitem": 6368,
      "Ġcached": 6369,
      "hr": 6370,
      "Ġsyntax": 6371,
      "proj": 6372,
      "WR": 6373,
      "pay": 6374,
      "ustomer": 6375,
      "Nt": 6376,
      "variance": 6377,
      "inc": 6378,
      "Ġsecurity": 6379,
      "({\"": 6380,
      "cipi": 6381,
      "ĠDB": 6382,
      ":`~": 6383,
      "izers": 6384,
      "Ġfuture": 6385,
      "mu": 6386,
      "('_": 6387,
      "edi": 6388,
      "}/": 6389,
      "Arg": 6390,
      "ĠTests": 6391,
      "NC": 6392,
      "Ġdependency": 6393,
      "locator": 6394,
      "TC": 6395,
      "Ġswitch": 6396,
      "Ġtuples": 6397,
      "izard": 6398,
      "endpoint": 6399,
      "allel": 6400,
      "antity": 6401,
      "prepare": 6402,
      "Ġimplemented": 6403,
      "StringIO": 6404,
      "ĠLesser": 6405,
      "Datum": 6406,
      "Ftdc": 6407,
      "IST": 6408,
      "alg": 6409,
      "otes": 6410,
      ":',": 6411,
      "ATOR": 6412,
      "Ġlow": 6413,
      "laimer": 6414,
      "112": 6415,
      "Volume": 6416,
      "tol": 6417,
      "Could": 6418,
      "cipient": 6419,
      "Ġdat": 6420,
      "DAT": 6421,
      "Ġarrays": 6422,
      "JSON": 6423,
      "UTF": 6424,
      "ational": 6425,
      "usters": 6426,
      "Ġinterval": 6427,
      "hint": 6428,
      "loor": 6429,
      "Suite": 6430,
      "actual": 6431,
      "acter": 6432,
      "requests": 6433,
      "Ġsymbols": 6434,
      "Root": 6435,
      ")**": 6436,
      "isfile": 6437,
      "ĠAuthor": 6438,
      "Ġrxn": 6439,
      "Ġsimp": 6440,
      "requires": 6441,
      "Ġlex": 6442,
      "Ġalign": 6443,
      "Ġattach": 6444,
      "Ġmenu": 6445,
      "WOR": 6446,
      "Ġ\")": 6447,
      "machine": 6448,
      "Ġsaved": 6449,
      "conver": 6450,
      "chase": 6451,
      "allowed": 6452,
      "lb": 6453,
      "Ġdtypes": 6454,
      "cip": 6455,
      "compress": 6456,
      "Ġds": 6457,
      "formats": 6458,
      "ĠAC": 6459,
      "notify": 6460,
      "MAN": 6461,
      "Ġscreen": 6462,
      "ĠPOINTER": 6463,
      "ergy": 6464,
      "Ġcalling": 6465,
      "Ġworking": 6466,
      "checker": 6467,
      "Location": 6468,
      "Ġqs": 6469,
      "Ġitself": 6470,
      "statement": 6471,
      "pending": 6472,
      "utors": 6473,
      "Exist": 6474,
      "ulk": 6475,
      "deprecated": 6476,
      "TraceSource": 6477,
      "Ġcla": 6478,
      "',),": 6479,
      "Mark": 6480,
      "ceiver": 6481,
      "ĠBe": 6482,
      "members": 6483,
      ":-": 6484,
      "istribution": 6485,
      "IBUTORS": 6486,
      "Ġdisclaimer": 6487,
      "dm": 6488,
      "deg": 6489,
      "Ġfactor": 6490,
      "]'": 6491,
      "Ġ'*": 6492,
      "Ġarchive": 6493,
      "ana": 6494,
      "lazy": 6495,
      "ĠWor": 6496,
      "INCLUDING": 6497,
      "Ġqual": 6498,
      "GER": 6499,
      "Ġcm": 6500,
      "Enabled": 6501,
      "Ġ''.": 6502,
      "ĠBuild": 6503,
      "Ġinner": 6504,
      "heel": 6505,
      "ĠRo": 6506,
      "Ġinspect": 6507,
      "Ġseries": 6508,
      "Post": 6509,
      "Contains": 6510,
      "ĠCall": 6511,
      "plus": 6512,
      "Ġinterpre": 6513,
      "clone": 6514,
      "Reaction": 6515,
      "Ġcreating": 6516,
      "tabstop": 6517,
      "plain": 6518,
      "Ġsn": 6519,
      "252": 6520,
      "########################": 6521,
      "STATE": 6522,
      ":``": 6523,
      "Ġpairs": 6524,
      "translation": 6525,
      "rift": 6526,
      "Ġcompare": 6527,
      "tract": 6528,
      "ĠComment": 6529,
      ">%": 6530,
      "Ġ1024": 6531,
      "precation": 6532,
      "Builder": 6533,
      "AAAA": 6534,
      "records": 6535,
      "Ġ'\\\\": 6536,
      "2010": 6537,
      "rewall": 6538,
      "decor": 6539,
      "afe": 6540,
      "Clean": 6541,
      "tended": 6542,
      "visible": 6543,
      "Has": 6544,
      "kb": 6545,
      "/\"": 6546,
      "lue": 6547,
      "Ġpartition": 6548,
      "nor": 6549,
      "Ġ###": 6550,
      "Job": 6551,
      "ĠBY": 6552,
      "ĠCONTRIBUTORS": 6553,
      "Offset": 6554,
      "Ġedge": 6555,
      "+',": 6556,
      "ntaxError": 6557,
      "Ġnothing": 6558,
      "Cal": 6559,
      "Ġloaded": 6560,
      "Timeout": 6561,
      ".*?": 6562,
      "Ġfactory": 6563,
      "LEN": 6564,
      "cwd": 6565,
      "Results": 6566,
      "Provider": 6567,
      "uda": 6568,
      "Ġcv": 6569,
      "æľ": 6570,
      "ĠWrite": 6571,
      "Ġpix": 6572,
      "plotlib": 6573,
      "senColour": 6574,
      "Ġndarray": 6575,
      "Ġcorrectly": 6576,
      "sib": 6577,
      "Ġterm": 6578,
      "111": 6579,
      "unity": 6580,
      "tl": 6581,
      "optim": 6582,
      "ÙĦ": 6583,
      "Ġrate": 6584,
      "vie": 6585,
      "ĠEVENT": 6586,
      "findall": 6587,
      "comb": 6588,
      "ene": 6589,
      "?',": 6590,
      "CLASS": 6591,
      "etail": 6592,
      "initializer": 6593,
      "Ġnor": 6594,
      "Ġmaterial": 6595,
      "predict": 6596,
      "ĠInter": 6597,
      ">,": 6598,
      "Main": 6599,
      "ĠContent": 6600,
      "ateway": 6601,
      "ient": 6602,
      "Nodes": 6603,
      "Binary": 6604,
      "Failure": 6605,
      "problem": 6606,
      "nested": 6607,
      "Rate": 6608,
      "Ġmade": 6609,
      "ĠOtherwise": 6610,
      "\"][\"": 6611,
      "tence": 6612,
      "inherit": 6613,
      "]).": 6614,
      "ĠMessage": 6615,
      "/\\": 6616,
      "Ġraises": 6617,
      "area": 6618,
      "Ġagent": 6619,
      "Does": 6620,
      "Ġprovides": 6621,
      "strument": 6622,
      "ĊĊĉĉ": 6623,
      "CUR": 6624,
      "Send": 6625,
      "uce": 6626,
      "Ġdraw": 6627,
      "ctxt": 6628,
      "ital": 6629,
      "Ġpages": 6630,
      "Ġexpand": 6631,
      "Ġseed": 6632,
      "137": 6633,
      "Values": 6634,
      "numeric": 6635,
      "priority": 6636,
      "glob": 6637,
      "stdin": 6638,
      "vlan": 6639,
      "Encoder": 6640,
      "Ġauthentication": 6641,
      "Ġdirectories": 6642,
      "loyee": 6643,
      "Ġ23": 6644,
      "Mon": 6645,
      "compatible": 6646,
      "ĠRIGHT": 6647,
      "ĊĠĠĠĠĠĠĠĠĠĠĠĠĠĠĠĠĠĠĠĠĠĠĠĠĠĠĠĠĠĠĠĠĠĠĠĠĠĠĠĠĠĠĠĠĠĠ": 6648,
      "chars": 6649,
      "Ġless": 6650,
      "lies": 6651,
      "GetTypeId": 6652,
      "NET": 6653,
      "LD": 6654,
      "phase": 6655,
      "Ġproc": 6656,
      "Cannot": 6657,
      "Ġvisibility": 6658,
      "metaclass": 6659,
      "ality": 6660,
      "vl": 6661,
      "SERVER": 6662,
      "VM": 6663,
      "ctive": 6664,
      "Middleware": 6665,
      "partial": 6666,
      "geo": 6667,
      "EP": 6668,
      "ĠIPv": 6669,
      "Ġdbse": 6670,
      "ReactionDatum": 6671,
      "Ġtasks": 6672,
      "micro": 6673,
      "prog": 6674,
      "Av": 6675,
      "Ġlisten": 6676,
      "Ġmachine": 6677,
      "Ġast": 6678,
      "blob": 6679,
      "ĠUN": 6680,
      "izes": 6681,
      "Ġconverted": 6682,
      "ticular": 6683,
      "king": 6684,
      "ĠEvent": 6685,
      "wb": 6686,
      "Ġworld": 6687,
      "REQUEST": 6688,
      "Ġdbinstance": 6689,
      "Ġsec": 6690,
      "Ġvars": 6691,
      "Ġprocessing": 6692,
      "geom": 6693,
      "ev": 6694,
      "ĠSome": 6695,
      "threads": 6696,
      "Url": 6697,
      "Ġprogress": 6698,
      "linear": 6699,
      "COMP": 6700,
      "FIEL": 6701,
      "Ġvim": 6702,
      "Ġstarting": 6703,
      "Comple": 6704,
      "Ġseen": 6705,
      "ĠFunction": 6706,
      ".+": 6707,
      "Ġindicate": 6708,
      "jobs": 6709,
      "Ġdesired": 6710,
      "Ġ/>": 6711,
      "selector": 6712,
      "igration": 6713,
      "protected": 6714,
      "attrib": 6715,
      "lying": 6716,
      "Phy": 6717,
      "IGIT": 6718,
      "$(": 6719,
      "pur": 6720,
      "Ġmime": 6721,
      "BE": 6722,
      "refresh": 6723,
      "worker": 6724,
      "Ġpd": 6725,
      "while": 6726,
      "Ġbuilder": 6727,
      "Ġexecution": 6728,
      "subscription": 6729,
      "ĠAuthors": 6730,
      "dash": 6731,
      "when": 6732,
      "Ġfrappe": 6733,
      "600": 6734,
      "NUM": 6735,
      "alchemy": 6736,
      "Ġts": 6737,
      "Ġcompile": 6738,
      "ĠCO": 6739,
      "ĠDAMAGES": 6740,
      "skb": 6741,
      "LC": 6742,
      "------------------------------------------------": 6743,
      "ĠtearDown": 6744,
      "Ġgl": 6745,
      "cogn": 6746,
      "ToMany": 6747,
      "Ġtrigger": 6748,
      "Ġtables": 6749,
      "based": 6750,
      "team": 6751,
      "Ġrevision": 6752,
      "ands": 6753,
      "rd": 6754,
      "120": 6755,
      "rx": 6756,
      "}'": 6757,
      "Route": 6758,
      "Ret": 6759,
      "ka": 6760,
      "Ġfname": 6761,
      "Ġcomments": 6762,
      "rv": 6763,
      "voke": 6764,
      "Ġclosed": 6765,
      "IV": 6766,
      "gmail": 6767,
      "Ġdetermine": 6768,
      "ĠMulti": 6769,
      "Ġhosts": 6770,
      "Ġlost": 6771,
      "ORIZ": 6772,
      "monitor": 6773,
      "Ġcs": 6774,
      "Ġms": 6775,
      "Font": 6776,
      "lists": 6777,
      "Ġclf": 6778,
      "disabled": 6779,
      "199": 6780,
      "Ġqui": 6781,
      "rupt": 6782,
      "Ġprior": 6783,
      "')},": 6784,
      "generic": 6785,
      "ining": 6786,
      "ĠNOTE": 6787,
      "which": 6788,
      "ĠAle": 6789,
      "configure": 6790,
      "ĠIs": 6791,
      "Ġacti": 6792,
      "scroll": 6793,
      "agic": 6794,
      "2013": 6795,
      ")}": 6796,
      "enchmark": 6797,
      "CESS": 6798,
      "56789": 6799,
      "traceback": 6800,
      "matches": 6801,
      "urations": 6802,
      "eg": 6803,
      "ordering": 6804,
      "Tri": 6805,
      "watch": 6806,
      "\"',": 6807,
      "Ġstudent": 6808,
      "Rep": 6809,
      "TEMPL": 6810,
      "Ġ\"+": 6811,
      "projects": 6812,
      "ĠSign": 6813,
      "Ġgradient": 6814,
      "certificate": 6815,
      "precision": 6816,
      "Expected": 6817,
      "console": 6818,
      "oration": 6819,
      "ĠMoved": 6820,
      "mesh": 6821,
      "Ġhex": 6822,
      "Ġcalcul": 6823,
      "Matrix": 6824,
      "Ġ21": 6825,
      "pend": 6826,
      "Ġbuiltin": 6827,
      "Conn": 6828,
      "Style": 6829,
      "Ġscipy": 6830,
      "Ð½": 6831,
      "\"%": 6832,
      "Transform": 6833,
      "lyph": 6834,
      "ario": 6835,
      "pagation": 6836,
      "Ġleg": 6837,
      "recur": 6838,
      "Ġscalar": 6839,
      "Ġaround": 6840,
      "ERP": 6841,
      "car": 6842,
      "ĠWhy": 6843,
      "lev": 6844,
      "Ġpush": 6845,
      "readonly": 6846,
      "xtures": 6847,
      "Ġgood": 6848,
      "metrics": 6849,
      "ilar": 6850,
      "dif": 6851,
      "-+": 6852,
      "oring": 6853,
      "standard": 6854,
      "Pos": 6855,
      "Member": 6856,
      "family": 6857,
      "keyword": 6858,
      "Ġparticular": 6859,
      "lst": 6860,
      "gd": 6861,
      "ĠItem": 6862,
      "ĠRedistributions": 6863,
      "small": 6864,
      "Ġengine": 6865,
      "':{'": 6866,
      "Cons": 6867,
      "Ġconnections": 6868,
      "Ġwrong": 6869,
      "Ġcpp": 6870,
      "URCE": 6871,
      "credentials": 6872,
      "=='": 6873,
      "Ġsock": 6874,
      "etc": 6875,
      "Tuple": 6876,
      "DELETE": 6877,
      "mox": 6878,
      "cial": 6879,
      "NECT": 6880,
      "Ġcopies": 6881,
      "Ġec": 6882,
      "Ġdisabled": 6883,
      "syntax": 6884,
      "mous": 6885,
      "vc": 6886,
      "Ġanswer": 6887,
      "covery": 6888,
      "program": 6889,
      "[\\": 6890,
      "Ġpower": 6891,
      "Ġupdates": 6892,
      "notification": 6893,
      "Ġnotification": 6894,
      "gz": 6895,
      "rstrip": 6896,
      "Cap": 6897,
      "Parent": 6898,
      "Ġfo": 6899,
      "VIDED": 6900,
      "ales": 6901,
      "rollment": 6902,
      "ĠTType": 6903,
      "Geometry": 6904,
      "epoch": 6905,
      "ĠCan": 6906,
      "Flags": 6907,
      "Del": 6908,
      "fun": 6909,
      "nova": 6910,
      "VALUE": 6911,
      ":\",": 6912,
      "zilla": 6913,
      "Ġtb": 6914,
      "Ġtimedelta": 6915,
      "aut": 6916,
      "Ã©": 6917,
      "ĠNetwork": 6918,
      "tv": 6919,
      "Ġrev": 6920,
      "tend": 6921,
      "Title": 6922,
      "YY": 6923,
      "more": 6924,
      "Ġdns": 6925,
      "Ġouter": 6926,
      "ILD": 6927,
      "ĠINCLUDING": 6928,
      "Ġmem": 6929,
      "cnt": 6930,
      "ably": 6931,
      "=[\"": 6932,
      "ĠPath": 6933,
      "DV": 6934,
      "diag": 6935,
      "Ġlin": 6936,
      "att": 6937,
      "Exit": 6938,
      "ETHER": 6939,
      "Ġfails": 6940,
      "parsed": 6941,
      "spli": 6942,
      "TAG": 6943,
      "Ġsteps": 6944,
      "Ġrank": 6945,
      "scall": 6946,
      "uffle": 6947,
      "ĠClient": 6948,
      "([^": 6949,
      "endor": 6950,
      "Ġreadonly": 6951,
      "pm": 6952,
      "(_('": 6953,
      "COLOR": 6954,
      "Email": 6955,
      "Ġanything": 6956,
      "nl": 6957,
      "Ġ\"\")": 6958,
      "pix": 6959,
      "staff": 6960,
      "002": 6961,
      "ĠSER": 6962,
      "cost": 6963,
      "house": 6964,
      "Shape": 6965,
      "Ġ26": 6966,
      "ni": 6967,
      "']]": 6968,
      "NAM": 6969,
      "epcopy": 6970,
      "Positive": 6971,
      "TA": 6972,
      "(\"<": 6973,
      "Ġ2015": 6974,
      "BR": 6975,
      "Ġviews": 6976,
      "chor": 6977,
      "PASS": 6978,
      "ratio": 6979,
      "Ġsupplied": 6980,
      "istic": 6981,
      "ĠUP": 6982,
      "Ġdistutils": 6983,
      "scalar": 6984,
      "destination": 6985,
      "imate": 6986,
      "ouch": 6987,
      "ISING": 6988,
      "lr": 6989,
      "siz": 6990,
      "scores": 6991,
      "Ġdelay": 6992,
      "serv": 6993,
      "'ll": 6994,
      "asset": 6995,
      "OFF": 6996,
      "Ġcsv": 6997,
      "moving": 6998,
      "Optional": 6999,
      "ĠSHALL": 7000,
      "wx": 7001,
      "ucce": 7002,
      "Ġhour": 7003,
      "Schema": 7004,
      "Ġ2014": 7005,
      "ĠSta": 7006,
      "Basic": 7007,
      "Ġ^": 7008,
      "digits": 7009,
      "LOAD": 7010,
      "ĠSup": 7011,
      "resolve": 7012,
      "gateway": 7013,
      "gf": 7014,
      "ĊĊĊĊ": 7015,
      "Course": 7016,
      "Ġ37": 7017,
      "Ġdue": 7018,
      "Power": 7019,
      "ĠLIABLE": 7020,
      "ĠAnsibleModule": 7021,
      "Qgs": 7022,
      "äº": 7023,
      "Ġ'+": 7024,
      "Ġregistry": 7025,
      "Ġannot": 7026,
      "Ġ\"(": 7027,
      "Ġacc": 7028,
      "Ġreader": 7029,
      "Lim": 7030,
      "Ġwriter": 7031,
      "ĠARISING": 7032,
      "Ġ22": 7033,
      "ĠOper": 7034,
      "Ġthreads": 7035,
      "zKet": 7036,
      "aging": 7037,
      "flat": 7038,
      "inux": 7039,
      "Ġ27": 7040,
      "Ġapplied": 7041,
      "Ġ2010": 7042,
      "Ġpad": 7043,
      "diffe": 7044,
      "follow": 7045,
      "Ġchoice": 7046,
      "Ġdescri": 7047,
      "ĠTORT": 7048,
      "exact": 7049,
      "orn": 7050,
      "chan": 7051,
      "ToManyField": 7052,
      "ĠWHETHER": 7053,
      "_{": 7054,
      "continue": 7055,
      "\"/>": 7056,
      "Changed": 7057,
      "ANCE": 7058,
      "ĠFind": 7059,
      "Ġ500": 7060,
      "connected": 7061,
      "ATOM": 7062,
      "ĠPROVIDED": 7063,
      "Ġnever": 7064,
      "assertIsInstance": 7065,
      "too": 7066,
      "ĠCONTRACT": 7067,
      "Sim": 7068,
      "(\"--": 7069,
      "'+": 7070,
      "deli": 7071,
      "Ġretry": 7072,
      "ÑĤ": 7073,
      "LS": 7074,
      "GP": 7075,
      "aves": 7076,
      "Ġbasestring": 7077,
      "Ġtemplates": 7078,
      "ĠĊĠĠĠĠĠĠĠĠĠĠĠĠĠĠĠ": 7079,
      "Ġnone": 7080,
      "Ġreferences": 7081,
      "speed": 7082,
      "timezone": 7083,
      "Ġformats": 7084,
      "xE": 7085,
      "ĠObject": 7086,
      "poll": 7087,
      "allen": 7088,
      "ĠChar": 7089,
      "Ġlarge": 7090,
      "125": 7091,
      "submit": 7092,
      "Ġbrowser": 7093,
      "interfaces": 7094,
      "ĠDIGIT": 7095,
      "TYP": 7096,
      "nx": 7097,
      "Ġmetrics": 7098,
      "Sc": 7099,
      "TagList": 7100,
      "trip": 7101,
      "Ġ31": 7102,
      "MODE": 7103,
      "104": 7104,
      "erred": 7105,
      "claration": 7106,
      "counts": 7107,
      "bra": 7108,
      "IBLE": 7109,
      "')))": 7110,
      "evaluate": 7111,
      "categor": 7112,
      "Ġpartial": 7113,
      "Ġcomponents": 7114,
      "Ġur": 7115,
      "ĠCor": 7116,
      "ĠLine": 7117,
      "DOMAIN": 7118,
      "DESCRIPTOR": 7119,
      "Ġind": 7120,
      "Deserialize": 7121,
      "Pi": 7122,
      "ĠNE": 7123,
      "WISE": 7124,
      "Ġcounter": 7125,
      "sertionError": 7126,
      "Ġroute": 7127,
      "ĠProject": 7128,
      "Ġbro": 7129,
      "ĠComm": 7130,
      "want": 7131,
      "Ġicon": 7132,
      "Debug": 7133,
      "Ġ).": 7134,
      "Ġreduce": 7135,
      "ĠNew": 7136,
      "BACK": 7137,
      "props": 7138,
      "ective": 7139,
      "lict": 7140,
      "Ġcompatibility": 7141,
      "Double": 7142,
      "Ġpretty": 7143,
      "Ġurlparse": 7144,
      "irq": 7145,
      "Ġincludes": 7146,
      "Ġexamples": 7147,
      "}\"": 7148,
      "iteral": 7149,
      "INPUT": 7150,
      "Sum": 7151,
      "Ġpip": 7152,
      "ighbor": 7153,
      "gamma": 7154,
      "Ġtimezone": 7155,
      "Na": 7156,
      "assertAllEqual": 7157,
      "Ġflask": 7158,
      "draft": 7159,
      "Agg": 7160,
      "fact": 7161,
      "aws": 7162,
      "ĠProcess": 7163,
      "collect": 7164,
      "START": 7165,
      "Ġmodification": 7166,
      "Ġconstruct": 7167,
      "ĠEXPRESS": 7168,
      "Non": 7169,
      "ĠEach": 7170,
      "Ġprecision": 7171,
      "ĠCONT": 7172,
      "loyment": 7173,
      "ĠInput": 7174,
      "ĠDATA": 7175,
      "Ġphase": 7176,
      "Generate": 7177,
      "article": 7178,
      "onymous": 7179,
      "Custom": 7180,
      "getvalue": 7181,
      "foreign": 7182,
      "ĠAlexa": 7183,
      "Remote": 7184,
      "Ġbook": 7185,
      "Ġgr": 7186,
      "fast": 7187,
      "canvasugc": 7188,
      "TERN": 7189,
      "onical": 7190,
      "unlink": 7191,
      "Ġrestri": 7192,
      "Global": 7193,
      "Ġflat": 7194,
      "qa": 7195,
      "Ġdummy": 7196,
      "FS": 7197,
      "Redirect": 7198,
      "inventory": 7199,
      "ascript": 7200,
      "RET": 7201,
      "Err": 7202,
      "136": 7203,
      "*\\": 7204,
      "800": 7205,
      "ĠSTR": 7206,
      "CEPT": 7207,
      "132": 7208,
      "xis": 7209,
      "logs": 7210,
      "Val": 7211,
      "fiers": 7212,
      "OFP": 7213,
      "Unicode": 7214,
      "ufe": 7215,
      "Show": 7216,
      "ATED": 7217,
      "Find": 7218,
      "Ġhy": 7219,
      "ĠServer": 7220,
      "ĠVM": 7221,
      "aggregate": 7222,
      "Ġderived": 7223,
      "ĠTable": 7224,
      "SUP": 7225,
      "Ġdimensions": 7226,
      "ition": 7227,
      "slash": 7228,
      "Go": 7229,
      "assistant": 7230,
      "ato": 7231,
      "rable": 7232,
      "latest": 7233,
      "AMP": 7234,
      "sensitive": 7235,
      "threshold": 7236,
      "ĠResponse": 7237,
      "Ġdispatch": 7238,
      "Ġunsigned": 7239,
      "Ġ(?": 7240,
      "timedelta": 7241,
      "DoesNot": 7242,
      "amera": 7243,
      "tives": 7244,
      "Ġexecutable": 7245,
      "jar": 7246,
      "ĠResource": 7247,
      "Database": 7248,
      "abe": 7249,
      "timer": 7250,
      "same": 7251,
      "ĠMark": 7252,
      "Ġbackup": 7253,
      "journal": 7254,
      "Ġnegative": 7255,
      "Ġcreation": 7256,
      "sist": 7257,
      "([(": 7258,
      "Ġfs": 7259,
      "uman": 7260,
      "CIAL": 7261,
      "Queryset": 7262,
      "assertAllClose": 7263,
      "refs": 7264,
      "Ġaddresses": 7265,
      "109": 7266,
      "ĠOver": 7267,
      "Single": 7268,
      "destroy": 7269,
      "tile": 7270,
      "wimax": 7271,
      "ification": 7272,
      "stime": 7273,
      "'[?]',": 7274,
      "æĺ": 7275,
      "TT": 7276,
      "Ġupper": 7277,
      "Register": 7278,
      "Ġaccording": 7279,
      "listdir": 7280,
      "Total": 7281,
      "();": 7282,
      "KEN": 7283,
      "POINT": 7284,
      "contact": 7285,
      "Convert": 7286,
      "direction": 7287,
      "Ġtestdir": 7288,
      "Ali": 7289,
      "Ġwagtail": 7290,
      "CUMENT": 7291,
      "ology": 7292,
      "best": 7293,
      ")-": 7294,
      "jection": 7295,
      "Ġcompany": 7296,
      "avascript": 7297,
      "Ġcoef": 7298,
      "Ġhandling": 7299,
      "wever": 7300,
      "ĠExt": 7301,
      "orizont": 7302,
      "forward": 7303,
      "Loop": 7304,
      "][\"": 7305,
      "dh": 7306,
      "colors": 7307,
      "Verify": 7308,
      "Ġfast": 7309,
      "ĠSSL": 7310,
      "Ġ\"[": 7311,
      "dependent": 7312,
      "allclose": 7313,
      "agraph": 7314,
      "dimension": 7315,
      "ĠOne": 7316,
      "Func": 7317,
      "dense": 7318,
      "Utils": 7319,
      "ĠSUB": 7320,
      "ĠOTHERWISE": 7321,
      "sical": 7322,
      "specs": 7323,
      "Ġsmall": 7324,
      "usted": 7325,
      "cepted": 7326,
      "unctuation": 7327,
      "xA": 7328,
      "Ġstride": 7329,
      "ï¼": 7330,
      "gnore": 7331,
      "Ġ29": 7332,
      "512": 7333,
      "]\\": 7334,
      "IDENT": 7335,
      "copyright": 7336,
      "ĠINC": 7337,
      "HEADER": 7338,
      "ĠFIX": 7339,
      "Copyright": 7340,
      "dialog": 7341,
      "LINK": 7342,
      "Ġ'/'": 7343,
      "Entity": 7344,
      "TEMPLATE": 7345,
      "ĠNow": 7346,
      "INGLE": 7347,
      "Ġseparate": 7348,
      "Ġresolve": 7349,
      "First": 7350,
      "anel": 7351,
      "ĠService": 7352,
      "Ġtwisted": 7353,
      "ĠCA": 7354,
      "FFFF": 7355,
      "ÑĢ": 7356,
      "ook": 7357,
      "ĠInteger": 7358,
      "EDI": 7359,
      "presen": 7360,
      "Fields": 7361,
      "Ġliter": 7362,
      "orph": 7363,
      "atal": 7364,
      "Ġbig": 7365,
      "Ġfmt": 7366,
      "ĊĉĠĠĠ": 7367,
      "Items": 7368,
      "acters": 7369,
      "2014": 7370,
      "URI": 7371,
      "ye": 7372,
      "may": 7373,
      "Person": 7374,
      "ĊĊĊĠĠĠĠĠĠĠ": 7375,
      "tached": 7376,
      "Ġtools": 7377,
      "ĠÐ": 7378,
      "ĠHAS": 7379,
      "[(": 7380,
      "117": 7381,
      "assertNotEqual": 7382,
      "PACK": 7383,
      "PROTO": 7384,
      "Encoding": 7385,
      "ĠTEST": 7386,
      "Comment": 7387,
      "edges": 7388,
      "trl": 7389,
      "ĠOutput": 7390,
      "Poly": 7391,
      "ĠAUTH": 7392,
      "Attr": 7393,
      "cleanup": 7394,
      "Controller": 7395,
      "editor": 7396,
      "Ġhard": 7397,
      "QuerysetEqual": 7398,
      "under": 7399,
      "CII": 7400,
      "Ġregistered": 7401,
      "Ġclone": 7402,
      "{\"": 7403,
      "ighbors": 7404,
      "Ġcc": 7405,
      "world": 7406,
      "structure": 7407,
      "ĠCur": 7408,
      "AddressValue": 7409,
      "percent": 7410,
      "Ġconfigured": 7411,
      "ĠPost": 7412,
      "Runner": 7413,
      "Ġduration": 7414,
      "BX": 7415,
      "ĠSUP": 7416,
      "updates": 7417,
      "xpath": 7418,
      "deredDict": 7419,
      "Ġcb": 7420,
      "audio": 7421,
      "UNT": 7422,
      "ĠĊĠĠĠĠĠĠĠĠĠĠĠ": 7423,
      "agicMock": 7424,
      "105": 7425,
      "uous": 7426,
      "dele": 7427,
      "VS": 7428,
      "gradient": 7429,
      "Ġ{%": 7430,
      "cid": 7431,
      "cycle": 7432,
      "retry": 7433,
      "blems": 7434,
      "Ġtransport": 7435,
      "ically": 7436,
      "ropy": 7437,
      "vey": 7438,
      "assertQuerysetEqual": 7439,
      "addresses": 7440,
      "Ġargparse": 7441,
      "gration": 7442,
      "Ġturn": 7443,
      "yy": 7444,
      "arrow": 7445,
      "symbols": 7446,
      "ĠLoad": 7447,
      "Active": 7448,
      "website": 7449,
      "Modi": 7450,
      "FromString": 7451,
      "ensure": 7452,
      "ells": 7453,
      "white": 7454,
      "witter": 7455,
      "DoesNotExist": 7456,
      "andas": 7457,
      "without": 7458,
      "quot": 7459,
      "119": 7460,
      "CD": 7461,
      "romium": 7462,
      "Extra": 7463,
      "glext": 7464,
      "orizontal": 7465,
      "Transport": 7466,
      "background": 7467,
      "Ġpositive": 7468,
      "isco": 7469,
      "Ġvery": 7470,
      "Wait": 7471,
      "ĠØ": 7472,
      "ned": 7473,
      "slots": 7474,
      "gri": 7475,
      "imal": 7476,
      "ĠDon": 7477,
      "irror": 7478,
      "uom": 7479,
      "Identifier": 7480,
      "ĠWhether": 7481,
      "ManyToManyField": 7482,
      "hort": 7483,
      "shake": 7484,
      "patterns": 7485,
      "Ġappear": 7486,
      "clusive": 7487,
      "Ġproduce": 7488,
      "recv": 7489,
      "Ġlayout": 7490,
      "Ġdevices": 7491,
      "Ġdecorator": 7492,
      "sol": 7493,
      "Ġpie": 7494,
      "achine": 7495,
      "Ġsep": 7496,
      "SP": 7497,
      "Api": 7498,
      "Ġwhose": 7499,
      "gres": 7500,
      "tire": 7501,
      "ages": 7502,
      "Ġminimum": 7503,
      "ĠDocument": 7504,
      "ĠEnsure": 7505,
      "green": 7506,
      "ula": 7507,
      "ĠRFC": 7508,
      "Skip": 7509,
      "Ġdigits": 7510,
      "Operator": 7511,
      "Ġpriority": 7512,
      "ĠEND": 7513,
      "ĠArguments": 7514,
      "Ġequivalent": 7515,
      "Ġtranslation": 7516,
      "zeug": 7517,
      "ailability": 7518,
      "Ġ'&": 7519,
      "erature": 7520,
      "requirements": 7521,
      "pairs": 7522,
      "peer": 7523,
      "ao": 7524,
      "7701": 7525,
      "pin": 7526,
      "bum": 7527,
      "clip": 7528,
      "ivar": 7529,
      "pipeline": 7530,
      "URN": 7531,
      "Ġerrno": 7532,
      "}',": 7533,
      "ĠFake": 7534,
      ".\"),": 7535,
      "crete": 7536,
      "ograph": 7537,
      "ĠTry": 7538,
      "Ġgets": 7539,
      "kzeug": 7540,
      "ĠDict": 7541,
      "\"+": 7542,
      "Ġconv": 7543,
      "2012": 7544,
      "ĊĠĠĠĠĠĠĠĠĠĠĠĠĊĠĠĠĠĠĠĠĠĠĠĠ": 7545,
      "dx": 7546,
      "dec": 7547,
      "Ġchecker": 7548,
      "')(": 7549,
      "Step": 7550,
      "Setting": 7551,
      "Ġproducts": 7552,
      "Role": 7553,
      "star": 7554,
      "Almost": 7555,
      "TESTS": 7556,
      "Ġsol": 7557,
      "splitlines": 7558,
      "ags": 7559,
      "Ġplayer": 7560,
      "Ġdirs": 7561,
      "Ġstrict": 7562,
      "ABL": 7563,
      "005": 7564,
      "titions": 7565,
      "unCP": 7566,
      "installed": 7567,
      "teractive": 7568,
      "unctools": 7569,
      "SIG": 7570,
      "Ġsync": 7571,
      "Rout": 7572,
      "riteri": 7573,
      "Ġcontroller": 7574,
      "\"\"\",": 7575,
      "velop": 7576,
      "assification": 7577,
      "('.')": 7578,
      "Conver": 7579,
      "gramm": 7580,
      "ADDR": 7581,
      "Ġthings": 7582,
      ":[": 7583,
      "ike": 7584,
      "\")),": 7585,
      "ible": 7586,
      "za": 7587,
      "mapper": 7588,
      "helpers": 7589,
      "roles": 7590,
      "versed": 7591,
      "ufa": 7592,
      "fragment": 7593,
      "ĠQU": 7594,
      "backends": 7595,
      "Defin": 7596,
      "walk": 7597,
      "balance": 7598,
      "ENTRY": 7599,
      "ORIZONT": 7600,
      "negative": 7601,
      "Ġreally": 7602,
      "limiter": 7603,
      "Ġcause": 7604,
      "AVE": 7605,
      "Ġordering": 7606,
      "ToString": 7607,
      "Ġtopic": 7608,
      "ducer": 7609,
      "venio": 7610,
      "AlmostEqual": 7611,
      "sph": 7612,
      "trigger": 7613,
      "ĠDIS": 7614,
      "logical": 7615,
      "__',": 7616,
      "getter": 7617,
      "Fl": 7618,
      "Ġ$(": 7619,
      "ĠFIXME": 7620,
      "reet": 7621,
      "________": 7622,
      "Area": 7623,
      "ives": 7624,
      "Raw": 7625,
      "Ġri": 7626,
      "Ġqueryset": 7627,
      "Ġmx": 7628,
      "mulation": 7629,
      "ancer": 7630,
      "DT": 7631,
      "keywords": 7632,
      "Ġaxes": 7633,
      "Ġcp": 7634,
      "ders": 7635,
      "dy": 7636,
      "DEX": 7637,
      "180": 7638,
      "'\\\\": 7639,
      "*',": 7640,
      "echo": 7641,
      "outube": 7642,
      "realm": 7643,
      "Report": 7644,
      "={}": 7645,
      "Ġattempt": 7646,
      "'<": 7647,
      "ObjectBase": 7648,
      "Security": 7649,
      "contain": 7650,
      "GROUP": 7651,
      "Ġ':": 7652,
      "ORIZONTAL": 7653,
      "cator": 7654,
      "errno": 7655,
      "ĠTra": 7656,
      "zure": 7657,
      "@@": 7658,
      "Cleanup": 7659,
      "ather": 7660,
      "floating": 7661,
      "isual": 7662,
      "RED": 7663,
      "Ġcandidate": 7664,
      "PARAM": 7665,
      "definition": 7666,
      "sca": 7667,
      "Ġgeneric": 7668,
      "itude": 7669,
      "fv": 7670,
      "arity": 7671,
      "ĠFoo": 7672,
      "tm": 7673,
      "fri": 7674,
      "xi": 7675,
      "NODE": 7676,
      "must": 7677,
      "003": 7678,
      "Mapping": 7679,
      "BL": 7680,
      "MC": 7681,
      "Ġmet": 7682,
      "Ġunless": 7683,
      "preview": 7684,
      "Ġvarious": 7685,
      "alf": 7686,
      "Ġnstime": 7687,
      "SEQU": 7688,
      "Ġ59": 7689,
      "Lookup": 7690,
      "LOCAL": 7691,
      "smart": 7692,
      "#----------------------------------------------------------------": 7693,
      "004": 7694,
      "runtime": 7695,
      "Ġnormalize": 7696,
      "ĠHOLD": 7697,
      "Ġnullable": 7698,
      "lica": 7699,
      "catalog": 7700,
      "nr": 7701,
      "ĠOpenERP": 7702,
      "normalize": 7703,
      "Ġable": 7704,
      "ĠFirst": 7705,
      "150": 7706,
      "Expr": 7707,
      "collections": 7708,
      "ĠStart": 7709,
      "ely": 7710,
      "Ġ51": 7711,
      "geometry": 7712,
      "Allow": 7713,
      "enticate": 7714,
      "Implementation": 7715,
      "tices": 7716,
      "servation": 7717,
      "Children": 7718,
      "Ġrot": 7719,
      "oom": 7720,
      "Feed": 7721,
      "Ġlinear": 7722,
      "Work": 7723,
      "PU": 7724,
      "Ġselection": 7725,
      "AMPL": 7726,
      "Ġspaces": 7727,
      "pectr": 7728,
      "122": 7729,
      "Cer": 7730,
      "Ġquestion": 7731,
      "stone": 7732,
      "Ġetree": 7733,
      "Ġmatched": 7734,
      "anded": 7735,
      "ĠTestCase": 7736,
      "latex": 7737,
      ">\",": 7738,
      "ĠPl": 7739,
      "250": 7740,
      "Ġtm": 7741,
      "INST": 7742,
      "Ġdirection": 7743,
      "licies": 7744,
      "Library": 7745,
      "assertIsNone": 7746,
      "Cookie": 7747,
      "Ġ'(": 7748,
      "ĠAT": 7749,
      "Display": 7750,
      "svn": 7751,
      "xs": 7752,
      "networks": 7753,
      "DOCUMENT": 7754,
      "Fake": 7755,
      "WORK": 7756,
      "pipe": 7757,
      "bias": 7758,
      "cookies": 7759,
      "theme": 7760,
      "Ġ([": 7761,
      "124": 7762,
      "hist": 7763,
      "Ġworker": 7764,
      "Formatter": 7765,
      "Missing": 7766,
      "allenge": 7767,
      "SITE": 7768,
      "Ùħ": 7769,
      "Ġadding": 7770,
      "102": 7771,
      "1024": 7772,
      "oked": 7773,
      "Tab": 7774,
      "locations": 7775,
      "Ori": 7776,
      "PP": 7777,
      "Article": 7778,
      "ĠConvert": 7779,
      "mgr": 7780,
      "Serializer": 7781,
      "titude": 7782,
      "Common": 7783,
      "prompt": 7784,
      "Ġglobals": 7785,
      "ĠPlease": 7786,
      "Ġ2016": 7787,
      "bob": 7788,
      "tility": 7789,
      "Ġchecking": 7790,
      "configs": 7791,
      "Ġchecked": 7792,
      "bounded": 7793,
      "ASK": 7794,
      "Ġprocessed": 7795,
      "Ġthree": 7796,
      "Ġ'.'": 7797,
      "116": 7798,
      "Ġdeal": 7799,
      "MAIL": 7800,
      "Ġproperly": 7801,
      "ond": 7802,
      "Big": 7803,
      "ĠMARK": 7804,
      "lid": 7805,
      "ĠVERT": 7806,
      "ĊĠĠĠĠĠĠĠĠĠĠĠĠĠĠĠĠĠĠĠĠĠĠĠĠĠĠĠĠĠĠĠĠĠĠĠĠĠĠĠĠĠĠĠĠĠĠĠĠĠ": 7807,
      "Ġversionadded": 7808,
      "Ġmembers": 7809,
      "training": 7810,
      "Ġmanifest": 7811,
      "Ġcateg": 7812,
      "Ġletter": 7813,
      "Ġ\"{{": 7814,
      "xB": 7815,
      "Ġaverage": 7816,
      "ĠCONTROL": 7817,
      "It": 7818,
      "Ġ404": 7819,
      "Selection": 7820,
      "protobuf": 7821,
      "nc": 7822,
      "band": 7823,
      "Ġcloud": 7824,
      "Ġdays": 7825,
      "Ġexplicitly": 7826,
      "Stats": 7827,
      "ĠLib": 7828,
      "rected": 7829,
      "ĠChange": 7830,
      "Ð¾Ð": 7831,
      "dag": 7832,
      "Agent": 7833,
      "Ġ\"\"\")": 7834,
      "FieldDescriptor": 7835,
      "ĠVERTICAL": 7836,
      "failUnless": 7837,
      "hd": 7838,
      "ARD": 7839,
      "udb": 7840,
      "Permission": 7841,
      "multip": 7842,
      "Ġdeg": 7843,
      "ĠExp": 7844,
      "but": 7845,
      "ĠISO": 7846,
      "Usage": 7847,
      "Ġones": 7848,
      "))))": 7849,
      "edx": 7850,
      "214": 7851,
      "CTYPE": 7852,
      "Ġmakes": 7853,
      "FD": 7854,
      "have": 7855,
      "Ġdefines": 7856,
      "Ġ=================================================================": 7857,
      "Ġsecret": 7858,
      "Ġ400": 7859,
      "Category": 7860,
      "ĠShould": 7861,
      "Ġsha": 7862,
      "ONG": 7863,
      "SERT": 7864,
      "ulated": 7865,
      "Ġwon": 7866,
      "tector": 7867,
      "repeated": 7868,
      "ctl": 7869,
      "ATCH": 7870,
      "AK": 7871,
      "Cmd": 7872,
      "Same": 7873,
      "Left": 7874,
      "115": 7875,
      "WIN": 7876,
      "operations": 7877,
      "çļ": 7878,
      "Ġ256": 7879,
      "Ġformatted": 7880,
      "Env": 7881,
      "Ġgrad": 7882,
      "DL": 7883,
      "Ġkeywords": 7884,
      "stand": 7885,
      "XY": 7886,
      "got": 7887,
      "whitespace": 7888,
      "Ġitertools": 7889,
      "registration": 7890,
      "ĠHO": 7891,
      "Ġconfigure": 7892,
      "Filename": 7893,
      "Ġmatplotlib": 7894,
      "Ġrepository": 7895,
      "Domain": 7896,
      "ĠACUTE": 7897,
      "ninja": 7898,
      "ĠVariable": 7899,
      "Ġrather": 7900,
      "mited": 7901,
      "radius": 7902,
      "2011": 7903,
      "Ġshift": 7904,
      "caten": 7905,
      "ĊĠĠĠĠĠĠĠĠĠĠĠĠĠĠĠĠĠĠĠĠĠĠĠĠĠĠĠĠĠĠĠĠĠĠĠĠĠĠĠĠĠĠĠĠĠĠĠĠĠĠĠ": 7906,
      "emit": 7907,
      "AI": 7908,
      "ESIS": 7909,
      "regular": 7910,
      "lave": 7911,
      "codec": 7912,
      "Folder": 7913,
      "ÙĪ": 7914,
      "prod": 7915,
      "Ġrendered": 7916,
      "139": 7917,
      "APP": 7918,
      "Space": 7919,
      "Ġedi": 7920,
      "NV": 7921,
      "coef": 7922,
      "Collection": 7923,
      "strap": 7924,
      "tics": 7925,
      "sf": 7926,
      "review": 7927,
      "bile": 7928,
      "99999999": 7929,
      "isten": 7930,
      "sizes": 7931,
      "eng": 7932,
      "Ġspeed": 7933,
      "Ġeffect": 7934,
      "coming": 7935,
      "Generator": 7936,
      "lities": 7937,
      "Ġ2011": 7938,
      "('/')": 7939,
      "Ġruns": 7940,
      "secure": 7941,
      "114": 7942,
      "TYPES": 7943,
      "ĠJo": 7944,
      "eep": 7945,
      "Ġrunner": 7946,
      "Install": 7947,
      "phinx": 7948,
      "Ġservers": 7949,
      "Ġpredictions": 7950,
      "Ġprevent": 7951,
      "åħ": 7952,
      "=('": 7953,
      "ASH": 7954,
      "Ġfrozen": 7955,
      "ĠPY": 7956,
      "EVENT": 7957,
      "UNK": 7958,
      "outer": 7959,
      "LEX": 7960,
      "_):": 7961,
      "resolver": 7962,
      "ĠDes": 7963,
      "curacy": 7964,
      "Named": 7965,
      "Ġunpack": 7966,
      "107": 7967,
      "Ġordered": 7968,
      "Ġsegment": 7969,
      "ĠIF": 7970,
      "calendar": 7971,
      "çļĦ": 7972,
      "Scope": 7973,
      "Ġindivid": 7974,
      "EE": 7975,
      "Ġdid": 7976,
      "queryset": 7977,
      "lices": 7978,
      "Ñģ": 7979,
      "Ġremaining": 7980,
      "Virtual": 7981,
      "sections": 7982,
      "UST": 7983,
      "sender": 7984,
      "until": 7985,
      "215": 7986,
      "inger": 7987,
      "Ġarr": 7988,
      "Dest": 7989,
      "MESS": 7990,
      "Popen": 7991,
      "Ġna": 7992,
      "calc": 7993,
      "Ġmonitor": 7994,
      "REF": 7995,
      "lide": 7996,
      "Ġzer": 7997,
      "Setup": 7998,
      "Ġwarn": 7999,
      "Ġgtk": 8000,
      "Ġnewline": 8001,
      "METHO": 8002,
      "('#": 8003,
      "eps": 8004,
      "jpg": 8005,
      "dynamic": 8006,
      "ĠIndexError": 8007,
      "padding": 8008,
      "modify": 8009,
      "Ġmigration": 8010,
      "Detail": 8011,
      "lopen": 8012,
      "ADATA": 8013,
      "Aggreg": 8014,
      "mq": 8015,
      "Ġhint": 8016,
      "Rect": 8017,
      "CLI": 8018,
      "ARCH": 8019,
      "Ġreading": 8020,
      "Ġbal": 8021,
      "ĠCHAR": 8022,
      "BY": 8023,
      "2015": 8024,
      "Ġhandlers": 8025,
      "Some": 8026,
      "129": 8027,
      "Ġwhitespace": 8028,
      "Ġ'':": 8029,
      "former": 8030,
      "ĠGeneric": 8031,
      "bottom": 8032,
      "Tx": 8033,
      "Save": 8034,
      "ĠState": 8035,
      "Ġtemporary": 8036,
      "mtree": 8037,
      "activate": 8038,
      "illi": 8039,
      "ĠGenerate": 8040,
      "GC": 8041,
      "pickle": 8042,
      "mall": 8043,
      "Ġprice": 8044,
      "libs": 8045,
      "mime": 8046,
      "rou": 8047,
      "Stub": 8048,
      "gtest": 8049,
      "restore": 8050,
      "Ġcaller": 8051,
      "/.": 8052,
      "Ġpointer": 8053,
      "processed": 8054,
      "Include": 8055,
      "acquire": 8056,
      "windows": 8057,
      "Ġsqrt": 8058,
      "pher": 8059,
      "aw": 8060,
      "čĊĠĠĠĠ": 8061,
      "estimator": 8062,
      "]{": 8063,
      "Inte": 8064,
      "006": 8065,
      "Ġretain": 8066,
      "')):": 8067,
      "ĠBLOCK": 8068,
      "PacketMetadata": 8069,
      "coord": 8070,
      "rename": 8071,
      "Ġbetter": 8072,
      "Ġfragment": 8073,
      "ĠĠĠĠĠĠĠĠĠĠĠĠĠĠĠĠĠĠ": 8074,
      "coords": 8075,
      "bg": 8076,
      "Ġtenant": 8077,
      "produce": 8078,
      ",%": 8079,
      "Ġurls": 8080,
      "rst": 8081,
      "udd": 8082,
      "vertical": 8083,
      "106": 8084,
      "bro": 8085,
      "134": 8086,
      "connections": 8087,
      "Ġbeta": 8088,
      "activity": 8089,
      "Decoder": 8090,
      "sphinx": 8091,
      "raps": 8092,
      "ĠVerify": 8093,
      "232": 8094,
      "Ġboot": 8095,
      "Ġsequences": 8096,
      "cryption": 8097,
      "ace": 8098,
      "encoded": 8099,
      "filepath": 8100,
      "Ġpipeline": 8101,
      "åĲ": 8102,
      "Ġhistory": 8103,
      "Ġretrieve": 8104,
      "onal": 8105,
      "cross": 8106,
      "Ġ00": 8107,
      "RC": 8108,
      "ÛĮ": 8109,
      "Ġ128": 8110,
      "reply": 8111,
      "trols": 8112,
      "FileName": 8113,
      "Ġcross": 8114,
      "Multicast": 8115,
      "Ġev": 8116,
      "Ġinventory": 8117,
      "Timer": 8118,
      "2000": 8119,
      "ILE": 8120,
      "nacl": 8121,
      "CallbackImpl": 8122,
      "Ġmetavar": 8123,
      "220": 8124,
      "dicts": 8125,
      "ObjectFactory": 8126,
      "AMPLES": 8127,
      "olds": 8128,
      "ĠDefaults": 8129,
      "ĠTag": 8130,
      "ĠStop": 8131,
      "Ġeverything": 8132,
      "appro": 8133,
      "Ġcurr": 8134,
      "Ġgive": 8135,
      "Body": 8136,
      ":],": 8137,
      "Note": 8138,
      "MULT": 8139,
      "thumbnail": 8140,
      "initions": 8141,
      "Ġthing": 8142,
      "ippe": 8143,
      "urses": 8144,
      "ĠPoint": 8145,
      "Limit": 8146,
      "stor": 8147,
      "ĠSCons": 8148,
      "PECIAL": 8149,
      "Ġpatterns": 8150,
      "parame": 8151,
      "NAMES": 8152,
      "ĠCoun": 8153,
      "Routing": 8154,
      "GS": 8155,
      "ffic": 8156,
      "Ġbackground": 8157,
      "sensor": 8158,
      "Ġwrapped": 8159,
      "ĠSkip": 8160,
      "ĠSearch": 8161,
      "compo": 8162,
      "Ġexecuted": 8163,
      "widgets": 8164,
      "average": 8165,
      "ĠCal": 8166,
      ".],": 8167,
      "Fi": 8168,
      "Bind": 8169,
      "126": 8170,
      "VEN": 8171,
      "Ġsolution": 8172,
      "2006": 8173,
      "cod": 8174,
      "OUTPUT": 8175,
      ">`": 8176,
      "Ġ66": 8177,
      "UFF": 8178,
      "ranges": 8179,
      "ordered": 8180,
      "ARGET": 8181,
      "olved": 8182,
      "+\\": 8183,
      "Ġlonger": 8184,
      "DA": 8185,
      "ĠUSA": 8186,
      "management": 8187,
      "NodeContainer": 8188,
      "construct": 8189,
      "ĠBost": 8190,
      "Ġentire": 8191,
      "ĠClass": 8192,
      "aps": 8193,
      "Package": 8194,
      "peak": 8195,
      "ĠFe": 8196,
      "serialized": 8197,
      "lexible": 8198,
      "ĠBoston": 8199,
      "Ġreplacement": 8200,
      "Sample": 8201,
      "ĠPri": 8202,
      "Classifier": 8203,
      "ĠValidationError": 8204,
      "ĠSINGLE": 8205,
      "/(": 8206,
      "ĠHOLDERS": 8207,
      "ĊĊĠĠĠĠĠĠĠĠĠ": 8208,
      "Ġ77": 8209,
      "Ġreturning": 8210,
      "stage": 8211,
      "čĊĠĠĠĠĠĠĠĠĠĠĠĠĠĠĠĠĠĠĠĠĠĠĠ": 8212,
      ">=": 8213,
      "ndarray": 8214,
      "spam": 8215,
      "/<": 8216,
      "Ġstarted": 8217,
      "ĠHORIZONTAL": 8218,
      "atar": 8219,
      "118": 8220,
      "ĠManagement": 8221,
      "RPC": 8222,
      "hooks": 8223,
      "ĠForm": 8224,
      "Ġneutron": 8225,
      "su": 8226,
      "ĠImp": 8227,
      "čĊčĊč": 8228,
      "Ġassigned": 8229,
      "splitext": 8230,
      "ĊĊĊĠ": 8231,
      "visor": 8232,
      "xC": 8233,
      "namespaces": 8234,
      "migrations": 8235,
      "%%": 8236,
      "Ġgu": 8237,
      "zon": 8238,
      "msvs": 8239,
      "ĠCloud": 8240,
      "Ġwi": 8241,
      "Ġpermitted": 8242,
      "mkdir": 8243,
      "Ġrecent": 8244,
      "CREATE": 8245,
      "asn": 8246,
      "Ġdim": 8247,
      "ĠCustom": 8248,
      "Ter": 8249,
      "Prober": 8250,
      "Fin": 8251,
      "ĠQuery": 8252,
      "Ġcompat": 8253,
      "hw": 8254,
      "atforms": 8255,
      "today": 8256,
      "ĠNotes": 8257,
      "dv": 8258,
      "čĊĠĠĠĠĠĠĠĠ": 8259,
      "Ġinitialize": 8260,
      "ACTER": 8261,
      "Literal": 8262,
      "INIT": 8263,
      "Ġmag": 8264,
      "ĠUsed": 8265,
      "ele": 8266,
      "setText": 8267,
      "randint": 8268,
      "Success": 8269,
      "AttributeAccessor": 8270,
      "THON": 8271,
      "Ġ84": 8272,
      "Ġinterfaces": 8273,
      "Required": 8274,
      "ENTIAL": 8275,
      "Ġnoqa": 8276,
      "Ġcwd": 8277,
      "finish": 8278,
      "migrate": 8279,
      "Ġenough": 8280,
      "Imp": 8281,
      "titles": 8282,
      "ĉĉĉĉ": 8283,
      "edu": 8284,
      "examples": 8285,
      "ĠStream": 8286,
      "=\"\",": 8287,
      "[]": 8288,
      "Ġrhs": 8289,
      "Exists": 8290,
      "METADATA": 8291,
      "ĠMax": 8292,
      "ĠDelete": 8293,
      "erge": 8294,
      "Ġcenter": 8295,
      "UCT": 8296,
      "007": 8297,
      "Ġestimator": 8298,
      "BUILD": 8299,
      "Interval": 8300,
      "CHECK": 8301,
      "ĠCa": 8302,
      "EB": 8303,
      "Ġcycle": 8304,
      "ĠDatabase": 8305,
      "Ġlat": 8306,
      "Ġshare": 8307,
      "bib": 8308,
      "647": 8309,
      "ogram": 8310,
      "ĊĉĊ": 8311,
      "Ġcover": 8312,
      "Ġ2004": 8313,
      "mpath": 8314,
      "ji": 8315,
      "Ġhashlib": 8316,
      "Ġnx": 8317,
      "Ġperf": 8318,
      "chemas": 8319,
      "Ġwifi": 8320,
      "Ġinline": 8321,
      "ĠnotCho": 8322,
      "ĠnotChosenColour": 8323,
      "Please": 8324,
      "Pe": 8325,
      "Ġimported": 8326,
      "finite": 8327,
      "108": 8328,
      "Grid": 8329,
      "Ġfloating": 8330,
      "Ġmm": 8331,
      "restype": 8332,
      ".'),": 8333,
      "clusters": 8334,
      "Analy": 8335,
      "NUMB": 8336,
      "Unexpected": 8337,
      "cleaned": 8338,
      "certs": 8339,
      "Ġflavor": 8340,
      "GG": 8341,
      "Ġdiag": 8342,
      "ĠCompute": 8343,
      "uab": 8344,
      "major": 8345,
      "trunc": 8346,
      "literal": 8347,
      "igen": 8348,
      "serializer": 8349,
      "Ġ36": 8350,
      "Ġ35": 8351,
      "Ġ\\\\": 8352,
      "Height": 8353,
      "ValidationError": 8354,
      "Symbol": 8355,
      "hide": 8356,
      "comparison": 8357,
      "Ġ}}\"": 8358,
      "'),('": 8359,
      "Ġvs": 8360,
      "Ġstuff": 8361,
      "ĠAb": 8362,
      "checks": 8363,
      "CURE": 8364,
      "otype": 8365,
      "Namespace": 8366,
      "Ġtrailing": 8367,
      "spi": 8368,
      "Ġpub": 8369,
      "Ġear": 8370,
      "assertRaisesRegex": 8371,
      "Ġrect": 8372,
      "ĠĠĠĠĠĠĠĠĠĠĠĠĠĠĠĠĠĠĠ": 8373,
      "cab": 8374,
      "ĠPoly": 8375,
      "mid": 8376,
      "ĠOptions": 8377,
      "Cy": 8378,
      "Ġforward": 8379,
      "Ġmuch": 8380,
      "black": 8381,
      "Ġ34": 8382,
      "Coun": 8383,
      "Ġpipe": 8384,
      "argtypes": 8385,
      "Ġconside": 8386,
      "ĠArticle": 8387,
      "gw": 8388,
      "utions": 8389,
      "Ġask": 8390,
      "\"><": 8391,
      "flatten": 8392,
      "Ġcreates": 8393,
      "migration": 8394,
      "]\"": 8395,
      "Append": 8396,
      "entities": 8397,
      "Ġcontributors": 8398,
      "ynap": 8399,
      "è¯": 8400,
      "jected": 8401,
      "seg": 8402,
      "additional": 8403,
      "Arch": 8404,
      "ĠToken": 8405,
      "assertAlmostEqual": 8406,
      "La": 8407,
      "Ġ{}\".": 8408,
      "har": 8409,
      "Ġ;": 8410,
      "xyz": 8411,
      "ĠLanguage": 8412,
      "Ġsqlalchemy": 8413,
      "Ġbundle": 8414,
      "rective": 8415,
      "PA": 8416,
      "openstack": 8417,
      "cons": 8418,
      "stubs": 8419,
      "Ġindividual": 8420,
      "perm": 8421,
      "Ġrepresents": 8422,
      "ĠConnection": 8423,
      "Ġdoctest": 8424,
      "intain": 8425,
      "enticated": 8426,
      "Cor": 8427,
      "lencode": 8428,
      "MIS": 8429,
      "Ġdocuments": 8430,
      "finished": 8431,
      "anging": 8432,
      "ussian": 8433,
      "deepcopy": 8434,
      "Sparse": 8435,
      "php": 8436,
      "YP": 8437,
      "Ġps": 8438,
      "rase": 8439,
      "Ġimmediate": 8440,
      "mtime": 8441,
      "Xml": 8442,
      "ople": 8443,
      "Ġ2006": 8444,
      "NN": 8445,
      "Dep": 8446,
      "ĠTask": 8447,
      "Ġgeneral": 8448,
      "Expression": 8449,
      "Energy": 8450,
      "Ġthreshold": 8451,
      "ĠCl": 8452,
      "ĠĠĠĠĠĠĠĠĠĠĠĠĠĠĠĠĠ": 8453,
      "Ġam": 8454,
      "lify": 8455,
      "Ġcatch": 8456,
      "tw": 8457,
      "ĠPass": 8458,
      "nomi": 8459,
      "allation": 8460,
      "stics": 8461,
      "avg": 8462,
      "Constraint": 8463,
      "reat": 8464,
      "velopment": 8465,
      "initialize": 8466,
      "roke": 8467,
      "sites": 8468,
      "Ġlibraries": 8469,
      "EMPL": 8470,
      "Ġmu": 8471,
      "USED": 8472,
      "ANSIBLE": 8473,
      "strategy": 8474,
      "103": 8475,
      "Loss": 8476,
      "010": 8477,
      "ndim": 8478,
      "pw": 8479,
      "([('": 8480,
      "-------------": 8481,
      "scheduler": 8482,
      "ighted": 8483,
      "ĠLIGHT": 8484,
      "rypto": 8485,
      "ĠHandle": 8486,
      "ball": 8487,
      "160": 8488,
      "crypted": 8489,
      "ĠPOST": 8490,
      "Choice": 8491,
      "CACHE": 8492,
      "Ġiteration": 8493,
      "=''):": 8494,
      "Notify": 8495,
      "decl": 8496,
      "setter": 8497,
      "frappe": 8498,
      "adow": 8499,
      "ĠCOM": 8500,
      "Ġcalculate": 8501,
      "Zero": 8502,
      "makedirs": 8503,
      "Ġrout": 8504,
      "since": 8505,
      "tabs": 8506,
      "Ġconsole": 8507,
      "xcode": 8508,
      "ano": 8509,
      "Ġteam": 8510,
      "Ġ(@": 8511,
      "0000000": 8512,
      "Ġservices": 8513,
      "Ġdynamic": 8514,
      "008": 8515,
      "+)": 8516,
      "`:": 8517,
      "reds": 8518,
      "SW": 8519,
      "Ã¡": 8520,
      "tcp": 8521,
      "Ġchunks": 8522,
      "seen": 8523,
      "ARE": 8524,
      "mysql": 8525,
      "NUMBER": 8526,
      "pts": 8527,
      "good": 8528,
      "Codec": 8529,
      "Ġdepends": 8530,
      "repeat": 8531,
      "BLOCK": 8532,
      "='/": 8533,
      "033": 8534,
      "Internal": 8535,
      "CAP": 8536,
      "Ġslug": 8537,
      "air": 8538,
      "sale": 8539,
      "heb": 8540,
      "Pix": 8541,
      "TraceSourceAccessor": 8542,
      "Ġ'?": 8543,
      "Dec": 8544,
      "attemp": 8545,
      "ĠPermission": 8546,
      "Ġui": 8547,
      "addon": 8548,
      "Right": 8549,
      "ully": 8550,
      "resize": 8551,
      "callable": 8552,
      "Other": 8553,
      "_'": 8554,
      "Environment": 8555,
      "quota": 8556,
      "asarray": 8557,
      "Ġsimilar": 8558,
      "Ġevalu": 8559,
      "hard": 8560,
      "Ġssh": 8561,
      "energy": 8562,
      "ICE": 8563,
      "Part": 8564,
      "TIMEOUT": 8565,
      "Ġemit": 8566,
      "hours": 8567,
      "\")[": 8568,
      "umeration": 8569,
      "135": 8570,
      "DED": 8571,
      "Ġ(<": 8572,
      "Ġconversion": 8573,
      "decoder": 8574,
      "Ġscan": 8575,
      "linenum": 8576,
      "globals": 8577,
      "ĠRegister": 8578,
      "Ġcost": 8579,
      "Ġapps": 8580,
      "Wi": 8581,
      "æķ": 8582,
      "atype": 8583,
      "SyntaxError": 8584,
      "demo": 8585,
      "accounts": 8586,
      "Ġconnected": 8587,
      "Ġ{}),": 8588,
      "009": 8589,
      "('',": 8590,
      "Ġ{{": 8591,
      "Ġlatest": 8592,
      "Backend": 8593,
      "PositiveIntegerField": 8594,
      "measure": 8595,
      "Section": 8596,
      "Generic": 8597,
      "Db": 8598,
      "ipher": 8599,
      "ĊĊĠĠ": 8600,
      "Conf": 8601,
      "AndReturn": 8602,
      "Ġaltern": 8603,
      "saved": 8604,
      "Ġcounts": 8605,
      "cov": 8606,
      "sider": 8607,
      "Ġmaterials": 8608,
      "sione": 8609,
      "FIELD": 8610,
      "Ġinherit": 8611,
      "silon": 8612,
      "113": 8613,
      "254": 8614,
      "Distribution": 8615,
      "NULL": 8616,
      "uniform": 8617,
      "Ġretval": 8618,
      "Ġhist": 8619,
      "////////////////////////////////////////////////////////////////": 8620,
      "čĊĠĠĠĠĠ": 8621,
      "keras": 8622,
      "Ġprompt": 8623,
      "ĠRet": 8624,
      "Help": 8625,
      "ENABLE": 8626,
      "Ġprobably": 8627,
      "digit": 8628,
      "Ġclick": 8629,
      "SK": 8630,
      "through": 8631,
      "loading": 8632,
      "Ġidentity": 8633,
      "inel": 8634,
      "Ġreplaced": 8635,
      "attachment": 8636,
      "large": 8637,
      "clared": 8638,
      "Ġeasy": 8639,
      "AIM": 8640,
      "Multiple": 8641,
      "BitField": 8642,
      "224": 8643,
      "ĠPerson": 8644,
      "iform": 8645,
      "mx": 8646,
      "rol": 8647,
      "associ": 8648,
      "irt": 8649,
      "Connect": 8650,
      "organization": 8651,
      "uac": 8652,
      "cipe": 8653,
      "åĪ": 8654,
      "Ġserialize": 8655,
      "binding": 8656,
      "Login": 8657,
      "Memory": 8658,
      "#####": 8659,
      "Ġbackwards": 8660,
      "kill": 8661,
      "('')": 8662,
      "ĊĠĠĠĠĠĠĠĠĠĠĠĠĠĠĠĠĠĠĠĠĠĠĠĠĠĠĠĠĠĠĠĠĠĠĠĠĠĠĠĠĠĠĠĠĠĠĠĠĠĠ": 8663,
      "ĠINTER": 8664,
      "Ġpor": 8665,
      "Ġjs": 8666,
      "own": 8667,
      "Received": 8668,
      "Ġoptparse": 8669,
      "ĠSP": 8670,
      "VICES": 8671,
      "dentifiers": 8672,
      "Abstract": 8673,
      "lah": 8674,
      "shutdown": 8675,
      "iterable": 8676,
      "aliases": 8677,
      "Ġdocs": 8678,
      "Ġoverwrite": 8679,
      "azure": 8680,
      "Listen": 8681,
      "schedule": 8682,
      "assertContains": 8683,
      "DOWN": 8684,
      "IMAGE": 8685,
      "Ġedges": 8686,
      "thrift": 8687,
      "imen": 8688,
      "Shell": 8689,
      "Properties": 8690,
      "defs": 8691,
      "objs": 8692,
      "ridden": 8693,
      "frames": 8694,
      "ANY": 8695,
      "unused": 8696,
      "Ġdocstring": 8697,
      "ĠArray": 8698,
      "386": 8699,
      "ĠCorp": 8700,
      "pow": 8701,
      "QUAL": 8702,
      "ãģ": 8703,
      "Ġnb": 8704,
      "Proto": 8705,
      "Zip": 8706,
      "ODE": 8707,
      "Windows": 8708,
      "Ġcollect": 8709,
      "Icon": 8710,
      "Ġpeer": 8711,
      "WH": 8712,
      "writeField": 8713,
      "SN": 8714,
      "lick": 8715,
      "panel": 8716,
      "EY": 8717,
      "ĠDIRECT": 8718,
      "ĠStr": 8719,
      "tmpdir": 8720,
      "ĠHo": 8721,
      "ĠLa": 8722,
      "Ġchars": 8723,
      "border": 8724,
      "CallbackImplBase": 8725,
      "started": 8726,
      "ĠTR": 8727,
      "xp": 8728,
      "Enter": 8729,
      "!=": 8730,
      "remain": 8731,
      "Ġ=>": 8732,
      "ĠSp": 8733,
      "vanced": 8734,
      "ĠVAL": 8735,
      "lerance": 8736,
      "Ġ#@": 8737,
      "DRAW": 8738,
      "['_": 8739,
      "')]],": 8740,
      "304": 8741,
      "rical": 8742,
      "Ġklass": 8743,
      "Ġbecome": 8744,
      "Ġloading": 8745,
      "ios": 8746,
      "hyper": 8747,
      "urtle": 8748,
      "Ġverbosity": 8749,
      "()).": 8750,
      "uaa": 8751,
      "compiled": 8752,
      "uan": 8753,
      "ny": 8754,
      "aff": 8755,
      "assertNotIn": 8756,
      "Ġscen": 8757,
      "Ġmeasure": 8758,
      "Video": 8759,
      "2222": 8760,
      "alloc": 8761,
      "atory": 8762,
      "ĠGeo": 8763,
      "figure": 8764,
      "274": 8765,
      "------": 8766,
      "addWidget": 8767,
      "Ġsender": 8768,
      "Book": 8769,
      "Ġser": 8770,
      "workflow": 8771,
      "Ġ199": 8772,
      "categories": 8773,
      "Ġchannels": 8774,
      "Pick": 8775,
      "OME": 8776,
      "payment": 8777,
      "written": 8778,
      "imators": 8779,
      "coin": 8780,
      "Ġconven": 8781,
      ";'": 8782,
      "Ġ99": 8783,
      "GTH": 8784,
      "Ġhidden": 8785,
      "Ġhandled": 8786,
      "ĠCho": 8787,
      "çĶ": 8788,
      "Ġcodes": 8789,
      "chdir": 8790,
      "mazon": 8791,
      "Compute": 8792,
      "Ġ\"\"\"<": 8793,
      "irth": 8794,
      "ĠAssertionError": 8795,
      "Bounded": 8796,
      "tick": 8797,
      "Ġsuccessfully": 8798,
      "Indent": 8799,
      "portal": 8800,
      "Ġsever": 8801,
      "Ġports": 8802,
      "ussion": 8803,
      "fixtures": 8804,
      "Bound": 8805,
      "formatter": 8806,
      "published": 8807,
      "?\\": 8808,
      "Ġpygame": 8809,
      "CLAIM": 8810,
      "xD": 8811,
      "Ġmut": 8812,
      "ZZ": 8813,
      "inct": 8814,
      "219": 8815,
      "Ht": 8816,
      "Ġcols": 8817,
      "Ġ[{'": 8818,
      "Ġeditor": 8819,
      "Ġhomeassistant": 8820,
      "CCE": 8821,
      "leaf": 8822,
      "candidate": 8823,
      "Ġ[{": 8824,
      "Ġ90": 8825,
      "Cell": 8826,
      "aller": 8827,
      "STIT": 8828,
      "MOD": 8829,
      "Ġfid": 8830,
      "consumer": 8831,
      "clause": 8832,
      "Ġproblems": 8833,
      "Ġcontact": 8834,
      "Ġmarkup": 8835,
      "uad": 8836,
      "authors": 8837,
      "creation": 8838,
      "Ġexactly": 8839,
      "icrosoft": 8840,
      "Machine": 8841,
      "ĠPBX": 8842,
      "ABIC": 8843,
      "={\"": 8844,
      "ĠĠĠĠĠĠĠĠĠĠĠĠĠĠĠĠĠĠĠĠĠĠĠĠĠĠĠĠĠĠĠĠĠĠĠĠĠĠĠĠĠĠĠĠĠĠĠĠĠĠĠĠĠĠĠĠĠĠĠĠĠĠĠĠ": 8845,
      "Ġtranslate": 8846,
      "Ġconsidered": 8847,
      "Ġ209": 8848,
      "Ġmapper": 8849,
      "Iteration": 8850,
      "Compiler": 8851,
      "squ": 8852,
      "ĠOrderedDict": 8853,
      "swap": 8854,
      "___": 8855,
      "](": 8856,
      "Cancel": 8857,
      "Language": 8858,
      "Ġnumeric": 8859,
      "Dataset": 8860,
      "received": 8861,
      "depends": 8862,
      "Engine": 8863,
      "neg": 8864,
      "segment": 8865,
      "Ġexpressions": 8866,
      "Ġ|=": 8867,
      "Est": 8868,
      "Ġ\"*": 8869,
      "Ġvisible": 8870,
      "BIN": 8871,
      "ftp": 8872,
      "Ġtheme": 8873,
      "Ġruntime": 8874,
      "Ġcleanup": 8875,
      "erkzeug": 8876,
      "Ed": 8877,
      "PN": 8878,
      "ucc": 8879,
      "variant": 8880,
      "........": 8881,
      "čĊĉĉ": 8882,
      "apt": 8883,
      "Validator": 8884,
      "501": 8885,
      "Ġimports": 8886,
      "SHA": 8887,
      "ABC": 8888,
      "ĠWSG": 8889,
      "Ġweek": 8890,
      "tracker": 8891,
      "party": 8892,
      "FUN": 8893,
      "urther": 8894,
      "phone": 8895,
      "NECTION": 8896,
      "herited": 8897,
      "ĊĉĉĊĉ": 8898,
      "ĠConstruct": 8899,
      "unexpected": 8900,
      "Ġstati": 8901,
      "tified": 8902,
      "!\")": 8903,
      "AIN": 8904,
      "}),": 8905,
      "Ġplease": 8906,
      "mitive": 8907,
      "-#": 8908,
      "ĠSPECIAL": 8909,
      "Site": 8910,
      "ism": 8911,
      "138": 8912,
      "Ġhttplib": 8913,
      "Ø±": 8914,
      "Ġir": 8915,
      "__))": 8916,
      "ĠNa": 8917,
      "Ġtok": 8918,
      "cpus": 8919,
      "ĠCHARACTER": 8920,
      "Ġ48": 8921,
      "PK": 8922,
      "STITUTE": 8923,
      "WID": 8924,
      "2007": 8925,
      "Cluster": 8926,
      "ĠSec": 8927,
      "checksum": 8928,
      "maps": 8929,
      "udf": 8930,
      "2009": 8931,
      "supp": 8932,
      "Ġ[%": 8933,
      "Ġstdin": 8934,
      "codecs": 8935,
      "GEN": 8936,
      "}{": 8937,
      "Ġincorrect": 8938,
      "dirty": 8939,
      "communic": 8940,
      "EXAMPLES": 8941,
      "tential": 8942,
      "Ġftype": 8943,
      "STEM": 8944,
      ";\"": 8945,
      "stmt": 8946,
      "Ġcopied": 8947,
      "Ġ74": 8948,
      "Ġred": 8949,
      "Ġmanual": 8950,
      "fw": 8951,
      "DULE": 8952,
      "!\"": 8953,
      "LANGU": 8954,
      "[[": 8955,
      "Ġimplicit": 8956,
      "Ġradius": 8957,
      "NOWN": 8958,
      "bri": 8959,
      "ĠURI": 8960,
      "manage": 8961,
      "([],": 8962,
      "fire": 8963,
      "BA": 8964,
      "ĠUTF": 8965,
      "Ġpercent": 8966,
      "gc": 8967,
      "xed": 8968,
      "hot": 8969,
      "vv": 8970,
      "ĠPrint": 8971,
      "ĠWith": 8972,
      "Ġfailures": 8973,
      "Ġrestore": 8974,
      "qt": 8975,
      "Ġgtest": 8976,
      "ĠMethod": 8977,
      "Ġwhole": 8978,
      "Ġspecification": 8979,
      "Ġtmpl": 8980,
      "IBILITY": 8981,
      "uro": 8982,
      "dependency": 8983,
      "anity": 8984,
      "TagIterator": 8985,
      "Ġdirname": 8986,
      "bitrary": 8987,
      "//////": 8988,
      "NONE": 8989,
      "Ġrecursive": 8990,
      "Ġangle": 8991,
      "ĠNS": 8992,
      "Ġnargs": 8993,
      "'ve": 8994,
      "204": 8995,
      "ĠMAX": 8996,
      "Ġcountry": 8997,
      "130": 8998,
      "terms": 8999,
      "ens": 9000,
      "COUNT": 9001,
      "<<": 9002,
      "does": 9003,
      "Ġfinished": 9004,
      "alert": 9005,
      "Ġliteral": 9006,
      "receive": 9007,
      "ĠBad": 9008,
      "Ġcompatible": 9009,
      "fk": 9010,
      "Ġcast": 9011,
      "TagBuffer": 9012,
      "etree": 9013,
      "ANGE": 9014,
      "Station": 9015,
      "aemon": 9016,
      "algorithm": 9017,
      "Ġboundary": 9018,
      "setitem": 9019,
      "ldap": 9020,
      "Ġer": 9021,
      "itch": 9022,
      "Ġfacts": 9023,
      "Ġfunctools": 9024,
      "Full": 9025,
      "annotation": 9026,
      "Ġ*=": 9027,
      "Ġparents": 9028,
      "DOCUMENTATION": 9029,
      "432": 9030,
      "SEQUENTIAL": 9031,
      "VC": 9032,
      "sci": 9033,
      "140": 9034,
      "FITS": 9035,
      "vendor": 9036,
      "bridge": 9037,
      "ĠDISCLAIM": 9038,
      "Ġcancel": 9039,
      "Ġld": 9040,
      "locked": 9041,
      "tip": 9042,
      "Ġ2008": 9043,
      "Ġdifference": 9044,
      "MESSAGE": 9045,
      "Ġabstract": 9046,
      "Ġ2009": 9047,
      "ĠAuto": 9048,
      "always": 9049,
      "rain": 9050,
      "Ġchr": 9051,
      "Ġ\\\"": 9052,
      "WARNING": 9053,
      "ners": 9054,
      "FAIL": 9055,
      "ised": 9056,
      "REAM": 9057,
      "ante": 9058,
      "OPTIONS": 9059,
      "Ġimplements": 9060,
      "oll": 9061,
      "Ġunderlying": 9062,
      "ĠARABIC": 9063,
      "ostream": 9064,
      "ĠEOF": 9065,
      "union": 9066,
      "Ġtxt": 9067,
      "Ġgran": 9068,
      "Ġface": 9069,
      "384": 9070,
      "cio": 9071,
      "ctypes": 9072,
      "credit": 9073,
      "Ġgreater": 9074,
      "bn": 9075,
      "pread": 9076,
      "metrical": 9077,
      "Ġatol": 9078,
      "Ġinstanti": 9079,
      "ĠInte": 9080,
      "ERY": 9081,
      "uca": 9082,
      "ORM": 9083,
      "OIN": 9084,
      "ĠGiven": 9085,
      "POS": 9086,
      "Ġdiv": 9087,
      "drive": 9088,
      "tun": 9089,
      "CallbackBase": 9090,
      "repository": 9091,
      "301": 9092,
      "Hook": 9093,
      "tention": 9094,
      "subfield": 9095,
      "archy": 9096,
      "Ġol": 9097,
      "Ġselector": 9098,
      "TABLE": 9099,
      "Ġmultip": 9100,
      "ĠBlock": 9101,
      "Asc": 9102,
      "Ġsetuptools": 9103,
      "erry": 9104,
      "=============": 9105,
      "xm": 9106,
      "reload": 9107,
      ")|": 9108,
      "Ġexcluded": 9109,
      "tios": 9110,
      "#////////////////////////////////////////////////////////////////": 9111,
      "aste": 9112,
      "izing": 9113,
      "ragma": 9114,
      "Ġasset": 9115,
      "Ln": 9116,
      "MSG": 9117,
      "=\\\"": 9118,
      "Win": 9119,
      "ParseError": 9120,
      "Ġrespon": 9121,
      "volumes": 9122,
      "GetValue": 9123,
      "gre": 9124,
      "Ġ{\\": 9125,
      "#//////////////////////////////////////////////////////////////////////": 9126,
      "Batch": 9127,
      "Ġchecksum": 9128,
      "Ġcodec": 9129,
      "ixVector": 9130,
      "ppings": 9131,
      "Ġstarts": 9132,
      "ended": 9133,
      "Ġcoordinates": 9134,
      "ĠLOSS": 9135,
      "RU": 9136,
      "jax": 9137,
      "Ġreply": 9138,
      "SerializeToString": 9139,
      "ĠCONSEQUENTIAL": 9140,
      "ĠSUBSTITUTE": 9141,
      "Ġls": 9142,
      "schemas": 9143,
      "ĠSolution": 9144,
      "Scale": 9145,
      "aming": 9146,
      "Ġclause": 9147,
      "dll": 9148,
      "Fragment": 9149,
      "Accept": 9150,
      "ĊĠĠĠĠĠĠĠĠĠĠĠĠĠĠĠĠĠĠĠĠĠĠĠĠĠĠĠĠĠĠĠĠĠĠĠĠĠĠĠĠĠĠĠĠĠĠĠĠĠĠĠĠ": 9151,
      "RESULT": 9152,
      "chart": 9153,
      "Ġentities": 9154,
      "Ġprece": 9155,
      "orse": 9156,
      "alect": 9157,
      "Ġss": 9158,
      "quential": 9159,
      "strong": 9160,
      "Ġ33": 9161,
      "XR": 9162,
      "NA": 9163,
      "Ġepoch": 9164,
      "Console": 9165,
      "Ġbottom": 9166,
      "CCEED": 9167,
      "Uan": 9168,
      "ĠSession": 9169,
      "ENC": 9170,
      "Ġdisplayed": 9171,
      "Processing": 9172,
      "isis": 9173,
      "cart": 9174,
      "Ġflush": 9175,
      "Render": 9176,
      "ĠINDIRECT": 9177,
      "Ġqueries": 9178,
      "Ġoccurred": 9179,
      "Ġfreq": 9180,
      "2005": 9181,
      "Ġyaml": 9182,
      "Ġseg": 9183,
      "PASSWORD": 9184,
      "CMD": 9185,
      "æĪ": 9186,
      "Ġ\"@": 9187,
      "('^": 9188,
      "GI": 9189,
      "GLIG": 9190,
      "Play": 9191,
      "TARGET": 9192,
      "Ġgs": 9193,
      "GLIGENCE": 9194,
      "Null": 9195,
      "libraries": 9196,
      "Ġlayers": 9197,
      "sect": 9198,
      "lenium": 9199,
      "Ġsubclasses": 9200,
      "]}": 9201,
      "fidence": 9202,
      "Ġscores": 9203,
      "Decode": 9204,
      "Ġtaken": 9205,
      "Ġmasked": 9206,
      "Pcap": 9207,
      "uz": 9208,
      "Ġblob": 9209,
      "Ġspecifying": 9210,
      "Ġargv": 9211,
      "Ġsleep": 9212,
      "Ġprin": 9213,
      "Ġes": 9214,
      "((\"": 9215,
      "Ġlogic": 9216,
      "Ġresulting": 9217,
      "Initialize": 9218,
      "encoder": 9219,
      "Ġplugins": 9220,
      "Ġtw": 9221,
      "UES": 9222,
      "patial": 9223,
      "Ġprepare": 9224,
      "ĠContext": 9225,
      "that": 9226,
      "roper": 9227,
      "Ġmaps": 9228,
      "WA": 9229,
      "ĠPROFITS": 9230,
      "ÙĨ": 9231,
      "Ġdec": 9232,
      "=[]": 9233,
      "sibly": 9234,
      "__(*": 9235,
      "ront": 9236,
      "Ġ-----": 9237,
      "episode": 9238,
      "ĠGOO": 9239,
      "arding": 9240,
      "Ġsensor": 9241,
      "Ġreproduce": 9242,
      "character": 9243,
      "ĠSUCCEED": 9244,
      "AER": 9245,
      "${": 9246,
      "ĠĠĠĠĠĠĠĠĠĠĠĠĠĠĠĠĠĠĠĠĠĠ": 9247,
      "tif": 9248,
      "Ġpay": 9249,
      "Ġemp": 9250,
      "Ġduplicate": 9251,
      "assertIsNot": 9252,
      "NixVector": 9253,
      "DataFrame": 9254,
      "ĠFilter": 9255,
      "Errors": 9256,
      "REC": 9257,
      "ĠControl": 9258,
      "PON": 9259,
      "tistics": 9260,
      "EV": 9261,
      "Ġreceive": 9262,
      "mpling": 9263,
      "ashes": 9264,
      "Ġtes": 9265,
      "METHOD": 9266,
      "Ġ'{}": 9267,
      "Ġplan": 9268,
      "about": 9269,
      "}:": 9270,
      "pus": 9271,
      "Ġindicates": 9272,
      "Ġxmlns": 9273,
      "łģ": 9274,
      "Ġshown": 9275,
      "Ġtransfer": 9276,
      "letter": 9277,
      "ĠGE": 9278,
      "Ġfunctionality": 9279,
      "Ġfollowed": 9280,
      "ĠNEGLIGENCE": 9281,
      "Ġlexer": 9282,
      "ssue": 9283,
      "fft": 9284,
      "230": 9285,
      "ufb": 9286,
      "Ġconsume": 9287,
      "ade": 9288,
      "STRUCT": 9289,
      "pared": 9290,
      "ADD": 9291,
      "ĠWSGI": 9292,
      "FILES": 9293,
      "Ġbel": 9294,
      "Ġ45": 9295,
      "wrapped": 9296,
      "Ġ70": 9297,
      "locals": 9298,
      "409": 9299,
      "tok": 9300,
      "Django": 9301,
      "gid": 9302,
      "nsecs": 9303,
      "()])": 9304,
      "Ġrpc": 9305,
      "mgmt": 9306,
      "\"')": 9307,
      "Ġreactor": 9308,
      "hostFtdc": 9309,
      "FB": 9310,
      "catch": 9311,
      "Ġcomputed": 9312,
      "ãĥ": 9313,
      "WITH": 9314,
      "Ġjobs": 9315,
      "quent": 9316,
      "Ġ'%(": 9317,
      "ĠCIR": 9318,
      "217": 9319,
      "pull": 9320,
      "vile": 9321,
      "Ġrtol": 9322,
      "Util": 9323,
      "Ġplain": 9324,
      "parents": 9325,
      "ROP": 9326,
      "CONTENT": 9327,
      "purchase": 9328,
      "SOCK": 9329,
      "EventImpl": 9330,
      "']):": 9331,
      "ĠCOPY": 9332,
      "nbsp": 9333,
      "2016": 9334,
      "btn": 9335,
      "ticket": 9336,
      "imation": 9337,
      "Testing": 9338,
      "ĠOrder": 9339,
      "lays": 9340,
      "Ġflatten": 9341,
      "ĠARE": 9342,
      "Ġserializer": 9343,
      "vocab": 9344,
      "Ġweak": 9345,
      "Pbb": 9346,
      "iny": 9347,
      "Ġinvoice": 9348,
      "priv": 9349,
      "Characters": 9350,
      "dating": 9351,
      "into": 9352,
      "tenv": 9353,
      "rieve": 9354,
      "umer": 9355,
      "Ġct": 9356,
      "218": 9357,
      "Ġ\"(('": 9358,
      "HH": 9359,
      "arest": 9360,
      "Ġsuccessful": 9361,
      "Ġfrozenset": 9362,
      "Deferred": 9363,
      "allet": 9364,
      "dates": 9365,
      "bulk": 9366,
      "Ġpending": 9367,
      "execution": 9368,
      "bp": 9369,
      "community": 9370,
      "matching": 9371,
      "ĠDIAER": 9372,
      "ĠDIAERESIS": 9373,
      "seudo": 9374,
      "UPT": 9375,
      "Ġsimply": 9376,
      "rmtree": 9377,
      ":\")": 9378,
      "finity": 9379,
      "ĠCurrent": 9380,
      "LENGTH": 9381,
      "ĠLay": 9382,
      "ĠĠĠĠĠĠĠĠĠĠĠĠĠĠĠĠĠĠĠĠ": 9383,
      "(\".": 9384,
      "Ġshouldn": 9385,
      "ĠTensorFlow": 9386,
      "confirm": 9387,
      "meri": 9388,
      "Ġ300": 9389,
      "ender": 9390,
      "nsup": 9391,
      "Ġunused": 9392,
      "pretty": 9393,
      "Ġleading": 9394,
      "spawn": 9395,
      "TCP": 9396,
      "Ġquotes": 9397,
      "positive": 9398,
      "LOB": 9399,
      "Ġaggregate": 9400,
      "UUID": 9401,
      "nat": 9402,
      "tially": 9403,
      "ĠRed": 9404,
      "EMAIL": 9405,
      "Ġgc": 9406,
      "uv": 9407,
      "159": 9408,
      "RUPT": 9409,
      "cxx": 9410,
      "Ġsin": 9411,
      "ril": 9412,
      "ĠThen": 9413,
      "coordin": 9414,
      "moo": 9415,
      "precationWarning": 9416,
      "aniti": 9417,
      "ĠMatrix": 9418,
      "ĠBoolean": 9419,
      "hf": 9420,
      "ĠMatch": 9421,
      "ĠSY": 9422,
      "Ġgeo": 9423,
      "pd": 9424,
      "Ġseparator": 9425,
      "Ġfew": 9426,
      "AU": 9427,
      "subs": 9428,
      "gene": 9429,
      "Flexible": 9430,
      "shapes": 9431,
      "01234": 9432,
      "Ġmanagement": 9433,
      "stan": 9434,
      "rices": 9435,
      "Assign": 9436,
      "arc": 9437,
      "ĠDOWN": 9438,
      "Ġguess": 9439,
      "Ġspecifies": 9440,
      "listener": 9441,
      "Used": 9442,
      "\"][": 9443,
      "Real": 9444,
      "Init": 9445,
      "',)": 9446,
      "ĠMovedAttribute": 9447,
      "EMENT": 9448,
      "ĠGET": 9449,
      "minator": 9450,
      "ilent": 9451,
      "Ġcolors": 9452,
      "ffered": 9453,
      "Ġcomparison": 9454,
      "TOKEN": 9455,
      "Ġenter": 9456,
      "ik": 9457,
      "Ġwebpage": 9458,
      "readlines": 9459,
      "***": 9460,
      "ĊĊĠĠĠĠĠĠĠĠĠĠĠĠĠĠĠĠĠĠĠĠĠĠĠ": 9461,
      "paren": 9462,
      "Cursor": 9463,
[...]
